#version: 0.2 - Trained by `huggingface/tokenizers`
a n
e r
i n
e n
Ġ t
Ġ s
o n
Ġ d
Ġ c
a t
a l
Ġ p
Ġ m
o r
e s
e c
Ġ v
i c
a r
s t
i en
Ġ l
in g
h an
r o
i on
a c
Ġ k
e l
Ġ n
en t
a g
Ġ b
i t
o p
on g
e t
Ġm an
e v
Ġman ag
e m
Ġ a
Ġt r
Ġ h
Ġt h
Ġv ien
a m
Ġd ev
Ġ r
u n
at ion
Ġ an
Ġp ro
ec t
in e
in h
Ġ en
Ġ g
Ġmanag er
Ġ f
Ġp h
op er
Ġ q
i st
i s
o m
u c
Ġen g
Ġc h
Ġdev el
a p
u r
ine er
u t
o f
Ġ in
Ġeng ineer
o c
c h
i v
o an
a d
a i
Ġ han
an t
Ġq u
c e
Ġs u
Ġs al
Ġ e
ar k
Ġc on
m ent
es s
i g
ark et
u ong
Ġdevel oper
e p
o l
iv e
i or
a s
Ġm arket
Ġ w
a o
er v
Ġk h
u l
uc t
Ġl y
Ġs t
Ġg i
u y
Ġn han
em ent
t er
u s
ar e
i al
en ior
ac h
y st
Ġhan g
Ġ of
ic al
i l
o un
e d
Ġqu an
uy en
Ġth u
Ġmarket ing
Ġe x
i p
Ġ j
ec h
Ġa d
Ġan d
e ad
j ect
an ce
g r
i e
i r
Ġsal es
un g
Ġa s
Ġ ac
at or
Ġan al
Ġc o
Ġmanag ement
Ġn g
ic e
Ġd oan
it y
n han
w are
at e
ech n
Ġh o
Ġdoan h
a y
i d
Ġas s
Ġk e
d uct
of t
Ġb an
Ġc om
p p
o i
m er
ac k
u st
oun t
or t
Ġpro ject
Ġ x
in ess
s enior
a v
us iness
c ount
m in
Ġk inh
Ġ &
Ġs erv
oft ware
t r
o d
ig n
Ġt oan
ac t
Ġv an
Ġt echn
Ġtr inh
ec ut
f f
o t
Ġd es
Ġp r
Ġ oper
ar t
es t
Ġdevel op
ie u
gr am
ecut ive
ation s
Ġk y
Ġn h
Ġd u
Ġph ong
i m
i em
q u
ect or
Ġad min
o g
Ġac count
ar ch
Ġs p
yst em
Ġpro duct
Ġl ead
ist ant
ul t
Ġdevelop ment
Ġex ecutive
Ġdes ign
Ġth i
Ġcon s
Ġpro gram
Ġof f
Ġt e
Ġb usiness
Ġt u
Ġs oftware
a u
Ġc ong
or k
ir ector
t h
ust om
a in
Ġl ap
ic h
or d
Ġp l
Ġd at
Ġs an
Ġs ystem
a b
er s
l e
r e
Ġd oc
Ġtr uong
ter n
u m
Ġthu at
o b
p ro
e b
Ġsal e
Ġcon t
Ġd ung
Ġj av
Ġgi am
Ġcons ult
o s
f or
Ġass istant
ist r
y s
Ġanal yst
en d
u d
ec ial
a ff
Ġc l
Ġhan h
Ġt ai
Ġc ustom
Ġr e
Ġng h
Ġch inh
Ġp han
is or
an g
ic er
Ġsp ecial
Ġth ong
w ork
p l
ro l
st r
Ġd irector
Ġoff icer
it al
Ġserv ice
Ġpl an
Ġs o
Ġengineer ing
p r
Ġd ien
for m
Ġspecial ist
c r
Ġsu pp
Ġk iem
Ġin tern
at ive
ch uyen
Ġf in
u p
Ġdeveloper s
Ġv u
Ġn et
s al
Ġs h
Ġr es
Ġst aff
an d
j s
Ġs enior
Ġconsult ant
Ġt o
Ġw eb
ol og
Ġtr i
ic s
Ġ at
Ġx u
Ġ it
Ġh e
Ġf r
ig ital
Ġl e
Ġsu p
Ġa pp
it ect
Ġr el
arch itect
ap h
i f
Ġb ao
Ġprogram mer
c ess
Ġjav a
i ep
Ġm ed
Ġlead er
Ġanal ys
Ġcont rol
Ġdat a
Ġadmin istr
erv isor
o w
c ial
on t
Ġ architect
ur e
Ġcustom er
Ġanalys is
h ip
Ġplan n
str uct
Ġq a
il l
Ġthi et
Ġtr ien
h o
Ġv a
ord in
u a
ag e
e o
Ġgi ao
Ġkh ach
r a
i a
ic ation
Ġsupp ort
Ġtechn ical
Ġl uong
qu an
Ġph am
as s
Ġr ep
g i
Ġs at
m un
Ġt ro
Ġst r
q l
Ġd igital
u x
Ġv i
Ġch uyen
Ġsup ervisor
al ity
Ġs ec
Ġho a
ip t
tr uong
sal es
Ġ i
il e
Ġd ich
Ġb o
p ort
Ġxu at
ar d
Ġa ut
Ġs c
ate g
m an
el ect
Ġco ordin
olog y
Ġph at
Ġ on
e arch
k e
ai r
ic es
Ġt ien
Ġdesign er
it e
i an
Ġf or
u b
Ġd ong
Ġkh o
p er
Ġpro cess
ut ion
Ġnet work
Ġte am
Ġen d
Ġr ec
Ġaccount ant
Ġd ep
Ġs ol
cr ipt
Ġs k
Ġoper ation
han h
Ġin v
ur ance
Ġb ack
ul l
ien t
i z
elect r
Ġg r
en er
Ġcom mun
Ġqu ality
as e
Ġin s
Ġserv ices
Ġpr es
Ġb r
k y
Ġoper ations
Ġplann ing
ur ity
Ġsk ill
u i
r es
Ġnh a
el l
Ġq c
Ġcoordin ator
Ġproduct ion
Ġng an
ent er
an cial
Ġban k
Ġstr ateg
it or
n et
Ġh oc
Ġl ieu
Ġe d
a st
ion al
Ġf l
Ġrel ations
ur ch
Ġ 3
o od
Ġcom p
Ġtechn ology
ec han
Ġad v
ener al
p h
ic ian
ai l
o ur
al l
gi am
an s
in t
ig h
tr act
ar y
Ġte ach
Ġ 2
t e
is k
Ġt ong
Ġp art
is h
Ġgr aph
Ġfr ont
ie f
Ġl i
Ġth e
Ġngh iep
c om
o ud
Ġm em
Ġh r
Ġ im
Ġ ro
Ġre act
Ġsec urity
Ġ electr
struct ion
Ġoper ator
Ġres earch
Ġtr ain
Ġn oi
ob ile
l ine
c o
od e
u al
d er
Ġch at
Ġt ap
Ġt in
n er
Ġ op
Ġt ich
i ate
Ġd ieu
form ation
Ġr isk
Ġho ach
Ġ or
Ġt y
g al
Ġsol ution
Ġm ay
Ġadministr ator
Ġf ull
Ġs oc
Ġfin ancial
Ġp ack
m arket
i es
Ġt est
s e
pro duct
Ġp urch
Ġ y
Ġc r
Ġx ay
Ġsh op
ro id
c han
Ġvi et
Ġfin ance
Ġc or
og ist
Ġm echan
b usiness
ation al
Ġh op
Ġgi a
Ġoff ice
Ġapp l
0 0
it er
us e
Ġsystem s
Ġc ao
ain t
Ġa ff
Ġjav as
Ġ un
Ġ ag
pro ject
Ġ o
d irector
Ġtechn ician
ien ce
Ġinv est
Ġc ap
Ġcl oud
Ġd ra
Ġg eneral
p or
Ġcon tract
ust r
at er
man ag
gr aph
am e
Ġprogrammer s
Ġaff air
Ġkh ai
es ter
Ġcom pl
Ġcom mer
Ġd o
l y
ev ent
er y
a f
Ġd inh
s oftware
f act
ers on
Ġbr and
Ġw ork
Ġtr ans
oc iate
or y
Ġv e
is e
Ġtr ad
igh t
q c
Ġan h
al th
Ġnh om
Ġk i
Ġn ode
g ul
r u
Ġtien g
t echn
Ġt uyen
Ġon line
l ish
Ġph ap
u fact
Ġand roid
Ġnh ap
market ing
Ġph p
o v
st ack
ol l
Ġmed ia
Ġ art
Ġt ao
Ġb i
Ġm obile
it ion
as ing
Ġin d
Ġ em
ic ations
Ġl ogist
Ġtr uc
es e
l ead
Ġle gal
Ġcont ent
Ġqu y
Ġm od
id ent
Ġd au
Ġcon struction
Ġin formation
g e
Ġt el
Ġl u
e w
Ġs ch
Ġm on
por ate
u ment
Ġt ester
Ġins urance
Ġ est
c es
chan d
o k
ub l
e x
Ġph ot
Ġaut om
Ġch e
Ġch i
res ent
n am
Ġr ev
t o
Ġres our
c on
s ite
Ġi os
Ġdev s
Ġth uong
h er
el d
Ġrelations hip
Ġm ach
Ġteach er
Ġs inh
Ġt hanh
ass istant
a k
ect ion
oun d
ho use
s p
en g
Ġman ufact
Ġm ua
Ġd ao
id eo
art ment
Ġ +
Ġh iem
Ġd an
manag er
or e
t ro
Ġph u
Ġngh e
a x
ut ter
Ġman g
c ustom
Ġm er
Ġch ief
techn ical
Ġbank ing
Ġt iep
ev el
i ance
Ġt ac
ab or
Ġc oll
i eld
Ġprogram m
Ġappl ication
pr ess
Ġtrain ing
l er
iz ation
Ġst ack
Ġ is
u mer
er t
Ġdep artment
Ġmed ical
Ġd r
d at
Ġrep resent
Ġg ro
Ġa ud
l ob
Ġh ead
o ai
ubl ic
lob al
Ġj ob
as h
um an
Ġb ien
Ġr et
Ġw in
Ġc u
Ġex per
Ġb u
d ing
Ġth uc
ut y
Ġstrateg y
il ity
av el
Ġl am
Ġl a
Ġdu oc
ip ment
Ġ -
Ġmod el
r et
in c
Ġin ter
Ġind ustr
Ġtr uyen
oc ad
Ġf re
en c
ac count
Ġco st
ab le
Ġkh u
Ġrec ru
Ġp er
Ġ 1
Ġ ui
custom er
Ġmer chand
Ġv ideo
m l
ed it
e y
Ġass ociate
Ġviet nam
Ġ event
f in
Ġch am
ab ase
Ġsc ient
Ġd e
ar m
if t
in tern
aint en
n el
Ġex port
Ġrepresent ative
is er
ater ial
Ġt an
ord press
f r
Ġeng lish
r iter
Ġcor porate
i er
Ġph oi
ainten ance
Ġed itor
g ional
Ġaut ocad
Ġs eo
Ġdoc ument
Ġin f
Ġe qu
Ġanal y
Ġfl utter
Ġcons umer
oc k
Ġcommun ication
Ġaccount ing
Ġd oi
Ġv is
o int
m c
i et
Ġc re
Ġjavas cript
ast er
Ġnode js
Ġelectr ical
i b
sal e
ac e
inc ip
af et
c l
Ġc um
t el
Ġmach ine
Ġlogist ics
Ġso at
ag ing
un ior
Ġp ublic
Ġw ordpress
Ġinvest ment
Ġtr a
Ġk ien
Ġc enter
s hip
Ġ ec
Ġcompl iance
en ce
n ing
Ġsolution s
Ġc oun
Ġplann er
Ġautom ation
w ing
i um
op s
Ġ ung
Ġ up
Ġtr ung
Ġp ol
afet y
an h
Ġequ ipment
Ġin t
ut er
Ġp ay
Ġmanufact ur
Ġl in
Ġng u
Ġscient ist
form ance
Ġv uc
al e
Ġconsult ing
Ġtrad e
Ġat t
Ġcl er
Ġrep ort
Ġac t
Ġs ql
id e
Ġpurch asing
it ing
Ġaffair s
q a
Ġs ite
Ġv at
Ġpro f
h r
Ġg ood
Ġc s
Ġc are
Ġadv isor
Ġd ai
Ġm aterial
incip al
o y
Ġweb site
Ġd on
Ġch ung
Ġj s
Ġa p
l ap
Ġkh i
Ġs w
e e
is ing
ad min
ap an
Ġmechan ical
Ġm aintenance
Ġd art
b ound
h ead
Ġstrateg ic
Ġ /
Ġph uc
Ġ ux
Ġs ur
ers hip
al es
Ġth am
d es
Ġtr ach
p ho
am p
Ġh inh
Ġdat abase
Ġadministr ation
Ġback end
Ġcommer cial
Ġrel ation
im e
Ġf ield
Ġsc ience
y th
Ġf ac
apan ese
yth on
Ġkho a
i o
Ġcoun s
t ml
Ġc han
b r
Ġr ui
dat a
d uc
Ġass urance
Ġpres ident
is ion
er p
Ġm y
Ġv b
gul ar
Ġn ew
Ġs m
enter pr
Ġty p
Ġed uc
enterpr ise
Ġm ai
Ġg o
Ġpol ic
Ġst ud
Ġs afety
Ġm oi
Ġvu e
Ġgraph ql
Ġc oc
o graph
it ment
Ġan gular
Ġreact js
s u
al ent
if y
Ġest im
b an
au d
Ġkh au
Ġcr edit
Ġlin ux
ret ary
end er
Ġc all
Ġgro up
Ġc hanh
Ġcontrol ler
p t
Ġgraph ic
Ġh uman
Ġh tml
Ġis o
s ystem
Ġd uong
Ġhe alth
s m
d igital
Ġs y
Ġanaly t
Ġbu il
ent ory
Ġn o
Ġc ua
Ġc a
Ġcoc os
Ġa b
j av
Ġg lobal
Ġf ood
Ġj apanese
Ġdat um
Ġg ame
Ġ ow
Ġper formance
Ġn am
Ġpro duc
Ġpack aging
t y
b er
Ġcu u
Ġcler k
Ġco ach
Ġtyp es
Ġb e
c ing
Ġcl ient
o ol
Ġh ai
Ġgi ang
Ġresour ces
Ġd el
Ġvis ual
Ġcommun ications
Ġnhan h
eng ineer
w eb
t ion
Ġcouns el
h op
Ġl ang
c ong
o st
net work
Ġshop ify
Ġp ython
Ġadministr ative
Ġch ain
Ġatt end
Ġph arm
e alth
Ġim port
erson al
th uc
er n
Ġdra f
Ġmanufactur ing
Ġh a
struct ure
Ġrev it
Ġl ab
Ġtypes cript
Ġh ieu
Ġret ail
c ur
ur al
o ut
u e
u age
Ġt ieu
Ġi i
Ġc au
Ġw are
Ġint ell
ar ep
en s
Ġvi ec
ra structure
Ġso ur
Ġle ar
Ġattend ant
Ġart ist
arep oint
Ġsupp ly
est a
Ġcommer ce
f re
Ġsec retary
b ack
Ġin bound
Ġcoll abor
g an
Ġprof ess
ub y
a ut
Ġch o
Ġpres ent
em ic
Ġlang uage
as k
Ġdra wing
iv ery
Ġchan nel
it ies
ot ion
ch ief
Ġcomp an
op y
Ġware house
fr ont
ur ant
Ġinv entory
up al
esta urant
Ġintell ig
Ġthu e
on e
d evel
Ġc n
v ir
Ġc ung
iv il
on om
Ġngh iem
act ion
r ec
Ġop en
Ġpurch ase
Ġl ar
pl oy
Ġt ax
s erv
r y
qu is
Ġcomp uter
Ġh el
at ing
quis ition
Ġpart ner
Ġprocess ing
Ġins p
Ġs ach
ic ro
Ġprogramm e
i x
Ġwin form
Ġin te
Ġinte gr
Ġhan d
Ġdr upal
jav a
is s
Ġth at
Ġadv ert
k er
em b
n h
Ġt alent
th iet
Ġgood s
en h
rol l
Ġsh arepoint
Ġin c
iv es
Ġre gional
enc y
vir on
b o
Ġto ur
Ġdes k
viron ment
Ġ enterprise
Ġmerchand iser
Ġindustr ial
Ġla w
Ġch ay
olog ist
Ġch em
Ġt ime
Ġe ff
ac le
cr um
Ġinf rastructure
Ġfr es
Ġphot os
+ +
Ġpolic y
Ġd is
Ġt ech
Ġoperation al
Ġintellig ence
Ġact iv
Ġdel ivery
ator y
Ġf ir
Ġs uc
Ġqu oc
Ġngh ien
Ġbuil ding
Ġt inh
Ġho i
em and
Ġpr int
Ġmed ium
Ġr uby
th u
Ġb ac
Ġb as
pro gram
Ġth au
Ġan im
of f
Ġr estaurant
Ġ us
Ġkh oan
Ġsoc ial
Ġb d
Ġsour cing
Ġtrain er
Ġ ord
Ġserv er
Ġlar avel
Ġcompan y
c ont
Ġsch ool
s r
Ġac quisition
e ar
Ġngan h
Ġs ap
l in
Ġw riter
ow s
are a
Ġph ien
Ġtel es
Ġre gul
ad emic
Ġrecru itment
Ġphot ograph
Ġexper ience
k inh
for ce
Ġc opy
Ġng oai
Ġh c
st aff
Ġquan g
Ġeduc ation
Ġto ol
Ġb l
te am
Ġaud it
Ġph o
Ġow ner
Ġwork er
v ice
Ġg u
b l
t u
Ġlear ning
p ing
oun der
Ġkh oi
Ġresour ce
Ġc le
Ġanalyt ics
Ġa ir
Ġstud ent
ed ul
Ġproject s
Ġn ang
Ġho tel
Ġd ay
Ġpart n
Ġ2 0
Ġp ost
s up
Ġc ash
gi ao
Ġo ut
product ion
con s
cur ement
Ġtr ang
Ġag ile
Ġtest ing
m s
Ġb at
Ġnh at
Ġun ity
Ġm at
Ġn u
e f
Ġc an
it h
al k
Ġs f
d ed
e g
Ġr or
ab ility
Ġfront end
Ġ al
Ġproduc er
Ġintern ational
ard ware
Ġs i
it ch
ep tion
et er
j unior
Ġs crum
in d
Ġdev ops
Ġ erp
Ġgi ai
Ġn ative
Ġth oai
Ġw a
Ġfr ame
Ġcre ative
Ġs r
Ġc ac
Ġmechan ic
Ġs cript
Ġest ate
Ġem ploy
Ġintern et
Ġst ore
Ġsch edul
Ġtrans action
Ġb en
w ard
Ġor gan
Ġm ak
ware house
t s
Ġw ealth
k h
Ġb ro
Ġx e
Ġas p
m ed
Ġt am
Ġeff ect
f ull
Ġproduct s
Ġfres her
Ġch ua
Ġch u
Ġframe work
Ġc ivil
Ġph au
ar in
o o
l u
com p
Ġap i
Ġag ent
g eneral
at form
Ġm au
Ġaccount s
Ġec onom
ed ded
p a
ent or
Ġdraf ter
v e
Ġfr aud
Ġm ep
Ġm icro
Ġarchitect ure
Ġcustom s
g et
Ġsup erv
ys ql
Ġsu a
t ing
t alk
Ġen vironment
Ġmon itor
Ġteach ing
Ġpro m
Ġt ender
Ġp os
Ġrep air
iss ion
Ġc ad
Ġprogramm ing
n g
Ġl evel
Ġopen stack
iz talk
ur es
Ġmon ey
Ġindustr y
Ġor acle
Ġintegr ation
al u
Ġm e
on s
Ġm ar
mer ce
Ġfre ight
Ġ od
Ġprofess ional
Ġintern ship
Ġphotos hop
ce d
s c
Ġsp r
t ech
Ġl ine
Ġcl in
Ġtr ieu
ur g
qu ality
Ġj unior
s ec
Ġin struct
Ġstr uct
Ġsw ift
pr incipal
w riter
Ġr ail
Ġac ademic
Ġpres ales
m ission
Ġm ysql
fin ancial
Ġmaterial s
ie w
Ġab ap
ine e
Ġd istr
Ġim pl
Ġcs s
p f
Ġh ien
Ġwin d
Ġd ia
Ġg oi
Ġex p
Ġcor e
d ev
Ġb iztalk
Ġex c
un der
Ġpr incipal
Ġl anh
Ġem b
Ġp ersonal
s h
ass ociate
d ep
o ok
ux t
Ġpl atform
devel oper
sup ervisor
ic t
er g
Ġm o
Ġp ow
Ġlu oc
Ġtrans l
Ġn inh
Ġman ual
Ġfull stack
des ign
Ġch ien
Ġpartn ership
Ġadvisor y
cons ult
Ġh ardware
Ġpr ice
Ġfl ask
Ġst and
ex ecutive
Ġan t
Ġ #
han g
Ġch uc
on ics
Ġ ob
Ġod oo
Ġpro ced
Ġst ock
Ġnu oc
el ance
Ġsh ip
Ġsf mc
Ġ .
am arin
c an
00 0
Ġmodel ing
ac y
Ġpro curement
Ġlu at
k iem
Ġc ar
Ġre al
Ġinc ent
Ġsal ary
el oper
s ol
ul es
Ġq l
Ġche f
Ġl ect
Ġw pf
Ġn uxt
re gional
Ġtr avel
Ġv ice
fin ance
Ġb ep
Ġke y
Ġph i
Ġcommun ity
ad e
Ġintern al
Ġexper t
Ġth oi
og le
ce pt
su pp
Ġsales force
r ic
Ġ20 1
Ġh om
Ġbrand ing
Ġcoll ection
Ġk enh
Ġlogist ic
ov ern
ec om
ur n
l et
Ġord er
p g
lead er
Ġhel p
Ġx amarin
Ġfor ward
Ġs et
ell er
serv ice
Ġdep uty
c or
s oft
s y
Ġsur g
Ġspr ing
v c
ot e
Ġwind ows
ordin ator
ud get
un d
admin istr
Ġq s
Ġup to
urg ent
Ġm et
Ġadvert ising
bl em
ol d
Ġrec eption
graph ic
ir ect
Ġm entor
Ġcounsel or
Ġro om
c t
et ing
Ġth o
ord s
ard s
b a
Ġm aster
Ġinstruct or
Ġ ar
Ġth uy
Ġchem ical
g lobal
m obile
e as
ec k
Ġ area
Ġvue js
i ed
Ġqu ant
Ġcle ar
Ġpresent ation
ph u
ic k
ien g
an ch
Ġob ject
f l
Ġop s
Ġpack age
Ġelectr ic
Ġl ich
k i
Ġinsp ector
Ġgi oi
ar ment
Ġsuc cess
com mun
m echan
c s
ch ain
Ġst at
Ġs earch
p urch
t t
pr eter
ap pl
ut or
Ġg ol
Ġpl ant
ur er
Ġd iv
in v
if e
Ġqu a
Ġcollabor ation
Ġclear ance
g ro
Ġ es
mc g
m at
Ġpack ing
Ġcompl aint
ad u
Ġpro blem
per ty
Ġk ich
des k
Ġb id
aut om
ai g
Ġl ay
Ġ ev
res earch
dep uty
c y
Ġb on
Ġtransl ator
Ġg overn
h uman
Ġcoach ing
it ure
ot ive
Ġass emb
en ue
Ġin st
Ġla under
is co
t im
Ġm ien
lu enc
ur se
en se
sy ch
Ġl abor
ock chain
o uc
Ġant i
Ġsol id
Ġb udget
Ġf ounder
luenc er
Ġtra inee
et ic
Ġm ag
off ice
ement s
Ġpr e
it s
Ġinvest or
Ġl en
Ġk et
h e
p art
Ġs oan
Ġc eo
Ġg e
Ġt hang
ev er
Ġemb edded
eb ook
Ġh uy
Ġnetwork ing
back end
Ġmonitor ing
eng lish
Ġemploy ee
a ke
w s
v i
Ġd ot
Ġd emand
ph p
Ġprom otion
Ġth re
in ese
Ġh y
if ic
Ġsp e
Ġec om
c p
in ter
Ġd uc
Ġgo ogle
Ġcustom ers
v ey
d ra
Ġfir m
te ach
Ġdistr ib
Ġappl ications
ic ing
h un
Ġf mcg
Ġngu oi
v ac
r ep
Ġng uyen
p erson
Ġd ec
t or
ent al
mechan ical
it ative
Ġ 5
Ġeffect s
c er
as er
Ġbo ok
cont ent
cor porate
Ġs it
rec ru
Ġengineer s
Ġquy et
on ic
Ġinf luencer
sp ecial
Ġinter preter
br and
al s
Ġph im
oper ation
d e
Ġad s
Ġcost ing
Ġc pa
ace ut
system s
Ġt ang
ro om
Ġresearch er
Ġtr ac
r iting
Ġrecru iter
ules oft
Ġp at
Ġj sp
Ġh igh
Ġcl ass
f ield
ke ep
Ġdiv ision
pg a
Ġbl ockchain
d a
Ġp m
Ġwa it
Ġproced ures
Ġ ent
aceut ical
Ġd a
Ġv ung
Ġ et
Ġl oan
urn iture
Ġd i
Ġlay out
a uty
l ing
istr y
cl oud
b ao
Ġc am
Ġp sych
if ied
r ipt
Ġp a
s w
Ġdep t
Ġret ouc
engineer ing
b ers
Ġpay ment
k t
k ing
ons or
Ġteles ale
Ġw ith
Ġa m
o ot
n s
Ġk u
Ġsuperv ision
Ġpos ition
Ġmarket er
tr ans
Ġevent s
Ġinter ior
pr es
Ġbon us
in s
cr ip
Ġm vc
Ġaud itor
g o
Ġsc al
Ġthre e
adu ate
str ateg
Ġgol ang
Ġrail s
Ġb uy
Ġpro perty
w th
Ġestim ate
Ġs ign
Ġreport s
Ġb a
Ġde al
Ġd am
Ġbr id
Ġmanufact ure
Ġrec e
Ġrev enue
iv er
Ġs am
s ql
l ogist
Ġgovern ment
alu ation
Ġcn c
sol ution
b p
Ġs ieu
Ġactiv ation
' s
h ic
Ġch up
Ġho st
Ġserv let
Ġqu ay
Ġa mer
Ġm ulesoft
Ġc amp
Ġch eck
Ġcom m
Ġcr m
Ġr ieng
Ġ $
Ġ all
em arket
v ien
Ġch uong
Ġjavas crip
Ġjavas ript
Ġr ed
Ġamer ic
Ġfac ebook
e ed
Ġl oc
an al
Ġre qu
Ġf pga
Ġdot net
Ġv on
l ed
co ut
pl an
Ġg arment
t uyen
p at
Ġ el
Ġeng ine
Ġpro t
Ġpr ep
Ġpr ess
Ġcap ital
Ġcr y
Ġch inese
st ud
Ġanim ation
or ter
Ġf ast
Ġ ip
Ġass et
Ġl ao
e at
h ot
Ġpay able
c c
f res
Ġsp onsor
Ġph ys
Ġelectr onics
Ġc y
front end
ut ive
tr ain
Ġmicro soft
Ġben ef
Ġm id
Ġcn tt
Ġdocument ation
consult ant
Ġc isco
Ġpr event
ov ing
Ġmem ber
Ġpow er
p ersonal
in formation
Ġsur vey
if ication
l am
s oc
Ġbe auty
ot lin
Ġop tim
Ġspe ak
Ġco b
Ġestim ation
purch asing
c are
it ant
Ġqa qc
Ġd irect
Ġstand ards
d ieu
Ġimpl ement
Ġsh ift
Ġbr anch
Ġhelp desk
Ġk n
electr ical
Ġfre e
d r
Ġpharm aceutical
Ġforward er
Ġth er
o or
Ġscal a
Ġcob ol
comp uter
u an
t est
Ġb inh
Ġex ecut
Ġlect urer
ir e
Ġcommercial ization
p age
Ġmerchand ising
ol ar
Ġecom merce
Ġb ever
Ġplan s
Ġstruct ural
Ġkh ong
Ġ ot
Ġa ws
i ability
Ġbas ic
Ġautom otive
ent o
mer chand
pro cess
Ġtel emarket
Ġt uong
tr ade
Ġcontract or
Ġr em
i os
hic le
br id
Ġho use
Ġenvironment al
ash ion
Ġprogram s
b ien
Ġk otlin
Ġgro wth
Ġc anh
Ġtechn olog
Ġpr icing
Ġtr ong
ad v
Ġr a
Ġp erson
Ġsm art
Ġmechan ics
cr edit
Ġ Ġ
Ġs e
d le
bo ard
Ġh se
Ġf urniture
Ġt uc
Ġin struction
Ġobject ive
Ġban g
d emand
Ġangular js
Ġinst all
Ġr m
Ġass ist
Ġorgan ization
Ġge od
fre ight
ho ot
ens ation
Ġhom e
Ġanaly z
le gal
Ġc ent
Ġs ell
g er
Ġmanag e
Ġreception ist
Ġi ot
sec urity
Ġf act
and roid
Ġtr u
ep h
Ġteles ales
Ġcre ator
Ġt im
Ġf ound
ian ces
Ġsan g
b u
Ġb ay
Ġregul atory
Ġlaunder ing
med ical
Ġm t
Ġh uong
Ġtechnolog ies
Ġd et
Ġrel iability
end ent
work s
Ġrec ords
Ġfac ility
Ġ 4
Ġh vac
m ark
Ġb ai
ret ail
Ġanim ator
Ġl uc
Ġl ife
Ġwork ing
con struction
Ġhc m
Ġv al
ur y
Ġun ix
l ist
ke y
i at
Ġis su
Ġs em
stud ent
Ġn ai
im port
intern ational
Ġm s
Ġv er
Ġar r
d oc
Ġtrad er
Ġn ort
soc ial
account ant
Ġinsp ection
Ġ u
Ġsch olar
Ġr ua
p han
account ing
f er
Ġbever age
Ġp ort
Ġm otion
ag es
Ġtrad ing
Ġprevent ion
il ities
Ġactiv ities
Ġpr act
Ġcash ier
Ġcamp aig
Ġb ar
Ġrev iew
Ġapp ro
con tract
fres her
Ġship ping
Ġg ap
Ġun der
Ġpay roll
Ġdevs ys
Ġclin ical
l es
Ġv ip
Ġr ap
Ġbro ker
Ġb h
ph ong
Ġm inh
af e
Ġac cout
h ol
Ġtool s
ac cp
Ġfre elance
Ġfact ory
t l
Ġskill s
Ġlu u
Ġgraph ics
Ġp g
Ġregul ation
Ġincent ive
Ġhel per
inv est
ing s
Ġm ob
Ġsw itch
Ġst y
Ġsales man
Ġsupp l
op ment
Ġx a
Ġn on
recru itment
Ġm uc
Ġl inh
re en
ow led
Ġc ert
Ġmak er
Ġrece iv
Ġrequ ir
owled ge
Ġph one
manag ement
Ġen roll
Ġad w
Ġdec or
appl ication
oper ations
Ġpharm acy
Ġt p
Ġst or
co ok
Ġt utor
Ġlead ership
h s
Ġtel ecom
Ġngu on
dra wing
Ġfound ation
cl ient
Ġth eo
Ġexc utive
Ġc ard
o op
Ġre g
Ġag ency
Ġmag ento
Ġve hicle
Ġh accp
itch en
Ġto a
Ġtrans port
Ġdistrib ution
s ap
Ġpsych ologist
Ġquant itative
Ġm ult
Ġpolic ies
Ġh ap
Ġint erv
Ġkhu on
Ġcontract ion
Ġv ol
Ġii i
Ġorgan iz
p os
Ġl op
p ut
ance d
Ġaud iting
Ġschedul er
b i
com mer
Ġth ao
strateg ic
Ġsales person
Ġx uong
Ġn v
logist ics
Ġp ar
ep erson
Ġhead hun
ch em
Ġgu est
Ġdan h
c n
commer cial
Ġmanufactur er
ac ist
c ode
Ġbuy er
d u
n ov
Ġclin ic
Ġ ide
pro v
p e
Ġlabor atory
Ġv n
supp ly
it ive
Ġins ight
Ġbrid ge
s s
Ġaut o
Ġoptim ization
Ġmon th
p c
n al
Ġmodel er
a z
Ġstrateg ist
Ġteach ers
Ġun it
Ġent ry
ban k
Ġcon cept
Ġcomp ensation
Ġsp ace
Ġf il
Ġsu b
ob e
n ew
Ġco sm
Ġim age
Ġbo ard
Ġs ection
k d
Ġimplement ation
Ġsurg ery
Ġch ong
l d
eg ot
Ġm kt
ut e
n k
Ġkn owledge
v an
Ġb im
Ġproduc e
w ear
Ġass itant
e u
ateg ory
sw ift
administr ative
ult ure
Ġs on
Ġdr iver
Ġ ill
Ġther ap
special ist
Ġschool s
p to
nh a
Ġeconom ist
Ġcont act
Ġdra w
iv ers
m a
m id
Ġdocument s
er al
Ġth ac
Ġd ba
Ġv o
Ġas m
fre elance
Ġp od
Ġx nk
at ed
l oy
Ġ S
autom ation
d ition
nh h
Ġd eb
Ġm ong
full stack
Ġcam er
Ġpr em
g age
Ġt eller
Ġphotograph er
ch mark
Ġeng in
Ġa i
train ing
ad oop
Ġincent ives
Ġng on
f ac
el an
Ġt nhh
t d
v er
Ġmerchand ise
c ore
o ad
Ġk itchen
p ack
Ġl uyen
y er
Ġf ashion
g or
Ġn ot
r el
e ign
is ement
Ġthu oc
Ġf un
Ġsh ow
ind ustr
pro f
gor ith
Ġassemb ly
ad c
Ġanalyz e
Ġmed ic
Ġgi an
Ġdoc tor
Ġapp ra
Ġn ong
Ġbid ding
Ġhr bp
str y
Ġpharm acist
5 00
ag ement
Ġf an
ar ation
f ol
Ġrisk s
Ġass ess
Ġsurg ical
at ic
Ġprofess or
Ġjob s
Ġow n
on line
l ance
chan ge
ph at
Ġeduc ational
Ġhand ling
tract ive
n ey
Ġoper ating
Ġcoordin ation
t op
man ufact
dev ops
Ġreport ing
f o
co st
Ġshop drawing
Ġgo als
Ġcon dition
Ġcommun ic
ur s
f x
ch er
n ess
Ġm en
Ġmach in
p i
Ġpres ale
oot wear
Ġsty list
Ġph uong
v ers
f ood
re act
Ġimpl ant
Ġy ear
Ġvideo graph
Ġspeak ing
Ġus er
Ġinvest ig
Ġcampaig n
ist a
erg ency
Ġnort h
Ġcopy writer
p ay
Ġn urse
Ġmar com
ur ing
Ġl oi
art ender
c re
t ester
gi ang
our nal
Ġso ut
ien ces
dat abase
iz e
Ġim prov
Ġstor age
plan ning
tr r
Ġc to
Ġh adoop
Ġadvert isement
f ounder
es ale
Ġh oan
Ġd em
Ġv ay
Ġj r
Ġben chmark
ed uc
Ġcry pto
Ġn egot
Ġat tractive
Ġin nov
Ġassist ance
Ġm ac
en ess
Ġad mission
c u
v al
Ġr x
Ġhand le
fol io
in f
Ġl ance
Ġal gorith
Ġtel eph
i ation
Ġl an
t alent
ir el
w riting
Ġn at
Ġmem bers
Ġfan page
Ġ 0
Ġpro v
Ġred ux
loy ment
h em
intern ship
Ġde f
Ġsal eperson
f ace
m ach
Ġ _
Ġpa stry
Ġth ai
chem ical
ur r
gr aduate
x d
Ġide a
at r
Ġcs kh
gr es
Ġp e
s en
r r
ed eral
Ġs a
l a
Ġq trr
Ġmentor ing
Ġgu ide
Ġcle an
Ġt er
r al
v ideo
Ġsm b
Ġimprov ement
Ġshop ping
Ġx code
Ġill ustr
c v
ut ing
Ġeng agement
Ġho at
od b
c le
il d
Ġsp ec
industr ial
Ġm ax
r ite
Ġd uy
c al
Ġord ers
Ġdeb t
Ġsc reen
eas ury
ag er
gres ql
Ġ 8
Ġc at
Ġfor ce
Ġv p
Ġrx swift
n v
on y
Ġl td
gro up
ans ion
Ġd en
irel ess
Ġ arch
Ġm in
Ġw ater
Ġpart s
y t
Ġbro adc
ail y
ul ar
Ġsolid works
j r
Ġgeod etic
Ġql rr
r ess
Ġsurvey or
un ity
Ġpartnership s
Ġpract ice
erp oint
d istr
Ġac cess
Ġcl ai
Ġ z
ang o
Ġstruct ure
Ġv l
Ġv fx
elect ro
x t
i qu
Ġb ig
j ango
ow ner
Ġbenef its
ex port
Ġl ong
Ġfl ow
Ġaccout ant
Ġexp ansion
Ġme eting
Ġle asing
Ġeditor ial
s hop
Ġk ore
Ġbu u
Ġpurch aser
Ġschedul e
Ġg ener
prof ess
Ġperson nel
Ġdep loyment
b ot
m aster
Ġad obe
Ġhy brid
o us
p ublic
ur id
teach ing
Ġb artender
Ġbd s
Ġt a
urid ical
ator s
Ġex ec
Ġcr p
v p
ap er
Ġfl oor
Ġmong odb
Ġprem ium
Ġp age
Ġair freight
Ġrep orter
Ġth ings
Ġp c
l ab
Ġmanager s
p s
p m
Ġm ake
Ġad m
Ġcomp et
Ġc ust
s our
Ġmanag ing
ch i
ill ing
Ġinterv iew
Ġnh iet
keep er
m e
e el
b e
Ġt i
c enter
Ġ 7
Ġchem istry
invest ment
Ġhc ns
ph ot
t ai
ul ation
ivers ity
Ġj ournal
Ġtr ack
Ġm ech
Ġs re
cl in
Ġreceiv able
Ġf it
Ġbar ista
Ġc ay
Ġres p
str ument
Ġretouc her
Ġestim ator
Ġkh ieu
ed ia
Ġco de
Ġvl xd
c oll
Ġadv iser
Ġt ot
c ivil
Ġcler ical
Ġcompl iances
ng h
Ġt ask
Ġprot ection
f ter
et ch
Ġh uan
Ġhealth care
Ġthuy et
Ġpost gresql
n ational
d n
techn ology
Ġs ector
v is
Ġd ent
Ġac c
Ġho sp
Ġadv anced
c ar
Ġalgorith m
Ġy eu
Ġretouc h
Ġassess ment
h n
intern al
t ax
m et
Ġtechn ologist
Ġtr an
Ġlect ure
Ġ 6
ion s
Ġch ar
Ġj uridical
ograph y
Ġg ate
r isk
Ġc ategory
Ġcoordin ate
Ġ 9
Ġac cept
Ġl og
Ġteam lead
Ġshow room
Ġm ot
h i
Ġg am
id er
Ġassemb ler
00 1
en e
rep resent
d t
Ġapp s
Ġn ational
Ġprint ing
m aintenance
us s
il it
h ealth
Ġtrans formation
Ġservlet s
at ics
r ect
Ġport folio
iv eness
io us
Ġlaw yer
Ġcall s
th i
im edia
Ġsuppl ier
Ġc ai
merchand iser
Ġd er
Ġ2 00
ct ional
emb edded
elan cer
s eo
Ġql da
Ġk cs
iv ate
Ġintern s
Ġprep aration
Ġfor eign
c m
Ġ+ +
devel opment
Ġrec ov
Ġ er
mach ine
Ġnh ung
d ai
Ġelectr onic
at a
consult ing
commun ity
Ġl ight
Ġev alu
g l
m icro
Ġr f
ow er
Ġappro val
Ġex change
teach er
Ġsup er
eat ment
doc ument
Ġhosp ital
Ġclient s
t eller
h a
lin ux
erg y
g ame
ec a
itor y
Ġcar go
Ġstat ist
s et
s ch
chan nel
e ase
or mer
hol esale
v ing
Ġthu an
Ġ eloper
Ġw el
Ġd jango
st ore
Ġj qu
Ġatt or
Ġfil m
t ual
Ġphot o
Ġd ental
Ġeffect iveness
Ġattor ney
Ġthree js
Ġver ification
d sm
Ġc afe
Ġscreen writer
Ġf ootwear
n ode
is m
Ġen ergy
Ġp ip
Ġpow erpoint
Ġco ok
Ġvietnam ese
Ġa ml
h od
co ordinator
Ġ electro
Ġm oving
ho a
Ġho ac
rec eption
manufact uring
Ġchu oi
pl ace
Ġtherap ist
Ġb od
b ro
Ġnot ar
x u
er ation
Ġch ot
Ġf und
os s
ts man
Ġd aily
Ġw riting
or eca
cont rol
Ġanalyt ical
Ġem ergency
id ation
fre e
dsm ax
Ġreg ion
Ġli qu
Ġd ang
Ġc ount
tern al
Ġrelationship s
Ġfac ilities
m ar
p re
ex per
Ġl ic
program mer
Ġt on
m aterial
h av
Ġinnov ation
it te
Ġnv kd
Ġm a
Ġrequir ements
Ġf ab
Ġcy ber
v iet
Ġtr eatment
Ġo vers
Ġb oi
Ġrec ord
Ġsk etch
Ġr ad
qu et
Ġa fter
jav as
at es
Ġh au
Ġdotnet core
Ġeconom ic
cre ative
m oving
p ython
Ġmod ern
s afety
Ġeconom ics
r itory
solution s
Ġdis aster
Ġmeeting s
Ġdem o
Ġtruc k
it t
Ġameric a
re al
o in
gro und
i ment
Ġtr easury
supp ort
on ent
Ġde ep
ro m
med ia
Ġdeal er
Ġc fo
on d
bu il
ph ien
Ġp ages
ak er
Ġv aluation
commun ication
Ġarr ay
Ġnh iep
ad ata
Ġmech atr
ap p
Ġt em
Ġjournal ist
Ġf ederal
le ar
com merce
ins urance
et ics
ch u
design er
av y
pl ay
Ġm ark
iz ed
Ġcust ormer
Ġt oi
s an
Ġtr am
Ġsc iences
profess ional
em ploy
ent ion
Ġco urse
Ġr sm
Ġd b
ell or
Ġs elect
Ġmid dle
g u
ubl es
ain ter
clin ical
t ime
Ġ urgent
Ġsm e
Ġder mat
m f
Ġsol ving
at ives
Ġv ir
aut ician
Ġphotograph ers
Ġor ient
Ġwait ress
Ġsp ort
Ġliqu id
Ġsout h
Ġmak ing
Ġt au
and id
or acle
Ġsm t
Ġship per
Ġcert ified
Ġdev ice
Ġphotos hoot
Ġcom mission
Ġ M
Ġv in
en vironment
Ġforward ing
end or
Ġas ia
Ġ os
Ġloc al
rect ary
Ġgr aduate
Ġarchitect ural
Ġsell ing
e a
Ġres ol
Ġdev op
Ġg a
itte e
olog ation
x ay
Ġc old
ro mat
Ġph a
Ġun iversity
Ġlear n
m od
or ld
ch am
Ġco o
int endent
Ġw holesale
Ġti ec
ep endent
Ġsolid ity
fr ig
Ġt ay
romat ography
Ġdistr ict
Ġscript ing
Ġt ick
Ġe hs
end ing
Ġnetwork s
Ġh oreca
Ġkore an
Ġyear s
Ġdraf tsman
r ation
u g
in der
Ġbas el
iv ist
Ġlevel s
ubles hoot
c ass
Ġadw ords
Ġdef ine
Ġl enh
Ġillustr ator
f ul
Ġbe autician
Ġf eed
ro ad
w ind
Ġrepair er
Ġenroll ment
th e
Ġmob il
Ġtransport ation
Ġev aluation
Ġcomm ittee
in u
Ġquant ity
Ġc utter
sour cing
ast ic
Ġkho e
Ġin strument
r em
Ġte xt
mf ony
Ġbi et
Ġdevsys ops
Ġp qc
k ien
Ġx ep
per formance
ote ker
n ual
r ev
pro curement
Ġwa iter
Ġinstall er
Ġth in
Ġban quet
tr inh
Ġrel ease
Ġpresent ations
bo ok
Ġg t
Ġsu m
os ql
Ġbas ed
an cy
Ġproced ure
d ich
istr ator
Ġaccept ed
Ġp qa
ct v
Ġl ien
Ġ1 0
Ġameric as
Ġw ireless
Ġfun ctional
Ġb ase
Ġnh iem
intern et
Ġcl os
pres ident
Ġstud y
s inh
r ent
aff ic
Ġpres enter
Ġtester s
Ġco ur
Ġdevsys op
Ġst eel
Ġexecut ives
Ġbroadc aster
t ain
Ġmet hod
Ġphys ical
Ġc ir
in es
Ġmult imedia
Ġarch ivist
Ġi qc
Ġbuil d
node js
urr ency
Ġtrack ing
Ġclerk s
Ġc andid
Ġm ont
Ġkh uyen
sec retary
c ad
ex t
keep ing
Ġle an
Ġinsight s
ell ing
Ġen s
Ġh m
Ġsec rectary
rel ations
Ġteleph one
st ant
Ġf pt
Ġappra is
sc aster
p ol
Ġcouns ellor
Ġo op
Ġs ys
st ain
Ġcomp onent
Ġcontract s
Ġ are
Ġc ol
Ġf rom
ale gal
Ġmedic ine
Ġd v
Ġscient ific
buil ding
Ġch air
ph arm
urs ing
ib ern
Ġcondition ing
l and
Ġp ainter
ibern ate
frig eration
act ive
com pl
Ġkh ao
b at
Ġcent ral
Ġg d
ir th
ec urity
reception ist
Ġbe hav
ast e
inv entory
us ive
Ġout put
Ġap oteker
Ġpartn ers
Ġo qc
Ġbenef it
bers ecurity
Ġcosm etics
han d
Ġswitch board
ac ademic
um e
un t
Ġh s
Ġh ive
is ine
anal yst
Ġtr en
amp le
Ġrem ote
n e
Ġst ory
Ġrecov ery
ar el
com e
Ġinstall ation
d is
Ġn osql
m o
h om
ngh ien
Ġm l
ish er
Ġb irth
ust er
Ġcu isine
Ġs el
Ġm oc
Ġprov ider
duct or
Ġsy mfony
it ter
Ġvis ion
Ġc ty
Ġ1 2
Ġens ure
Ġsu stain
Ġissu es
Ġval idation
Ġjqu ery
Ġhom ologation
oc iat
str ess
Ġmont age
gr ess
ow n
Ġstat ements
Ġarr ang
Ġ ie
m on
m em
Ġnew scaster
ident ial
ort gage
Ġcall center
javas cript
Ġh ibernate
cc c
manag ing
Ġp pc
Ġfin tech
Ġduy et
Ġc al
et e
y nam
od es
Ġu u
Ġh n
cu it
oc urrency
pt ocurrency
Ġ oc
Ġcl ick
Ġnuxt js
Ġexec usive
t in
port s
Ġrecru iting
Ġliquid ity
olog ical
t v
relations hip
ent ial
Ġmang er
t iep
Ġh ong
Ġsp a
is stant
Ġpresent ers
Ġmobil ization
Ġpsychologist s
Ġa z
h y
ect ive
i our
am an
Ġstand ard
Ġcamer a
Ġn eed
Ġvir tual
Ġl at
ai d
Ġch romatography
Ġr ust
Ġhan oi
administr ation
pos al
Ġ1 5
w ay
g d
Ġl ai
Ġph e
Ġgi ay
h igh
Ġcon f
Ġt op
head hun
p ower
Ġout bound
Ġc p
vis ual
serv ices
c ash
por ary
Ġcollabor ative
l p
Ġpe op
distr ib
Ġexecut ion
e qu
Ġn s
Ġteam leader
Ġmet adata
Ġst age
Ġr ules
Ġtro ubleshoot
ater ing
Ġnh ua
Ġmarket place
Ġag ric
Ġdecor ation
Ġlic ense
Ġc c
Ġd ir
pl ant
Ġ ing
trans l
Ġgam es
tr a
mun ications
Ġoper ate
Ġg m
Ġcommunic ator
Ġinvestig ation
Ġdis pat
s el
environment al
Ġth ep
Ġdermat ologist
d irect
Ġkh ich
Ġk pi
d el
ad a
Ġbook ing
Ġs l
cass urance
ill ance
nh om
Ġtelemarket ing
Ġban h
educ ation
Ġaz ure
l abor
g ia
c ap
Ġd om
Ġsuper intendent
j or
ed itor
ve illance
fr aud
d l
part ner
ce o
Ġart s
Ġbr se
Ġvideograph er
ab l
am il
w ar
Ġv endor
on ductor
Ġip c
Ġp ccc
emic onductor
enc ies
erv ation
Ġset up
Ġcry ptocurrency
tl ement
l ife
Ġsol ve
ĠĠ ĠĠ
Ġag encies
r ed
in er
Ġfres h
Ġkh ien
Ġre frigeration
Ġkh am
Ġm is
Ġtho at
represent ative
it ional
Ġcomplaint s
Ġfor m
Ġrem itt
Ġresp ons
Ġsum mer
Ġm old
il es
Ġinv entor
Ġcall ing
Ġwait stress
is o
le x
Ġi b
Ġ iv
c ement
Ġdrawing s
Ġp aint
Ġcoordin ating
Ġfl ight
is on
Ġsf e
Ġm ol
Ġmen u
Ġl ed
Ġl aser
Ġschedul ing
t ation
aud it
un te
Ġcosm etic
Ġadm istrator
os p
Ġpar alegal
Ġh ung
Ġadv ice
Ġin it
j apanese
Ġro i
or gan
adv ert
em an
Ġmonth s
h ardware
Ġpl c
Ġ *
Ġg as
Ġtechn iqu
Ġrecru it
Ġheadhun t
Ġgraph er
p ost
Ġc v
Ġt ung
c at
Ġsys admin
ban king
Ġex ternal
Ġdet ail
Ġinter face
odes k
Ġquy en
ang ular
d i
c ert
ab les
s a
if ications
Ġcompet itive
Ġngh i
Ġapp rent
Ġsa as
ess on
Ġfit ness
mem ber
Ġregul ations
m ware
Ġl and
Ġdis play
Ġc uc
Ġpat ient
Ġinvestment s
d ien
tel ecom
Ġphotograph y
Ġgener ation
cr m
Ġstory teller
Ġfin al
headhun t
Ġqu al
Ġexp ense
iv ing
s o
Ġc ity
iv ity
Ġw orld
Ġop port
Ġprof ile
Ġpr ivate
p ark
Ġpart ie
Ġ ict
sales force
Ġcoun ter
serv er
Ġsh e
Ġtech lead
Ġtu an
c opy
ur ities
Ġlight ing
es y
ig ur
Ġapprais al
t our
Ġwork s
Ġw rite
unte er
c amp
ot ional
Ġwait staff
Ġan nual
rem ote
Ġm are
Ġscript s
Ġphys ician
Ġq e
re ach
Ġus d
Ġbehav ior
Ġs im
aint ain
Ġn en
Ġapprent ice
ast ing
Ġengin ner
Ġon ly
count ry
Ġ3 0
Ġcomp uting
Ġr an
Ġot o
Ġwel der
Ġmechatr onics
Ġth ien
Ġsketch up
d o
abl ement
mid dle
Ġinter personal
Ġcollabor ate
Ġwa iting
l oad
u ar
Ġsh ipment
ew ard
Ġare as
c am
Ġb re
Ġcre w
Ġvideograph y
Ġ ident
Ġdev ices
Ġcamer aman
Ġmachin ery
Ġexpert ise
Ġc atering
autom otive
Ġed it
Ġconsult ancy
Ġn ursing
Ġcollection s
Ġvo ice
t p
Ġt v
Ġch ao
ub e
Ġst ate
ot h
Ġcir cuit
off ee
il iate
Ġaut odesk
Ġcor por
Ġcent re
Ġen ablement
Ġclos ing
Ġfre elancer
developer s
Ġf ish
ord er
program m
igur ation
Ġcontrol s
ill er
Ġad j
Ġexper iment
r uby
hot el
Ġadw ord
or s
ph ys
Ġban cassurance
Ġth ieu
g gage
w ide
Ġclai ms
ien cy
uct ion
cons umer
eg er
Ġfl u
t hanh
Ġng ay
amil y
Ġgeod esy
Ġw e
qu ant
Ġm am
inf rastructure
istr ation
n ative
Ġsur veillance
viet nam
bro ker
t ong
Ġhe avy
Ġy en
techn ician
Ġcont inu
el ine
ef igh
Ġevalu ate
tr uyen
Ġown ers
p ense
Ġsu at
af t
Ġoff ic
Ġemb ed
Ġcy bersecurity
electr ic
Ġn av
Ġhost ing
Ġa id
eloper s
m otion
uss iness
s ub
man ual
Ġtax ation
Ġheadhun ter
pr int
ell ow
Ġcounsel ing
Ġweb gl
Ġe ast
c oun
n t
Ġl o
ig ma
i ology
Ġsour ce
Ġm ix
Ġlu oi
ociat es
th am
ut r
Ġed iting
k ting
Ġl oad
electr onic
Ġtelemarket er
h se
Ġchannel s
Ġmak eting
Ġop t
fl ow
m ult
in a
s um
ur ban
Ġdesign ing
Ġchar ge
x h
Ġb al
e es
Ġdispat cher
Ġtick et
g ien
un ch
br anch
w rite
Ġ 000
Ġm gr
Ġmotion s
l ect
Ġback ground
Ġex pl
Ġcandid ate
Ġl if
d ro
Ġp b
at oin
Ġr ead
dev s
Ġthin king
o ter
Ġb ell
incip le
Ġex am
Ġa v
Ġset tlement
go ogle
Ġl ia
Ġcompan ies
Ġm ortgage
Ġr est
Ġinc ident
Ġchan ge
Ġo il
Ġdistrib utor
Ġorganiz ational
Ġelectro mechanical
cert ified
Ġa ide
Ġw aste
Ġet l
Ġrad io
Ġfirm ware
Ġacquisition s
Ġpeop le
r ant
h el
Ġper l
fer ence
Ġter ritory
r ad
ap e
Ġposition s
Ġclai m
Ġ ic
Ġn ext
ins ide
Ġspec ifications
t ieng
Ġk ol
strateg y
g ap
Ġc ro
transl ator
Ġtr affic
anal yt
f ir
Ġsol ar
Ġcorpor ation
Ġst all
Ġst eward
w a
Ġinst it
Ġhs se
s ur
Ġnegot iation
oper ational
Ġpro posal
Ġot c
r estaurant
ac ial
Ġr un
commun ications
Ġbrid al
op en
Ġact ive
Ġib m
Ġ ir
tr ien
Ġsm all
Ġmot or
web site
micro soft
struct ural
Ġf ix
Ġhost ess
l oc
Ġlu ggage
Ġch ap
Ġcollabor ators
Ġme as
Ġmare kting
hom e
r i
ag ile
Ġfin ull
Ġsp ark
Ġhospital ity
d oi
advert ising
Ġp et
Ġbank er
Ġfir efigh
Ġout reach
Ġcount ry
Ġim aging
c isco
an y
Ġc as
Ġarchitect s
Ġhr m
s ide
Ġdv kh
w ater
as m
Ġst art
e gr
r ay
Ġs ample
administr ator
cr aft
Ġvol t
f t
ev ator
ff er
Ġneed s
Ġmet al
Ġc ase
Ġl esson
Ġy out
ecom merce
Ġac cur
th ong
ens ic
e an
Ġcommission ing
Ġro bot
Ġmod elling
Ġmag az
tr avel
Ġtransaction s
s crum
Ġc ut
Ġf ellow
Ġstat ement
Ġtr e
Ġexc ecutive
s ua
av er
Ġpat tern
Ġconsultant s
Ġfor ec
Ġstud ies
equ ipment
t n
ib le
Ġhy gien
Ġremitt ance
in ion
Ġconsumer s
Ġcommunic atoin
employ ee
Ġclean er
react js
hem atics
off icer
Ġprom oter
Ġs emiconductor
Ġcc ie
int egr
appl y
l og
Ġagric ulture
Ġt oc
us ic
Ġin put
in struct
Ġe p
Ġmarket s
Ġspecialist s
Ġviet tel
Ġvolt age
Ġb ia
he ast
sum mer
ult ural
Ġc ur
ment s
Ġexc ell
gu est
0 2
c ard
Ġact ion
fr ame
ook ing
b al
Ġgu id
Ġgroup s
ric ul
Ġcrypto graph
Ġdent istry
Ġ2 5
g ers
ub le
ak ery
Ġfir e
wind ows
Ġn an
ist er
tr uc
in k
Ġsal ad
pr iate
Ġun its
Ġkhoan g
team lead
ot ential
a a
ec onom
sch ool
Ġn lp
s k
Ġd ynam
Ġpl astic
1 2
ad er
dat um
Ġdesk top
logist ic
ricul um
Ġw est
Ġset ter
Ġk im
Ġx ac
le ge
st ock
trans port
h tml
re gul
pres ales
Ġdent ist
Ġnat ural
Ġsustain able
Ġt ier
ys park
Ġop inion
Ġcon n
m ep
Ġt ach
Ġrel eas
h oc
Ġvirtual ization
Ġbo ot
Ġanalyt ic
Ġsit es
Ġmob ility
Ġreleas es
p ip
Ġg hi
ph ap
Ġnotar ized
man age
ov er
Ġnew s
ific ial
Ġvol ume
Ġ2 000
Ġl on
ass emb
1 0
6 5
Ġunder writing
ov ers
Ġfab ric
Ġli br
Ġconf iguration
uar ial
Ġw ar
c all
Ġt able
Ġcert ific
exper ience
Ġem ail
Ġprocess es
Ġsec urities
Ġm ind
Ġr en
aut ocad
Ġab road
Ġra w
Ġ P
Ġsh oot
Ġes ports
Ġbh xh
Ġprof it
comp any
Ġes h
Ġm aintain
Ġkh dn
Ġreview s
Ġs en
Ġeff ic
ic o
st and
Ġnet ty
Ġet c
in bound
b ar
Ġpm o
h or
el ts
d m
Ġmin ing
lear ning
Ġco operation
Ġpost man
us er
Ġl iter
ead min
Ġexperience d
Ġvo ip
r ui
ec ker
Ġb oc
Ġres ort
Ġstud io
b as
Ġ201 2
ig ration
2 000
Ġa o
rec e
Ġtr end
n a
adv isor
Ġg l
r ight
Ġpost al
Ġcheck s
Ġse a
g s
Ġdocument ary
Ġtelecom munications
m al
q uy
del ivery
Ġst aging
distrib ution
Ġm ill
devel op
Ġsuc ess
Ġtem porary
o om
Ġbuil der
Ġg re
r f
Ġrepresent atives
Ġscientist s
Ġ uc
an im
Ġsap s
Ġcomm and
el s
ph uc
Ġs ing
Ġb y
Ġcare er
h osp
Ġm ass
Ġfac ilit
sen iour
Ġro ad
Ġab ility
oc hem
compl iance
Ġro ute
g arment
Ġhm tl
Ġtrad itional
Ġb enh
erv er
em s
as p
th o
av e
sh arepoint
Ġs d
Ġcertific ate
coll ection
Ġb us
ys is
t le
ch eck
Ġind ependent
sen ious
Ġun ified
purch ase
l oan
Ġstock er
Ġissu e
Ġnotar ize
ib ility
m t
Ġdis pense
pro perty
ult y
eld ing
Ġins ide
Ġm ap
Ġs au
Ġhr is
Ġscholar ly
es ign
ag r
cy ber
Ġstatist ical
er l
Ġaff iliate
em a
Ġle ase
Ġset ting
pat ient
w e
Ġc offee
Ġtran ing
Ġvis io
Ġtravel er
adv anced
aut o
programm able
lect urer
ach e
part n
Ġat ld
f il
Ġkh cn
Ġtax tation
Ġresol ution
g ing
es ales
Ġs oft
Ġplatform s
du oc
custom s
Ġprogramm able
intern s
Ġha z
iss ier
Ġpost office
ch ay
f ire
om ed
Ġ201 5
hel p
ch e
ul e
Ġs ong
h cm
Ġp yspark
ro cess
oc ol
Ġbenchmark ing
Ġdraf ting
ar get
ain er
brid ge
educ ational
Ġh d
cr ete
iv id
utr ition
el t
j ob
Ġtr at
pack aging
s l
Ġfirefigh ter
Ġp otential
Ġexc el
Ġdirector y
Ġma jor
ug h
in st
Ġsal eadmin
sales man
Ġeduc ator
for cement
Ġes cal
Ġtyp ist
Ġstock broker
Ġsuppl ies
Ġv inh
Ġk d
ig ation
Ġgi r
pro duc
Ġapp arel
Ġs igma
it ation
Ġemploy ees
Ġall iance
Ġtransl ation
d ao
Ġ urban
coll abor
partn ership
ene er
c a
c ol
Ġcom tor
art a
Ġcomp os
v in
Ġs afe
Ġe h
Ġdir ection
ak arta
h vac
ir ing
Ġtravel ers
Ġbal ance
Ġq h
Ġcon tr
Ġ ership
Ġind esign
Ġgovern ance
loc al
iz er
Ġadv oc
la w
Ġ Y
Ġcopy writing
un ix
Ġv ar
Ġb ach
Ġch ild
min al
Ġtherap y
pay roll
on ist
ship ping
Ġpip ing
us h
q s
s on
arket ing
bi ology
el or
Ġassistant s
Ġcontrol l
Ġclass room
Ġhoan g
Ġsteward ess
n gan
un it
d au
in ary
o u
distr ict
Ġlia ison
it ical
m ot
il er
n d
Ġprep rocess
Ġflu ent
Ġactiv ity
sh ore
in sp
Ġch ecker
Ġlin k
b all
Ġvn d
Ġpreprocess or
Ġdevelop per
Ġdr ill
ivid ual
brand ing
w ood
Ġam b
c tion
Ġt w
Ġw w
lu at
Ġexcell ence
l anh
Ġintellig ent
b ac
Ġs ound
Ġb illing
Ġmanag ed
d ung
g y
Ġgi o
Ġbi ochem
sh ow
at ure
ag n
tra inee
Ġexam iner
rev enue
Ġjavas erver
* *
Ġant t
omed ical
Ġbu on
Ġ1 9
est ic
ass ist
Ġappra ise
Ġchem ist
Ġaccout ing
f ashion
in form
Ġ9 001
Ġcap ability
i ers
Ġp um
Ġsh ows
Ġappro priate
b ase
Ġstr ut
hr bp
Ġg en
qu ang
p ar
Ġhc mc
Ġpat issier
Ġb akery
Ġfor ensic
Ġval ve
Ġtext ile
er formance
Ġaud io
Ġhygien ist
fre elancer
ad or
her n
rui ment
ch ung
w er
Ġco ating
sh ift
Ġfab r
us ion
Ġsponsor ship
Ġ200 7
g ol
Ġop tion
b od
Ġb ussiness
Ġrequ est
g is
Ġ ut
Ġdirector s
to ol
Ġd ac
Ġb se
Ġnh ien
Ġ1 3
Ġopport unity
Ġinstit ution
xu at
ĠP erformance
Ġ1 7
Ġunder writer
Ġsim ulation
s n
Ġx uc
d s
Ġnh ac
ng uyen
ir d
s pr
Ġe u
h c
m ua
Ġ id
ass itant
Ġs er
st at
Ġg er
sm art
Ġm c
inter ior
experience d
re am
Ġql dt
Ġproblem s
Ġgi ac
cash ier
Ġanim al
Ġall iances
Ġresol ve
gress ion
f urniture
Ġm u
Ġl ending
lin es
merchand ising
Ġm ount
Ġk v
Ġn ation
Ġdevel e
Ġj akarta
at her
tel esales
ap i
Ġf oc
regul atory
Ġf arm
dr ess
d ay
r ier
Ġd iem
Ġd ash
Ġgr adu
af ood
c b
res p
fac ility
o ice
Ġnegot i
Ġm ba
Ġa qu
ffer ent
Ġb p
Ġqual itative
Ġpro per
Ġqh kh
Ġmat ter
ind ependent
c ent
s earch
Ġtour ism
Ġcl ub
Ġforec ast
uc h
Ġin form
Ġsign al
it r
Ġst ation
Ġpr ef
Ġtechniqu es
c el
en ium
th uong
ul p
g es
Ġp an
Ġng o
Ġre ward
sales person
account s
Ġsuperv ise
Ġadmission s
c our
Ġal t
w ealth
re g
Ġweb master
ux ury
ng u
iat ives
hosp ital
Ġ use
Ġass ociates
t em
Ġt han
k ong
Ġdes tin
de al
m ag
Ġa x
Ġph ai
V ien
r ics
w ordpress
Ġpastry cook
ch inh
Ġbenchmark e
Ġsh are
Ġmat hematics
k s
Ġgir l
Ġt m
pay ment
met al
Ġdev erl
c ategory
Ġco oper
Ġdestin ation
q t
s ell
sup erv
research er
Ġequipment s
Ġident ity
Ġt gd
fact ory
sp aper
Ġinit iatives
Ġtro uble
Ġfacilit ator
Ġtr anh
Ġrequir ement
Ġl im
Ġmodel s
cl ass
engineer s
Ġissu er
en ch
Ġel evator
Ġval ue
tr an
Ġco ver
Ġfin acial
Ġdel ev
anal ysis
an ces
Ġc art
od ial
Ġin come
Ġw ire
ter ritory
Ġen forcement
Ġqu ot
le y
Ġadministrator s
Ġgol f
m ay
m aker
g n
Ġs ew
Ġamb ass
ch inese
Ġcon duct
Ġredux js
Ġd h
Ġstock s
Ġexp at
Ġvol unteer
Ġsport s
Ġpref er
Ġt ake
ig ence
ustr al
Ġpc b
Ġmind set
Ġeffic iency
Ġmer gers
erg ing
t a
ang er
Ġbh tn
contract or
c to
p b
j un
Ġcopy write
Ġprot ocol
rant y
Ġgo al
Ġvis a
Ġdelev oper
w ireless
Ġwork ers
Ġdom ain
Ġl ot
Ġmar ine
i k
in ema
Ġcre ation
eg ment
Ġacc ident
Ġcontinu ous
Ġ Z
Ġp ub
m ak
in o
Ġk ts
Ġ1 4
Ġ201 3
Ġmix er
Ġac qu
Ġopt ical
er e
Ġprom otional
Ġred uction
p es
Ġx et
sc ape
Ġworld wide
r ead
tel eph
onom ist
Ġdevele oper
ic a
Ġtr im
ad mission
Ġrev amp
Ġtask s
1 500
Ġf b
Ġv mware
Ġvisual ization
Ġes l
merchand ise
h old
s ung
h uong
Ġp ass
Ġbi ke
Ġbre w
Ġtr ai
Ġchat page
cost ing
Ġteleph onist
c up
inter preter
Ġcur riculum
Ġf amily
ch at
Ġsur face
Ġme kong
Ġinstruct ional
ĠM arketing
b uy
Ġnat ure
er ing
Ġt ig
Ġn au
Ġh ard
Ġj pa
ov e
Ġc ulture
il ot
Ġres idential
an k
Ġass isstant
Ġsupp orter
Ġchemical s
fl utter
Ġbh yt
Ġp oint
Ġw r
for eign
Ġre gression
ish ing
ĠS u
l ic
Ġke ep
Ġsign ing
it ed
Ġlaw s
ro pe
ab ilities
Ġart ificial
Ġcampaig ns
phot ograph
Ġo em
Ġ201 0
Ġassessment s
g am
Ġshoot ing
i ot
s ys
Ġit ems
Ġcre ate
Ġl oss
ir ement
oll ow
Ġfac ade
l ay
Ġovers eas
Ġ uong
ch ar
et s
phot os
in ation
ic ip
Ġw an
ph one
elan ces
ngu oi
Ġman d
Ġass ign
b ig
Ġpl ay
Ġfac ulty
im ary
str uong
Ġfun ction
own ers
c ro
Ġambass ador
st or
Ġtrans fer
Ġinvestig ator
Ġ H
Ġt en
Ġc pr
Ġn utrition
Ġopen ing
Ġtable au
em ergency
Ġfoc us
g overn
tr ad
Ġres ult
Ġl ow
ip per
Ġswitch ing
Ġc m
es tern
Ġconn ect
c ua
Ġ C
for mer
Ġc ms
Ġh ire
Ġdevelop ement
Ġadmin str
Ġp ac
um ber
Ġph ay
Ġanalyz ing
Ġt arget
Ġc d
Ġhand ler
Ġ1 500
ac enter
ip le
ĠS ue
work ing
Ġrec ruiment
Ġresp on
Ġb ut
Ġh ip
ch ef
Ġst ar
stand ing
Ġt iet
rep ort
er ia
ho st
Ġalt ium
Ġd od
uc lear
Ġsu ite
Ġcont ainer
mar ine
f un
Ġt om
Ġdec ision
v ol
Ġk t
Ġd ap
ing u
Ġgr inder
med iate
Ġt ec
Ġon site
fac ebook
Ġfeed back
Ġb ag
trans action
Ġl ive
Ġcap tain
Ġp o
he el
Ġsel f
Ġbell man
Ġreceiv ables
b and
el y
2 0
l an
b udget
Ġmachin es
Ġprocess or
ru g
Ġver bal
l en
Ġp aper
Ġag r
Ġcal c
st ation
Ġact uarial
ene ur
w est
ar ian
us ing
specialist s
f ootwear
Ġ il
at ch
Ġv eter
coun sel
al og
Ġch on
enter tain
recru iter
Ġsam sung
c os
afet eria
Ġmicro biology
aig n
g as
gi es
Ġro ut
Ġexp end
stat ist
Ġpr inter
fl ight
h t
ag ric
it le
mun ication
Ġintegr ity
Ġchair man
Ġf air
Ġho t
Ġlar ge
p et
p sych
supp l
Ġyout ube
n ort
o il
Ġa ustral
ad obe
Ġfin isher
Ġmand arin
s urg
ang e
Ġgeneral ist
m ong
Ġw ell
Ġcopy right
Ġro uting
Ġelectr ician
Ġproduct ivity
Ġspeak er
Ġs n
Ġpress ure
Ġs egment
il ing
electr onics
Ġmol ding
p o
Ġr ental
Ġ2 7
c as
govern ment
ial ist
Ġinter pr
Ġi elts
mod el
a ws
Ġm usic
Ġh ed
ter y
gr e
pol ic
ud e
Ġsel enium
am ent
Ġcar rier
Ġg ulp
Ġdis c
az on
pr act
assistant s
Ġschedul es
ur ement
Ġla unch
w ord
Ġdeverl oper
v at
Ġx i
Ġbi omedical
Ġarrang ements
Ġx anh
Ġcl uster
Ġse afood
Ġtot al
s f
Ġbi ology
h u
Ġnegot iate
Ġh air
Ġrel ay
Ġrespon se
dress er
Ġt ur
Ġestim ating
Ġfeed er
Ġs aig
Ġh u
Ġ1 8
sc ience
Ġdevelop ing
Ġstr ate
phys ical
Ġcro ss
Ġrece ive
Ġout sourcing
le asing
Ġdynam ics
represent atives
Ġdi fferent
is is
Ġnew spaper
rep air
Ġot a
d on
Ġx d
pr em
Ġcs o
Ġstrate gies
b us
Ġ arm
Ġf da
Ġin tro
Ġsit u
e am
f ederal
Ġd og
Ġ201 6
v ue
Ġm ain
agn ost
photos hop
j et
d et
Ġl oai
Ġch ieu
Ġaut hor
Ġrecruit ers
n i
Ġp t
Ġmanag ment
pr ivate
pharm aceutical
b s
d oor
Ġind ividual
ister ed
s i
entertain ment
Ġdep os
Ġbook keeper
Ġw elding
se a
Ġc ell
Ġh on
Ġaccur acy
Ġ1 1
Ġren ew
advisor y
c oc
Ġh p
ge ar
Ġlim ited
Ġhr d
Ġtel e
labor atory
transport ation
b ing
Ġres ervation
Ġequ ity
rep r
m ake
kh ai
agr am
ens ion
pres ale
d b
Ġb om
Ġbudget ing
Ġescal ation
ev ision
Ġgr ader
Ġec odial
ard ous
te xt
sh e
Ġ5 0
k ore
l ai
Ġ um
ood le
Ġselect ion
in al
Ġcat ia
c ase
y cle
Ġac ount
Ġre fer
co ach
assemb ly
Ġc able
ish ed
sol ar
Ġpaint ing
ustr ator
Ġcu oc
Ġbh nt
pos ition
s cript
Ġs ai
pres ent
Ġpet ro
th eo
Ġlab el
mot or
invest or
Ġv oi
Ġh ol
Ġab use
Ġfit ter
Ġliter acy
Ġk hanh
Ġcontrol ling
Ġorient ed
ch ild
Ġroom s
Ġsaig on
im pl
s at
Ġs il
Ġv ray
Ġinterv ention
Ġcut ting
suppl ier
Ġn oc
Ġart ic
Ġtrans mission
Ġ5 00
Ġinspection s
rad io
o x
Ġcollabor ator
Ġcol lege
tr y
Ġeng en
Ġ201 8
com m
af ter
ert ing
Ġeng inee
rol ler
Ġintegr ated
v b
Ġco der
Ġgarment s
comp ensation
c il
Ġas istant
Ġeu rope
Ġpac ific
Ġd uty
Ġx ml
Ġo ver
urr ent
Ġs ep
Ġng hanh
Ġvp bank
t ick
Ġim p
ex ternal
cup ational
Ġnh u
Ġprof iles
Ġcryptograph er
l ar
Ġh ue
th er
pro motion
ilit ary
Ġmanager ment
e ing
Ġmagaz ine
Ġwar ranty
k et
ac cout
Ġpro sp
Ġsupp ervisor
Ġfor eman
Ġ3 5
Ġcour t
Ġm il
Ġkh ac
Ġload er
teleph one
Ġresult s
res idential
Ġkore a
s oan
Ġt alk
Ġagr onomist
Ġpack ages
bo ot
fres h
Ġstatist ics
integr ation
h let
t ier
Ġc urrent
Ġl av
Ġem erging
Ġovers ea
m igration
umer ical
l evel
Ġcon v
Ġret irement
bl ockchain
f it
Ġel opment
fil m
an e
Ġbas is
train er
d ec
Ġl iving
Ġr ate
gi ai
Ġfabr ication
as her
Ġng oc
pr inciple
vietnam ese
Ġfinull cial
Ġun load
Ġhm i
Ġ19 9
et or
Ġhd qt
tr uct
Ġapp oint
ew el
Ġintegr ator
Ġd il
ent ure
Ġg is
Ġpg d
Ġstrut s
s ign
Ġs of
Ġc inema
Ġm m
Ġb uong
pr ep
Ġel ement
Ġunder standing
et ion
Ġlin es
Ġmechatr onic
Ġv ac
Ġlab s
gro wth
Ġloan s
Ġcompet itor
Ġm ess
Ġca e
Ġnu oi
Ġbook keeping
Ġpayment s
Ġtom cat
Ġt t
Ġs ens
Ġres ident
Ġfl ash
appl ications
Ġpart ime
insp ector
Ġdr ive
Ġc i
ar ant
Ġf lex
d ental
g a
Ġbl og
Ġhouse keeping
Ġstart up
rece iv
h ab
m old
n c
am er
cl ai
bo x
repr eneur
t oan
Ġl ist
test ing
bu ild
rev it
Ġp ark
Ġsh ell
Ġphys ics
Ġc ang
Ġcon ference
th uy
el ines
ject ion
Ġpr inciple
Ġpl ac
Ġact ing
exper t
quant itative
Ġph ia
Ġap ache
oan h
Ġbusiness es
co ordin
Ġchu an
l ight
il dr
Ġres erv
Ġelectro chemical
Ġstall s
[ [
desk top
Ġsub ject
Ġgu ard
document ation
Ġquot ation
b d
m oi
Ġen han
tr easury
Ġconcept s
Ġclean ing
Ġos ha
impl ement
d om
Ġ ong
Ġc io
Ġoperator s
Ġrespons ive
camp aign
Ġoffic ial
Ġm art
Ġk a
Ġh ist
Ġag en
Ġheadhun ting
Ġsa w
Ġillustr ation
Ġp ilot
Ġm ail
Ġappl ied
ib er
Ġbuy ing
ing er
it ude
ir a
lead ership
Ġj un
Ġco gn
Ġat m
Ġnext cloud
Ġtrim mer
tel esale
k n
p ow
Ġt es
Ġth ap
ad em
pr icing
Ġautom atic
Ġet her
Ġl ooking
Ġtechniqu e
ict ure
Ġadj uster
Ġd t
Ġh un
Ġret ention
Ġcondition s
Ġrf p
Ġmaster cam
Ġovers ight
Ġa e
architect ural
Ġ J
er ry
ip er
pack age
b im
Ġact ions
Ġus ing
Ġtw itter
Ġg op
b ep
Ġcoll ector
Ġpos itive
ildr en
u el
duct ion
Ġcom ment
spr ing
buy er
Ġs x
Ġf ollow
Ġgro und
Ġfull time
Ġlog ic
Ġch au
care er
f ast
sal eperson
Ġbu g
Ġther mal
Ġl ac
ant i
Ġstaff s
Ġjs c
Ġthre at
Ġd c
Ġorient ation
c ler
r ail
Ġoff shore
Ġr ong
program me
Ġhouse keeper
iqu e
Ġh ach
sc ient
econom ic
n on
Ġs s
Ġf ile
Ġon e
d an
Ġw ord
architect ure
Ġpol ice
qa qc
f und
cr y
network ing
polic y
Ġdeveloper eloper
pro t
Ġameric an
be auty
ac ulture
Ġdevelopers eloper
m ba
or ist
ro bot
pl atform
Ġ4 0
Ġexpl o
Ġhair dresser
Ġa min
is ation
Ġprogrammer eloper
Ġprogrammers eloper
Ġdevs eloper
Ġmu on
Ġp v
os e
aud io
r or
Ġv ao
Ġman anger
le an
Ġ entertainment
oc ation
Ġco ding
Ġreact native
ew all
Ġsolid work
produc er
Ġdat acenter
cont act
Ġbro ch
f mcg
Ġbl ack
Ġcy cle
Ġpip e
tr ack
Ġnh o
in ar
ch ool
tr affic
ab s
stor age
Ġ ordinator
im age
Ġtu e
ve hicle
Ġmedic aid
Ġs ass
Ġb ab
act ing
Ġro le
Ġorganiz ing
Ġd ns
op t
ant s
sm t
Ġcour ier
i ative
Ġn y
Ġpol y
cn c
quant ity
vol unteer
E ng
st eel
ect ual
oper ating
Ġqu est
ho ach
Ġsout heast
Ġpub lish
Ġm oodle
ro ute
Ġpro gress
Ġrequir ed
pharm acy
kore an
Ġcat alog
t on
Ġpack er
Ġfinull ce
instruct ional
Ġgl ass
en ing
Ġl uxury
fl oor
z en
Ġph ieu
iz on
out bound
hc mc
Ġm ental
y pe
in strument
Ġc cn
ph ere
Ġarrang ement
Ġdom estic
Ġdil igence
air craft
Ġ1 000
Ġgener ator
analyt ics
Ġag re
Ġkeep er
b en
en ces
pay able
Ġd ist
Ġr ig
oc ard
Ġj oin
kh ach
Ġcontr ib
g en
Ġh at
f ab
et o
Ġlead ers
Ġbo y
Ġbi ological
mon ey
am ental
Ġg on
Ġhu u
m ts
p aper
dep artment
Ġtick eting
Ġmeas urement
chan t
vir tual
Ġsuperv ior
Ġinterview s
Ġapp le
Ġam azon
Ġ L
Ġdesign ers
pract ice
im ate
Ġweb s
aud iting
mon itor
Ġlibr ary
v ery
Ġlabor er
y le
Ġbi ot
Ġsalad s
k hoa
ac ity
Ġf ont
u ary
op e
Ġgro ss
Ġatt itude
dra ul
ma jor
shop ify
d ate
w ire
Ġk ieu
if i
f ill
l c
Ġd n
sup er
Ġdec l
Ġ0 1
m en
w ell
as st
Ġex press
Ġback up
Ġpromotion s
Ġpsych ology
Ġcomm od
Ġselect ive
Ġoc ean
b on
ul d
ast ics
organ iz
Ġut ility
Ġadminstr ator
at t
ens ed
Ġrecov er
Ġm ov
Ġweb pack
Ġair craft
our ce
Ġloc ation
Ġth em
Ġco des
Ġdu e
pr ice
Ġheadhunter s
Ġbach elor
Ġexpend iture
Ġb ill
Ġan sys
Ġcs r
Ġvar iance
Ġm ts
Ġal arm
iling ual
Ġm al
Ġv as
mag ento
d iv
g m
Ġn umerical
t c
it ve
Ġcon vers
Ġst ake
dr upal
Ġlat in
sur vey
Ġdo or
inder g
coc os
d eb
d ry
Ġ A
out h
Ġhun ter
Ġt et
Ġc afeteria
ist ion
Ġcan ada
Ġcontroll ers
n at
urs es
d c
l ooking
Ġs un
ail s
Ġcu oi
d ang
f are
Ġp icture
Ġh am
Ġsh o
Ġgr unt
Ġpart y
Ġmethod s
p ment
in ator
oper ator
cy cle
iat ric
health care
or ies
Ġth it
ie er
Ġgr ade
instruct or
Ġw estern
inc ent
Ġinter ship
Ġpar eto
Ġtruck s
h uan
and ra
Ġbo ards
cont inu
Ġmagaz ines
Ġdepartment s
nh ap
Ġrest ful
Ġm all
ap pr
Ġfin an
Ġbl ock
Ġprevent ive
ingu ished
as on
Ġcap a
d art
Ġph ep
Ġdi agnost
Ġchan ges
ty pes
ens ing
Ġmicro services
Ġinstruction s
en k
Ġman n
Ġph d
art en
Ġdan ang
Ġexper iences
ne er
c k
air y
all et
les oft
0 3
cs s
Ġfund amental
sel f
Ġtrend s
gol ang
d am
qu ay
Ġdecl aration
d ist
ag ency
Ġdepos its
c ell
n urse
t inh
copy writer
analyt ical
Ġop r
ad jun
Ġcr isis
Ġspring boot
adjun ct
m y
Ġs orter
un ities
Ġaut ocard
med ium
pip ing
Ġg ps
id ence
Ġconsult ation
ang el
Ġz one
Ġtec n
f a
m art
s ust
Ġa quisition
plan ner
Ġjqu erry
Ġn ame
ition er
Ġ1 6
m is
ro i
Ġ0 2
Ġcandid ates
Ġinterpr et
2 500
Ġas isstant
autom atic
part s
Ġappoint ments
inderg arten
Ġprot ect
id s
Ġevalu ations
sch edul
Ġbroadc ast
Ġbod y
Ġacqu istion
al o
Ġq t
ies el
Ġpract itioner
adem y
f amily
ach er
Ġgu arant
he avy
Ġb ieu
ph cm
com bank
fac ilities
phot o
Ġbiochem ical
sust ain
Ġr ender
pl ate
doc tor
ilit ation
Ġopport unities
Ġadj ust
Ġ om
od oo
Ġengin er
Ġvp n
b h
k ho
l ess
Ġcoordinator s
Ġhy per
cle an
ngh iep
c fo
or ing
Ġn f
Ġsam pl
process ing
trad ing
en et
es l
Ġn pi
Ġman eg
Ġj oint
Ġjs f
f ish
s ample
ed in
str ap
Ġmet rics
Ġ200 8
n oi
as es
anim al
Ġdisc ip
gear s
d oanh
Ġ '
ior ity
Ġex ect
Ġobject ives
Ġnat i
Ġlibr arian
itr ix
k a
1 8
Ġth pt
ub ber
b id
Ġlay er
us d
p oint
han dle
Ġeng e
pro blem
Ġcomp ar
urn ace
Ġmult iple
types cript
on ing
st ance
Ġph il
Ġtrans former
inst all
Ġgradu ates
Ġe e
th re
Ġsec ond
sol id
overs eas
tem porary
Ġ4 5
Ġr ay
Ġbo x
Ġbr ief
Ġcler ance
Ġtechn ic
Ġrec re
ex ecut
Ġcryptograph y
c ity
Ġc ards
Ġap ac
m it
w el
ra w
Ġinnov ator
inf luencer
Ġm r
Ġhaz ardous
0 5
in ner
eng er
Ġstruct ures
Ġaccur ate
h ib
ert ical
Ġpos m
Ġ [[
Ġd ms
ot a
Ġmiddle ware
Ġcooper ative
d ong
Ġwel come
telecom munications
ewel ry
Ġoff line
Ġat l
pe op
Ġcour iers
on str
Ġb ql
Ġcon crete
Ġanalyst s
res ident
war es
ĠĠĠĠ ĠĠĠĠ
enk ins
b re
ip s
Ġpart time
Ġdis co
Ġswitch gears
ar ing
Ġinit iative
Ġt phcm
Ġc t
Ġw ood
8 5
c ust
Ġas ic
Ġorganiz e
print ing
Ġr n
Ġp ull
eat her
Ġveter inary
m il
ic ker
Ġtr ust
ai zen
Ġnegoti ations
f ound
Ġg ui
recru iting
Ġsem inar
s ho
Ġinter action
fl ict
tr i
Ġsp ending
ab in
under graduate
mult imedia
st er
Ġcor p
Ġadvoc acy
d aily
op h
est le
surg ical
s ports
est yle
Ġmet ro
Ġav ail
8 3
r s
w orld
Ġcheck ing
Ġexec itve
Ġas st
work er
Ġfil es
ib r
sm all
Ġcomponent s
Ġland scape
draul ic
Ġback dro
Ġet abs
profess or
Ġd ish
Ġf ar
Ġw h
out side
Ġev angel
ass et
Ġcent ers
ab ap
Ġtext iles
Ġd ial
Ġmanag em
Ġh uyen
Ġw asher
Ġappl ic
Ġaqu aculture
hab ilitation
c ob
it ime
Ġa war
Ġin tel
Ġcompl etion
cl oth
Ġpharmacist s
Ġs as
Ġs dn
ap ore
ed ic
iz ing
fin al
Ġadvoc ate
Ġcoating s
c ir
Ġdev ol
Ġautom obile
open stack
w an
Ġshe et
receiv able
Ġawar eness
Ġan g
Ġqu ick
Ġre fin
sp e
eng ro
Ġtim eline
gis l
Ġimp act
in ing
Ġfir st
Ġspe ialist
Ġk er
Ġh t
Ġco od
a er
Ġp ers
Ġmarket ting
ener gy
Ġorganiz ations
Ġvan g
Ġter m
cour se
w r
ect ing
Ġeng r
Ġj ack
Ġsp end
ho using
bas ic
m ysql
Ġanalys ist
Ġinter active
comp et
Ġsuperv ising
sc al
Ġge ologist
Ġg et
Ġad d
ort ment
pl astic
bo ards
counsel or
Ġdisco very
Ġ I
Ġc it
Ġp d
Ġp s
ir ed
Ġat hlet
Ġdirect ing
ĠL i
i minal
Ġf iller
Ġdr ink
Ġestim ates
fun ctional
h ieu
material s
Ġfor mer
Ġgm p
overs ea
resp ond
Ġquest ions
g t
Ġt b
Ġf i
red ux
col lege
nort h
Ġg reen
Ġcare ful
de ep
Ġbroker age
Ġprov id
ac ter
Ġn ight
Ġserv ers
Ġfir ewall
Ġtelecom munication
prem ium
Ġtr ial
Ġwork flow
Ġt c
Ġwin der
Ġoptim ize
Ġunder graduate
hem at
Ġhip aa
Ġintro duction
ut ure
Ġwork force
Ġil ustrator
Ġsitu ation
p ers
Ġrevamp ing
d ynam
v n
em t
Ġch ildren
Ġsupport ing
ib m
iv acy
Ġ201 9
Ġ roll
Ġmanag ament
port folio
Ġcol or
cam er
Ġsing apore
k ers
ec ycle
ust ator
Ġout side
purch aser
mod ern
Ġco ast
Ġnh e
ov al
Ġret urn
Ġwind ow
Ġport al
Ġrout ine
r ical
v o
Ġh iring
Ġto uch
Ġcontinu ity
Ġb ra
Ġfir ms
Ġide as
r d
Ġf x
Ġinter mediate
Ġled ger
continu ous
b iztalk
d inh
j ournal
ge on
eu ro
Ġdef ense
Ġae on
t ure
Ġpart icip
Ġguid elines
Ġc mo
Ġth ro
Ġstudent s
dl c
wa it
lic ensed
Ġplac ement
engro cer
Ġdu a
Ġprep are
Ġp p
Ġl ift
Ġn c
um bing
pat tern
organiz ational
l ang
Ġd cs
Ġn i
Ġn pm
con cept
s em
Ġc tv
est h
help desk
Ġn a
av en
photograph er
1 4
c ology
Ġinf ra
Ġus a
Ġa er
Ġco urses
og y
um p
mong er
Ġj apan
Ġsupp port
Ġrec on
sour ce
car go
implement ation
Ġn ow
qu e
le um
Ġsc m
graph ql
Ġem ea
g ar
Ġpip eline
Ġdash board
m usic
Ġp ubl
int ell
sp onsor
n ier
Ġa u
Ġf ul
ep her
Ġdevelopers s
Ġadv ices
Ġprogrammers s
Ġdevs s
aud itor
Ġmult i
t ender
Ġcas es
Ġh ar
Ġac ademy
Ġappl y
Ġper form
Ġair lines
p aint
Ġan y
Ġch art
Ġcons ul
Ġphu oc
Ġbook let
Ġinstrument ation
a ho
n ot
v u
Ġ G
Ġv ia
pro ced
Ġor cad
Ġemploy ment
r on
ic en
Ġexect utive
Ġd own
tr ung
Ġcontrol er
ass ociates
in nov
st ate
Ġb ot
Ġill ustator
Ġdem onstr
Ġd ie
Ġn dt
v s
Ġsupervisor y
ak ing
Ġab out
Ġgener ators
en roll
aig ht
Ġpat h
Ġet h
Ġu at
manufact ure
Ġyout h
m ap
Ġp u
ic on
min um
graph y
con crete
kh oi
Ġver izon
gl ass
char ge
cob ol
t i
Ġcon c
Ġh unt
Ġm igration
Ġdevel pment
ay s
Ġintell ectual
Ġfix ed
et ter
Ġpr imary
for ward
res ource
e hs
Ġtr action
pl c
Ġfr ench
Ġmol der
Ġm ale
ad s
Ġj ira
Ġsc ada
Ġmod ule
hr m
Ġse al
Ġdet ection
Ġbiochem istry
opt ical
n uclear
Ġr d
Ġsh epher
Ġdiv ers
Ġent repreneur
red ient
Ġs ee
Ġjav ac
Ġdan cer
Ġpartner ing
Ġnav is
thre e
Ġd ig
rec ord
cap ital
r est
Ġs la
ro up
ap per
Ġdes cript
Ġ T
al ty
ac cess
ng anh
fl ask
wa iter
nat ural
3 65
y e
Ġ R
Ġc dl
Ġm ilitary
f arm
m ob
Ġass ortment
ask et
cy bersecurity
pack ing
Ġhist ory
icen ow
i od
om et
Ġcomp lex
000 1
Ġl lc
Ġst ream
re et
person nel
Ġdash boards
Ġjun iper
2 4
Ġs qa
ear l
Ġalgorith ms
Ġdermat ology
x amarin
it igation
Ġcomp ut
Ġtan k
Ġmark er
Ġrespons ible
collabor ation
Ġsew er
f pga
Ġc ass
Ġappro ach
d ie
n egot
Ġpro c
y m
ent ry
Ġf em
air freight
programmer s
m ortgage
Ġth inh
Ġr u
Ġf eat
Ġsur geon
vc c
coordinator s
execut ives
ge ant
staff s
Ġemploy er
Ġevangel ist
Ġs ev
Ġs led
Ġk em
ut ed
ens ure
Ġel v
pip e
Ġ Eng
Ġl te
Ġres truct
iep s
Ġtap e
Ġrobot ics
d v
s il
ob ject
tel e
Ġhom es
Ġran king
Ġlink edin
Ġcass andra
Ġw ifi
Ġattend ance
Ġspr ay
Ġbut cher
pow erpoint
Ġtes ol
b ussiness
or id
ec ision
Ġin jection
ad m
Ġso x
Ġact uary
inter ship
cent ral
Ġaustral ian
z e
oc ational
reg istered
m ol
t utor
iv ation
Ġpr iority
Ġfin ishing
sc reen
Ġexecut ice
Ġagric ultural
1 000
v es
Ġt cp
Ġeffect ive
Ġeconom y
Ġwire frame
div ision
c od
Ġcr itical
Ġjs on
b y
Ġm i
Ġsupport s
Ġ3 000
autom obile
new s
mar com
cro ss
m ac
pro m
lin ary
c old
q e
Ġc up
it ting
Ġman y
Ġman eger
Ġj enkins
Ġprem ier
Ġmachin ing
Ġing redient
Ġexpl ain
n oc
o ir
ant ic
Ġcon fer
director s
fre elances
und ry
Ġpsych ological
sw itch
Ġorganiz er
Ġlog o
Ġlight ning
b ation
b illing
u ise
Ġch in
eg a
Ġamin istration
m ulesoft
Ġc asting
Ġappl iance
Ġtel evision
osp ace
lay out
Ġexplo itation
fab ric
an ish
Ġcon flict
Ġcap acity
con n
Ġchief s
supervisor struong
Ġlif ecycle
Ġcommod ity
m ail
ur ed
oc ean
ch ien
us her
Ġfre elances
chief s
Ġaccept ance
employ ment
Ġdynam ic
Ġ17 02
ess el
Ġpr ivacy
agric ultural
Ġpull er
Ġs eller
Ġcl oth
Ġto y
Ġsupervisor struong
com mission
med ic
Ġinvestig ations
lang uage
w h
oc iation
gr ee
Ġread ing
Ġagre ements
Ġoper ater
Ġvin a
if one
Ġaccess ories
me a
Ġinstitution al
Ġs ide
Ġc ra
Ġvu a
Ġoc cupational
Ġrespons ibility
Ġlif estyle
Ġrun ner
admission s
Ġrender ing
b ag
d anh
m i
an ager
ec ular
Ġg old
Ġ3 65
Ġappl iances
bo at
Ġpum ps
Ġker nel
am a
ch air
for n
Ġfin d
Ġinv oice
Ġbl ood
Ġmak ers
Ġ B
Ġanal og
sec ond
accout ant
b artender
co o
Ġ roller
inter active
hol der
Ġmachin ist
Ġir on
Ġprosp ective
Ġmanager headhunt
Ġed ge
fir st
vin smart
am l
un iversity
Ġart work
Ġdis abilities
Ġnort heast
Ġmob ifone
Ġsty le
Ġing en
Ġfunction s
statist ical
Ġv ertical
Ġmay a
event s
tel emarket
integr ated
Ġum l
t ac
en ical
av ing
con f
Ġes p
Ġasset s
she et
Ġmov ie
Ġnavis works
Ġs ao
at io
Ġx in
Ġfor ex
Ġind ic
sm b
bro adc
i i
Ġb elt
Ġcalc ul
v endor
Ġpol isher
cos m
Ġprovid ers
Ġsp l
bod ia
Ġdevol oper
Ġfem ale
v oice
Ġqu ote
Ġcor respond
Ġem c
Ġprotocol s
Ġether net
k itchen
ail er
Ġfinal ization
Ġt s
on es
Ġbro kers
fill ment
b or
Ġg it
Ġch ina
Ġng ua
Ġpm p
Ġscal ability
m ine
s er
w inform
Ġc ctv
Ġsh el
ng oai
vi ro
Ġsof ware
Ġg ep
Ġim migration
Ġhouse keep
Ġm aven
dist inguished
b ut
ho od
Ġdep arment
Ġro uter
Ġme at
clin ic
angular js
Ġmethod ology
editor ial
sa as
n u
n ursing
Ġw heel
ex change
Ġstat us
Ġpat rol
dr iver
aho o
0 1
Ġg ar
Ġf p
Ġxu an
Ġper iod
Ġ1 00
aster n
hr is
mechan ic
Ġtroubleshoot ing
b oc
Ġm ent
ch up
Ġwork shop
Ġtech in
Ġmedic are
Ġlat he
r ies
s emiconductor
Ġp ur
Ġf oot
ed ge
og n
Ġsk in
Ġair port
Ġ201 7
Ġcogn itive
d ot
os ch
b c
lin k
Ġloc ations
control ler
sk ill
Ġinform atic
sf mc
l uong
p ed
t ot
Ġs dlc
Ġk aizen
et y
as ic
Ġtech combank
n uxt
r ist
r sm
Ġf ico
Ġind ia
ex pl
ens ive
Ġcert ification
Ġ6 0
Ġchar acter
Ġfish monger
c ung
l iqu
t ien
Ġt n
Ġm d
st one
Ġn ec
Ġco op
Ġserv icer
ord ing
ard en
deal er
Ġcalc ulation
Ġpoly mer
monitor ing
viro ment
Ġr ange
Ġit il
Ġtro i
Ġon cology
br se
b ine
ut tle
pr imary
Ġde an
Ġbl u
Ġpract ices
chem istry
assemb ler
gam es
Ġrenew able
text ile
m ain
t ap
Ġs ails
Ġfl ows
k u
et l
Ġco at
erg ed
bot t
app arel
assist ance
ash ing
m ech
ec rical
act uarial
Ġsy n
v ar
ack er
Ġsc ale
tick et
o h
Ġp ed
Ġb osch
qu al
aff air
Ġpharm a
under writing
Ġcam bodia
hospital ity
c d
es c
Ġy ahoo
Ġde gree
e ff
oc h
Ġcons ol
Ġle gisl
Ġhed ge
Ġindic ators
c ty
Ġt iem
em ail
il ever
Ġanal ist
Ġdes g
Ġmang ement
Ġpeop lesoft
Ġ14 001
innov ation
b le
b one
Ġ ub
em e
Ġindustr ies
dra w
Ġlic ensing
Ġru ou
l ibr
Ġd rug
en ant
all y
Ġdr iving
Ġmicro service
Ġhouse hold
devs ys
ĠY uan
vo ip
N E
Ġte k
Ġrel ated
Ġtem p
Ġrefer ral
Ġthro ugh
e al
h one
Ġeng g
Ġvi ol
Ġmat lab
Ġinstrument s
Ġs ac
Ġs qu
ineer ing
ot ype
industr y
Ġappra iser
camp us
p earl
v aluation
Ġv s
st art
st itch
el opment
um ni
Ġcash flow
Ġrem oval
Ġreg istration
x e
Ġc b
Ġp aid
Ġtr ay
Ġw om
Ġcons ervation
Ġsign s
Ġphys iology
super intendent
v eter
Ġ ol
Ġs cr
Ġn uclear
Ġcom press
aph ics
Ġteam s
Ġve hic
Ġtruc king
Ġmat h
h oan
m ill
gr ad
aff iliate
our ney
anal y
Ġbever ages
Ġspec il
2 00
el evator
Ġw ed
ain cal
pg d
Ġz alo
Ġguid ance
Ġinform atics
scal a
Ġfl orist
int erv
s ection
an king
Ġl ua
it es
is n
ed ict
Ġgr ad
Ġprof ic
Ġmar itime
f ix
v iew
Ġpro of
Ġbiot ech
deb t
Ġtb yt
Ġc itrix
ec e
ec ard
ul try
market er
mc p
Ġcs dl
sm e
Ġmanager urgent
le et
Ġbrand s
Ġlu an
Ġreceiv ing
Ġsub stance
Ġbroch ure
p ass
Ġ ieps
at son
or ation
ev aluation
Ġdraf t
Ġacc ording
c ul
Ġc er
Ġf a
Ġpresent ing
distrib utor
Ġphysician s
Ġcommand er
col or
Ġpoint s
Ġ X
Ġc op
book s
hy brid
Ġprefer red
c offee
ut ant
nv kd
wind ow
fir mware
Ġcood inator
p is
es is
Ġmark eing
thuy et
a w
l ift
r n
w w
y ard
Ġs eas
Ġr ac
Ġelectr ics
team leader
ouc h
Ġremitt ances
anim ation
Ġvehic les
w elding
es h
Ġan z
om m
work ers
tran et
pet ro
1 5
Ġ Ĉ
Ġpr ud
Ġre gular
res ervation
Ġ201 4
Ġrad iology
0 6
w all
Ġp ce
Ġn umber
Ġhe at
int ech
Ġmanufact ory
Ġla z
Ġel ecrical
n ote
p d
v m
Ġd ur
Ġdevelop emt
Ġdr ier
Ġ0 3
truc k
Ġfr am
Ġmak erting
Ġter minal
h eng
Ġ W
er ator
st y
Ġpr ices
Ġbo at
sp a
Ġsuperv iser
Ġlav arel
Ġopr ator
18 00
Ġconfer ences
l ock
al t
Ġban ner
ph a
sch olar
agric ulture
Ġaustral ia
Ġacount ant
cosm etic
c ular
f c
Ġk am
os ystem
Ġstr ong
Ġsout hern
mach in
Ġger ber
Ġmann ager
h air
s and
Ġth en
ut ility
Ġj unit
con v
ier ge
Ġcar s
board ing
Ġsustain ability
organ ization
Ġliter ature
cry pto
c ai
p enter
Ġn e
Ġman a
Ġf urnace
Ġst itch
ie wing
Ġdes inger
Ġdir etor
gol f
Ġ ach
programm ing
hold ers
b it
b ach
Ġg s
ers e
Ġsat is
Ġsc ss
Ġun ilever
Ġexper ts
Ġdel ta
Ġinstitution s
a qu
Ġd ell
Ġh base
Ġoff er
Ġstaff ing
Ġbi o
Ġdel iver
Ġsuperv is
stud y
report ing
psych ologist
r en
Ġt mcp
Ġv ai
ac c
Ġch all
Ġlap top
ph am
Ġup sell
Ġlab our
Ġprot ective
Ġgre engrocer
Ġp i
ill a
Ġwork place
Ġstake holders
Ġoprator e
i elts
Ġs wing
Ġeng eneer
Ġinv o
sec urities
pharm acist
Ġhed ging
enet ration
Ġfar mer
b ell
h p
l at
t ies
Ġp icker
echn ology
Ġ2 500
Ġlang u
Ġall ocation
commercial ization
Ġarrang e
Ġticket s
k en
om ent
pl s
sp ace
cur riculum
Ġsetting s
Ġreserv e
f an
Ġs ense
Ġex t
ex cel
Ġprud ential
Ġs ix
art ist
Ġchi u
Ġal u
Ġcomm is
Ġartic le
b ul
Ġn euro
pl ic
Ġmag ager
peop le
Ġdivers ity
libr ary
Ġm g
Ġj ud
av iation
ner al
az ure
Ġ if
Ġtour s
he at
Ġapprais als
Ġmeas ure
s vice
Ġt ile
em ark
Ġg cp
ch o
as ales
Ġng a
ex p
Ġnort hern
Ġu k
gu ide
hy dro
Ġartic les
lar avel
wel der
f intech
s ound
as istant
Ġcr uise
Ġmep f
Ġet ap
Ġpet ty
sustain able
ess ary
if ier
com mod
Ġequ iment
land scape
f d
v as
on al
of ounder
vue js
clai m
Ġdial ux
edict ive
1 7
s of
t w
op tion
Ġa vi
Ġh ub
Ġtu oi
ell ite
Ġprofessional s
be an
Ġpum p
Ġl oy
ign iter
art ificial
Ġshop ee
Ġdr y
Ġmech aincal
Ġcover age
mak ing
db c
c ut
e k
an nual
Ġm eter
ar ies
os c
Ġto wer
Ġbook maker
coach ing
e ic
t able
Ġr ia
ce ed
Ġe bs
Ġad ap
Ġfin one
Ġstr aight
Ġmis a
Ġoffic ier
tr ac
Ġbroadc asting
Ġstatist ic
coun ter
Ġser geant
gre en
r an
Ġn ov
Ġj ig
Ġadministr ate
Ġmach enical
mat hematics
Ġassist ing
Ġbehav iour
dis pat
d ir
m aintain
s ing
Ġt l
air port
Ġadv ance
Ġmer chant
Ġcoun cil
Ġup s
log ic
Ġassign ment
Ġloy alty
al m
eb anking
Ġcap abilities
tro ubleshoot
cre w
Ġdiscip linary
Ġingredient s
Ġlaz ada
m ing
Ġp ep
ab lish
ph au
Ġmotor cycle
proced ures
o on
Ġre ac
dr ive
vis a
law yer
1 1
h ow
n y
Ġr ang
Ġcr ane
ge od
Ġbat tery
trans fer
Ġmal ays
f ile
v mware
st eam
ch ot
sp are
Ġrepair s
Ġtran ning
Ġrecre ational
Ġs av
Ġs ever
Ġk indergarten
Ġb tl
Ġa ia
Ġban d
Ġwebs phere
b ert
r igation
Ġb ong
Ġsal er
as oom
Ġmol ecular
sn r
Ġreturn s
Ġavi ation
2 7
r ection
y outh
es ment
market e
Ġtel asales
b ilingual
f s
s afe
s vp
Ġ ich
Ġd ise
ment al
Ġstr ess
bo iler
Ġanti que
be hav
Ġtv gs
Ġavail ability
Ġw atch
Ġot her
credit ation
bu on
compl aint
bod y
Ġelement ary
wait ress
h at
j ax
un ication
ad band
Ġe ar
Ġw ide
Ġnh uan
Ġsw ot
Ġdam age
Ġacc el
Ġgam ing
Ġgt m
phys ician
Ġcart on
bid ding
h ong
m ant
er c
Ġp or
Ġk pis
ex press
Ġdr ivers
Ġdi agram
Ġsil icon
geod etic
ar ter
echn ical
Ġpres chool
Ġro y
mult i
Ġsen ious
Ġreward s
clai ms
m ix
Ġkh a
Ġshop keeper
fact ion
Ġde fin
rep orter
Ġcamp us
Ġadjust ment
un ified
iv en
Ġass it
Ġserv icing
eng ine
Ġcompos e
Ġgen etic
cler k
scient ific
h inh
w holesale
w aste
Ġed i
Ġcost s
rec re
Ġreview er
Ġpetro chemical
Ġmess aging
b ever
l uxury
Ġ ist
Ġsc an
pa stry
Ġspecil ist
h ai
s ion
ociat ed
Ġdispat ch
kn owledge
Ġbackdro p
Ġdur able
ar r
Ġcon struct
Ġdevelop pers
sol e
pol ice
Ġger man
fit ness
scient ist
m p
Ġc is
ar er
Ġf iber
act or
Ġplan ing
Ġcr iminal
graph ics
emb ed
Ġreg istered
Ġshoot s
quy et
Ġjoin ing
hemat ical
h ard
i ologist
l ass
n av
am ic
Ġy ard
Ġcontract ing
ear ly
kh u
Ġsew ing
in ce
ar ct
art s
Ġdr illing
Ġinc ub
Ġlat am
Ġplay er
Ġful fillment
t ec
Ġp pe
or al
Ġg un
ep res
tr ang
Ġprogram er
Ġteles markete
Ġinst agram
inter mediate
pm o
Ġacc a
class room
att end
bach elor
Ġn x
Ġr ule
Ġg aphics
Ġnh i
anch ise
Ġz oning
Ġgradu ated
amer ic
incent ive
appr a
c i
Ġc uong
Ġj dbc
Ġng ineering
Ġsc re
Ġec osystem
bi ke
Ġny c
Ġconvers ion
c ery
m ang
ch romatography
Ġpar cel
Ġsuper market
sur face
Ġcontrib ute
Ġreac js
Ġdefin ition
g ood
l em
Ġ uy
Ġb all
is ational
il n
ail ure
inc al
ear ning
commun ic
vey or
present ation
sho e
Ġdescript ions
Ġsupervis ior
c able
m eat
t ake
Ġspecial ized
com ing
set up
Ġccn p
sty list
b uc
o a
ul ner
Ġre habilitation
ra ising
comp onent
Ġinstructor s
Ġms b
Ġlia ise
Ġarm y
b oy
f ur
i ary
m r
Ġm es
es try
is es
Ġsp are
Ġpl astics
ok ia
Ġvis it
dra fter
Ġchar ter
behav ior
e er
n is
u um
Ġt un
Ġn as
Ġf e
Ġf di
tr onic
le ase
Ġsup ev
Ġap artment
Ġpow der
Ġcount s
Ġshe ets
tick eting
coordin ate
oph ys
h us
an c
Ġg ather
Ġch ep
Ġro t
ight ing
cur rent
Ġ201 1
Ġlo at
Ġtrial s
d ef
m vc
tr am
Ġadmin ist
bar ista
Ġguarant ee
z a
Ġs op
han oi
id en
th oi
Ġspecial ty
Ġaut os
Ġsour cer
Ġdirect er
pc b
Ġassess or
book ing
Ġboot strap
Ġnf v
Ġsecond ary
enroll ment
prom otional
3 000
Ġc ordinator
Ġv ide
Ġv enture
Ġh ave
Ġpro bation
Ġen viroment
ie ut
Ġmem b
Ġemploy ed
Ġroad show
Ġsho e
Ġatl antic
ev e
Ġtim ely
Ġmt v
Ġmap s
och ina
analy ze
n ical
Ġd airy
Ġl etter
Ġsan der
Ġdoc ker
Ġmanufactur ers
Ġhy dro
Ġmalays ia
d d
s im
s re
z er
Ġv crm
Ġinf os
Ġsuperintendent s
Ġcompar ative
Ġsatis faction
h az
ro t
Ġnh ay
Ġinv esment
house keeping
Ġmechanical s
off shore
Ġframework s
Ġ7 00
t ur
at h
Ġsh ort
ok er
tel evision
Ġsub contractor
Ġgate way
exper iment
Ġinstit ute
Ġbql da
camer a
ulner ability
4 9
c ao
ult ant
Ġmed ication
Ġmang ager
Ġproper ties
Ġtm dt
d iesel
h im
n pi
q b
t ank
Ġ ipt
Ġs iem
Ġs ize
Ġin cl
graph er
lu u
Ġexp atr
Ġcust od
Ġlav avel
Ġcompetitor s
Ġccn a
l aser
Ġqu ery
Ġ2 4
Ġaudit s
Ġbat ch
Ġread iness
Ġmemb ership
i ff
o em
er ter
ar n
Ġh tt
Ġch oi
ign er
Ġbu gs
Ġl g
et te
Ġh er
Ġq ms
Ġco ol
Ġsh uttle
Ġout door
kh ao
Ġgol and
Ġent ries
Ġpress er
ĠS hi
uss ian
Ġdisplay s
ben chmark
Ġsails js
c ot
Ġs ience
Ġp dm
Ġw ear
Ġlar aver
pol y
dis aster
Ġ12 00
Ġvendor s
bever age
epres ence
ro p
ion ics
Ġb ed
Ġpro ceed
oun g
est im
Ġem s
d ba
ment or
Ġj ewelry
con ference
prep are
Ġl ock
el ement
est imate
econom ics
r un
es cal
Ġr atio
Ġf ol
Ġf uel
Ġe astern
Ġnh on
Ġbr ad
dra f
Ġlot te
2 1
6 0
e ware
w c
Ġp allet
Ġfl atform
Ġui ux
Ġal m
Ġpan els
Ġshare d
Ġconnect ed
Ġenginee er
Ġdiagnost ic
Ġjavac ore
tot al
ieut enant
Ġf u
Ġw ir
for ensic
pt ion
Ġdraf er
Ġ0 5
cos met
compet itive
Ġtoy ota
Ġstitch er
q uyen
s id
s port
v en
Ġb ts
par alegal
Ġsens or
dom estic
Ġc se
oc cupational
ed ger
Ġac creditation
Ġpl ace
Ġre arct
Ġev ery
Ġther mo
Ġcode igniter
ĠJ i
Ġlangu ages
f eed
w atch
Ġg ao
as ia
tr usion
pro of
Ġsampl es
liqu id
l oss
m ass
Ġt uy
Ġw eather
Ġad tech
Ġdr iven
Ġnav al
Ġinterpret ation
Ġaer ospace
l ong
Ġp enetration
Ġb pm
ch es
ed d
le ather
um atic
Ġpost er
Ġpe ony
Ġtem plate
bat tery
Ġfabric ator
Ġsen iour
found ing
Ġesp ecial
c ument
ect s
ap ers
ol a
ign ment
cl uster
Ġinterv iewing
Ġlegisl ation
Ġc abin
Ġp it
st ar
ep r
ul ator
og a
Ġadvert iser
Ġout age
inter personal
labor er
Ġread er
Ġtalk show
journal ist
e um
p ub
Ġv essel
Ġcom bat
por ter
Ġpower bi
robot ics
Ġfinan cal
install ation
Ġnec essary
Ġalu minum
Ġexpatr iate
p qa
Ġg ang
ig ator
Ġdeveloper elopers
Ġdevelopers elopers
Ġprogrammer elopers
Ġro tation
Ġprogrammers elopers
Ġest ablish
Ġdevs elopers
fin d
mechan ics
rel ease
Ġviol ence
w d
om es
ch ong
iv est
Ġnh ieu
Ġhai phong
cept ion
Ġoffic ers
hib ition
Ġspray er
Ġwom en
Ġd m
Ġc ement
al gorith
or a
ip p
ay a
th ac
Ġim part
Ġcoll ab
ib ration
equ ity
we aver
w n
os iate
electr ician
Ġmo uld
Ġkey word
hs se
Ġliquid ate
Ġexperiment s
Ġres ume
ub er
Ġstor ies
mech atr
Ġist qb
Ġautos ar
Ġm om
ag ent
Ġh tv
un rant
per l
all ery
dat es
esta unrant
Ġhygien e
Ġeurope an
1 3
h adoop
ic ial
st ory
Ġn ash
is su
Ġsp c
all iance
12 00
Ġfair s
Ġproceed ings
l ive
Ġm ig
Ġtrad emark
bl ock
ind ividual
Ġms sql
d em
j e
r up
s cr
s elling
t ich
w ave
Ġs ess
Ġcons um
os is
Ġplan er
ub ric
web master
sr s
Ġport ion
val ue
Ġwar fare
interv iew
Ġb et
Ġtr ips
Ġng ai
od al
Ġcl asoom
Ġbo iler
Ġfor ms
Ġind ochina
Ġmak ete
sc m
eas urer
Ġstatist ician
Ġpublish er
Ġdiagnost ics
dynam ics
h oi
Ġv t
Ġv ital
Ġli ability
Ġy our
Ġcor ebanking
Ġmechan ism
ew ater
ivers al
Ġadm isn
cour t
det ail
men u
l esson
Ġ D
it ics
Ġa st
Ġsp anish
Ġmem ory
ex c
su ite
post gresql
Ġ ess
Ġb ur
Ġman h
Ġf uture
Ġvb a
sh ows
hom ologation
Ġcompos ing
Ġchild hood
Ġshel ves
Ġmana ager
b ill
t an
Ġg ym
ap pro
ut ic
mer chant
Ġweb ex
Ġbid v
produc e
asket ball
r ubber
w pf
Ġpro d
Ġkh at
pp c
Ġpl us
Ġrec ap
ast ewater
ith ub
Ġcashier ing
Ġbig data
ha ul
sign al
Ġrig ger
world wide
h ar
t itle
ep l
Ġcons utant
Ġre quisition
Ġtrans ition
mat h
kt v
Ġpan el
Ġacqu ired
host ess
object ive
h am
h uy
Ġs ons
et ization
ter ior
Ġrep ly
manag ed
Ġrepresent ation
Ġbe at
Ġ20 20
ne umatic
Ġlaunch es
Ġenge en
d airy
an mar
Ġserv icenow
Ġdet ention
Ġfabric ate
Ġbab y
ivest ock
Ġadmisn istration
Ġc x
Ġb iz
Ġpro pos
Ġe g
ia st
ass urance
Ġpublic ist
Ġup date
Ġlif esc
Ġmain frame
h ach
i forn
t ire
w estern
Ġn okia
Ġw atson
ph d
Ġmin er
inform atics
ourney man
iforn ia
Ġc e
Ġh iep
iv ot
act ical
Ġpr edictive
im odal
Ġte x
Ġcoll ecting
ib bean
Ġfloor s
Ġma h
oom la
surg ery
Ġbrad n
c art
f uel
p an
Ġ F
Ġspecialist t
inc ident
Ġnam ecard
ber ry
Ġreg ener
fac es
shop ping
rect ional
Ġrun ning
cil iation
cir cuit
s out
t ube
Ġt itle
Ġw al
ort s
Ġspec ification
hy draulic
Ġpatient s
Ġforec asting
him inh
d rug
Ġ ia
js p
Ġ2 2000
con tr
cl ub
Ġpat ent
cas ino
Ġconv erged
f lex
h oreca
k ol
t ob
Ġt tt
ap ache
ig ar
ĠS an
Ġmap ping
Ġhaz ards
resp ons
Ġtur bine
Ġnhu om
incent ives
Ġqt kd
spe ech
Ġneuro science
l or
Ġp ool
ion g
em aker
gr ain
ib ank
inter im
Ġclass es
app le
t ive
Ġt d
Ġv ap
Ġsan d
Ġso a
Ġon boarding
ĠS un
cre ate
Ġmax im
Ġmam ager
Ġcas ino
Ġconn ection
p ainter
s am
ac co
ap ist
Ġmag n
Ġrece ipt
Ġmedic inal
Ġbroch ures
cosmet ics
m eas
on site
st it
st age
un k
Ġg eo
Ġw ay
Ġpl umbing
Ġcustom es
Ġstr ipper
Ġvietnam works
Ġadvert ise
Ġar c
Ġhy draulic
Ġspe ech
recru it
tester s
Ġrefin ery
Ġroy al
4 00
c sr
m ilitary
it on
oun ter
Ġsan h
Ġmechan tronic
Ġcash iers
ef l
Ġcomm on
Ġengin neer
Ġtechnologist s
Ġmaintain er
bar rel
Ġaqu atic
Ġconduct ing
Ġconnect ivity
Ġpublish ing
Ġshepher ding
t ts
Ġd ream
Ġv ie
Ġn eg
Ġass ociation
Ġcompl ete
Ġaid s
Ġrefer r
Ġenhan cement
hus iast
element ary
Ġm v
Ġeng n
Ġcap city
Ġsearch ing
** **
Ġthan ks
Ġpetro leum
Ġelement al
Ġfeat ures
Ġl ad
Ġk s
Ġprep arer
Ġrecord ing
ĠC hi
Ġbab el
m ov
ar ger
Ġk ep
ad ult
re frigeration
Ġcr ime
Ġtechnician s
ograph ic
Ġintegr ations
Ġcar ibbean
Ġkey note
Ġtim es
Ġ4 500
Ġguarant eed
telemarket ing
g p
k enh
r ication
t oi
Ġd ead
Ġm ock
Ġv ng
Ġb b
Ġr estaunrant
ch uong
Ġw ee
igh er
eng agement
Ġdistrib uted
plan e
Ġgre eting
Ġsaw yer
Ġquick books
Ġconc ierge
Ġregener ative
b io
Ġqu i
Ġst reet
Ġcre ating
Ġcontr uction
g v
l inh
at tor
Ġp estle
Ġa jax
om y
Ġmechan d
bl ack
Ġcondition er
telecom munication
Ġmg mt
1 9
d ent
el oad
Ġn ex
Ġh ao
Ġad ult
Ġco e
Ġdevelop e
anal og
Ġ8 00
Ġ9 000
pro mo
Ġsec ure
co al
Ġper ception
Ġorgan isational
dev op
nal ist
broadc ast
E R
b akery
Ġt at
Ġanalys ics
Ġrec ogn
custom ers
Ġmy anmar
Ġbl ue
stud io
Ġfund s
dm ax
ĠY i
Ġinvo ices
Ġvide os
f g
f all
en ge
Ġp ick
Ġm pls
Ġg p
th ird
olog ic
sp ec
Ġsm s
Ġhotel s
comp os
Ġprov ision
coordin ating
cler ical
1 6
9 001
e king
f pt
g oi
l ook
m emb
r ust
s ang
Ġk ids
Ġmanag ner
Ġg dn
Ġshop per
Ġdr iller
Ġinstruct ing
dep loyment
Ġqual ification
Ġmaintain ing
Ġ27 001
Ġcontrib utor
conf iguration
Ġinformatic a
omm end
Ġreferr als
k v
k eting
k otlin
p ot
Ġ rol
Ġd f
Ġv ent
ab et
Ġpower b
prof it
met adata
collection s
appr ent
Ġproc ce
veter inary
s ir
Ġmanag ger
em atics
ab a
Ġre ference
Ġy ou
Ġlin q
Ġpe er
Ġer ector
dis play
Ġgames how
Ġshipment s
Ġtalk shows
dec or
Ġrol es
d ock
j ewelry
Ġ ul
Ġs ar
Ġm b
tr ation
Ġcl ip
Ġal umni
erg er
Ġent itle
Ġfabr ications
superv ision
pes ialist
Ġmaneg ar
Ġl itigation
Ġpro active
Ġand orid
Ġpl ate
Ġfor est
Ġcal ifornia
attor ney
abet es
9 49
or er
Ġv en
Ġv ers
Ġk cn
Ġb order
Ġhoc himinh
duc e
Ġretail s
lu ent
ĠS pesialist
Ġevalu ating
set tlement
ri od
econom ist
Ġsev ice
memb ership
s outh
t arget
w ords
it ech
it ures
op tim
Ġw ip
Ġac sc
for est
ard ot
Ġinter gr
contract s
Ġsouth west
ĠM an
mult iple
Ġsoft wares
Ġcooper ating
conn ect
l ien
p ul
in ding
in come
at on
Ġtr ip
Ġf ighting
ad ger
ight s
Ġaud ience
Ġip hone
fac ulty
manufact urer
Ġsl ove
Ġmill ion
Ġether eum
algorith m
appro priate
a ult
b ra
it a
op ark
et ting
Ġg ear
pro posal
Ġback bone
project s
edit ing
Ġec opark
Ġme anager
Ġmult imodal
Ġnot es
apply ing
ĠA nalist
Ġ4500 1
c vcc
ro ird
Ġman arger
th ue
Ġspec list
Ġvinh omes
' t
u ard
Ġm or
il ization
rol ogy
pr event
Ġmon etization
appl ied
trans mission
school s
Ġtur ner
Ġcoat che
fan page
Ġespecial ist
0 4
ine es
Ġg ithub
Ġj an
Ġand roi
Ġoff ices
ork lift
product s
ru it
Ġcontractor s
Ġteleph ony
hand ling
Ġwell ness
Ġmah ager
n ight
ec o
Ġb oss
pro d
ass ess
tract ion
Ġcr ash
lu ence
Ġmark ting
Ġfirefigh te
Ġescal ations
Ġsqu ad
w ed
er oom
Ġt ag
as ma
Ġtu be
Ġsat ety
ern ior
Ġbro adband
Ġscreen ing
ĠZ hu
Ġunload ing
Ġmaneg ers
14 001
f ly
k indergarten
Ġm ust
Ġf ailure
Ġof icer
tr ip
Ġpr ecision
Ġcor rection
Ġeff orts
Ġfil ter
sur veillance
Ġhon da
Ġsho es
Ġperform ances
pub lish
v ocational
Ġman erger
ist ics
im p
Ġsr m
Ġob j
Ġspec ific
card i
inst it
Ġconvers ation
forward ing
Ġcomput ers
epr int
u ff
Ġm illing
ant ique
Ġgi up
Ġas h
Ġanal is
Ġto eic
Ġla undry
Ġbook s
Ġoptim isation
fac ade
manage w
Ġren ov
Ġtechnic an
a ion
s as
Ġp op
Ġw hol
Ġgr id
Ġtong ue
Ġobject s
Ġmuc h
ild life
phot ography
Ġmr p
dispat cher
promo ter
A NE
G ER
Ġd iet
Ġn or
oun ge
Ġac b
Ġi am
ber g
Ġent husiast
cc ie
Ġstor es
Ġunit ed
Ġmen ager
27 001
americ as
Ġsess ions
Ġlifesc iences
Ġttt m
ANE GER
f ruit
h ien
l ot
m d
m kt
w om
Ġf o
oper ate
oun ior
gr ade
Ġor al
Ġem r
Ġsql server
Ġcan on
bi omedical
Ġder iv
way s
lic ense
ren ew
n utrition
Ġl ingu
Ġan n
Ġan s
Ġan roid
Ġw ashing
Ġkh ung
Ġj ust
Ġle ather
Ġind irect
Ġind oor
Ġfac ing
Ġagent s
dis c
partnership s
Ġax ure
Ġsn ap
intell igence
3 9
4 85
5 0
c op
n ation
en ator
Ġt vc
ac ount
Ġb ing
Ġman adger
Ġpro lem
iv ec
qu ir
Ġpl m
Ġsol der
cript ion
Ġpack et
se ason
Ġfield workers
Ġspr int
Ġ5 0001
Ġz end
Ġbehavior al
Ġeffic ient
collabor ator
mak eting
Ġassign ments
Ġstake holder
Ġl ieutenant
Ġth ay
un ct
is ure
Ġsec ret
ish ment
Ġem otional
Ġfood s
Ġvin com
Ġhs bc
Ġsee king
ĠMan eger
b ed
b ay
l te
p ubl
Ġp apers
Ġv ing
Ġa ix
Ġand o
Ġde als
Ġform ing
regul ation
Ġpub ic
Ġpu plic
three js
Ġmagn eger
m w
r m
t ures
Ġman ner
as onic
Ġtai wan
pl umbing
Ġapp ium
Ġmon eg
ex pense
dev ice
pres chool
bat ch
bas ed
Ġlist ening
Ġ16 949
Ġcustod ian
issu e
Ġmoneg or
f ts
s eller
ent repreneur
ev alu
Ġtr on
Ġco ap
ort hop
air line
ph alt
Ġvis its
eg uard
Ġpharmaceutical s
Ġra ise
Ġsub sid
Ġsd k
Ġ13 485
ben ef
Ġparticip ants
cod er
Ġcorrespond ence
b inh
d own
r ig
Ġl ounge
Ġman power
Ġpro jet
Ġf n
yst al
qu ency
Ġres e
Ġsc out
int el
tract or
Ġmang ger
ban quet
ban cassurance
ĠM ANEGER
85 83
Ġpubl ications
Ġbooklet s
Ġm ission
gr ader
Ġho urs
Ġmer ch
ver ification
cap tain
Ġdetail er
po ultry
cust ormer
Ġincub ation
Ġs yst
Ġn est
ment oring
Ġanalyst ic
Ġdep ot
ast ers
all urg
Ġro bert
ater al
Ġbl ender
Ġsearch er
Ġsign on
Ġel earning
Ġdetail s
lect ure
Ġinterpret ers
Ġcompar ison
not ar
petro leum
Ġrecogn ition
c afeteria
ec ast
et ical
Ġmanager top
Ġdat ab
cr itical
Ġrep res
der mat
ge er
ret ouch
Ġbiot echnology
l s
r x
Ġex erc
ics son
Ġun ion
ng on
Ġmen eger
Ġ200 00
insp ection
inform atic
Ġ17 0
Ġ27 0001
Ġ1702 5
I N
c abin
d y
n ity
Ġa fr
Ġe pc
Ġst ain
Ġpl at
ient ial
incip les
Ġcheck out
az a
Ġwe igher
Ġpass enger
Ġving roup
Ġc fa
Ġm us
Ġn edd
am ond
Ġin tranet
Ġw ho
im migration
Ġflutter s
Ġtour ist
Ġbuilding s
ng o
cs kh
cn tt
Ġmatter s
superv ise
rail road
Ġmann eger
ĠR en
fix ed
in jection
Ġd ak
Ġp te
Ġman geer
Ġg ach
Ġass ociated
Ġle ed
gi o
net es
Ġor ig
Ġdecor ator
pm g
me eting
Ġuc s
Ġlot us
prem ier
Ġrestruct uring
06 4
uber netes
apprent ice
b ab
k pi
an ban
Ġq ac
Ġres idence
Ġviet in
hr d
Ġcar penter
pat ent
b ow
m eter
Ġd y
ter m
Ġad roid
tr ust
Ġpr inciples
qu ery
Ġgr ab
Ġcap ri
ak eph
aut hor
onom y
Ġbat h
led ger
sk etch
vin ce
akeph p
c atering
o e
Ġp wc
Ġn eat
ine d
Ġj o
tr ong
tr ee
Ġcoll ect
fin ishing
Ġdis put
Ġpost s
Ġdistrib uting
anim ator
Ġseas onal
Ġchall enge
er ations
Ġso us
Ġsup ort
Ġend point
Ġware housing
Ġtalent s
Ġmen edger
inf ast
cle ar
Ġinterview er
Ġguid es
machin ery
Ġsiem ens
c ms
f e
t am
Ġv r
ic itation
Ġn ay
Ġb est
Ġan sw
ist ic
il og
Ġdoc s
man ship
Ġtel epresence
Ġlin er
Ġab bott
ens ics
nh iep
Ġout source
Ġrm it
Ġpar ent
Ġmen eg
Ġ8 5
Ġga ap
book keeper
Ġww w
accout ing
behavior al
escal ation
Ġfol der
liquid ity
Ġ170 65
Ġstain less
c ofounder
k k
m and
u ally
Ġm ice
Ġv alu
Ġtr easurer
Ġpr ime
Ġdoc cument
pro jet
ph oi
onom ous
Ġstat es
met hod
na er
Ġflex ible
Ġrecre ation
c se
f iber
g ener
v l
Ġv illa
Ġn ote
Ġh i
Ġth ird
Ġmanager e
Ġand riod
im b
ograph er
Ġbro ws
Ġobject ivec
Ġ0 9
Ġlog ict
Ġsolar is
Ġger neral
Ġauthor ity
Ġvers ion
. .
s ico
Ġc ant
Ġl ubric
ion ic
Ġb ob
Ġf is
Ġx ang
ot her
Ġthe ater
Ġy oga
Ġcn b
thu at
Ġmat hematical
sub ject
Ġbell boy
icip al
stit ute
l ie
n ext
Ġm ut
Ġv uong
Ġf aa
Ġf mea
fr ench
Ġnon life
Ġ14 064
Ġ27 000
Ġ45 000
ĠI ng
Ġ1702 0
second ary
arr ange
Ġ85 83
g hi
l ity
m gr
r ing
Ġg cb
Ġx er
and y
ian o
se wing
Ġinterior s
Ġident ities
Ġpubl ication
ped iatric
i am
p it
s es
Ġs de
Ġv ulnerability
ic ist
se ed
sp ark
Ġcre at
Ġeff iency
cont roll
part y
Ġown ership
lab el
Ġopt ic
Ġcas eload
Ġexpend itures
Ġfinan cing
Ġeth ics
Ġfoot ball
b om
p y
Ġ age
Ġp ent
ic an
Ġh w
Ġg arden
Ġf ine
Ġdep loy
dat acenter
Ġgro wer
br ick
Ġob server
fl at
copy right
Ġsd et
model ing
Ġingen ier
var ious
e in
st all
Ġman naer
Ġr ubber
om bank
os h
pr ecision
Ġcomp ute
ph et
Ġtel co
dr ill
Ġsty ling
tax ation
Ġfix er
Ġpers u
devsys op
Ġcool ing
Ġafr ica
Ġvietin bank
g in
Ġd edic
ro of
Ġth cs
Ġph r
Ġw o
Ġex terior
ir atory
web s
Ġdis p
Ġsuccess ful
Ġmin istry
Ġmix ed
Ġps d
D evel
b est
Ġm ega
Ġb oth
Ġf usion
Ġj oomla
act ivation
Ġthe ory
Ġinter est
amp ing
Ġexp ect
Ġhol ding
Ġcloth ing
Ġtek la
Ġdedic ated
c inema
t b
w ool
Ġd sp
Ġm os
Ġv ery
Ġb ilingual
Ġper mit
Ġair line
Ġlocal ization
reg ion
instit ution
Ġando ird
c pa
d jango
Ġp ul
av p
Ġre evaluation
ex pat
Ġhead count
cu its
post al
schedul e
d est
Ġc vcc
ip c
Ġad h
Ġand roird
Ġass is
tr im
Ġlead ing
Ġdat es
Ġweb app
Ġtest s
Ġsw e
Ġbon ded
javas ript
commod ity
Ġdise ase
haz ardous
Ġhtt p
Ġtex as
n ature
y out
Ġs srs
Ġsupp y
Ġsh er
co ver
ex a
Ġfre quency
cont in
ear er
sec ured
vis iting
Ġwr apper
Ġprinter s
Ġss is
doctor al
Ġshepher d
p ick
s pl
Ġc pt
Ġm iss
Ġv ocational
em atic
Ġf ed
Ġch ip
il s
il izer
Ġj et
Ġpl ug
Ġrev erse
ship ment
oot h
Ġbackdro ps
at hlet
Ġm ate
st reet
Ġk pmg
ad words
Ġit sm
ill ustrator
tro uble
Ġtech ical
Ġhost el
Ġsitu ations
Ġrecon ciliation
b elt
g est
Ġhang er
Ġex hibition
Ġres arch
Ġmanual s
Ġ0 4
Ġevalu ator
Ġbre ak
Ġser iv
Ġkeep ing
trad itional
len ishment
Ġsac ombank
Ġprofic ient
pass enger
c f
c pr
l i
p ective
an a
it ary
Ġg om
Ġf ob
Ġf leet
Ġengineer urgent
iv ely
ant ry
ir on
re h
Ġfor ensics
la undry
war ranty
Ġvar ious
c igar
Ġm ater
Ġn ien
em erging
Ġdev epl
Ġadmin itr
work force
Ġbl ow
Ġadj unct
bal ance
h ist
l umber
s elect
Ġt ire
Ġb asketball
it ho
eb all
press ure
Ġab m
Ġfound ing
transl ation
Ġrobot ic
Ġcm m
start up
Ġpep sico
Ġbur ner
Ġmeneg ar
Ġphr ases
Ġl ess
Ġl ens
is a
tr ader
Ġsc or
Ġed iter
Ġ2 2
ban ker
ens or
Ġindustrial s
Ġcivil ian
Ġimplement ing
hol st
Ġident ify
phys ics
rece iving
spr ay
ther mal
schedul ing
Ġhyper ledger
mil k
omet ry
Ġsnap chat
0 7
Ġf igma
Ġqu e
Ġad p
Ġrec ommend
lar ge
season al
l iter
Ġs om
ent ing
Ġg sm
Ġch iller
ess ional
Ġho using
pp er
ack ing
ot t
Ġinter im
Ġcham p
Ġob serv
Ġissu ance
bi ological
Ġsustain ing
Ġjud ge
p al
v t
Ġl ach
Ġe y
Ġw ill
ead er
Ġco ord
im s
ain age
os pat
Ġfin ish
Ġsh i
Ġal co
Ġmid west
ĠĠ Ġ
di fferent
Ġcd ma
Ġxd cb
Ġcra ft
mechatr onics
evalu ate
ospat ial
f urnace
Ġs ist
Ġm sc
ac quisition
Ġk tt
Ġb aker
Ġsc cm
Ġro ck
Ġspeak ers
Ġwe aver
Ġexcell ent
Ġhip pa
host ing
Ġsn ow
solid works
Ġpers pective
camer aman
Ġexplain ing
Ġvs ip
poly mer
yout ube
b el
i ator
Ġl d
Ġn um
Ġpro phet
Ġph un
Ġmin im
Ġcir cuits
pol itical
show room
Ġofficial s
holst ery
l ao
Ġd os
Ġd iesel
or etical
art h
pro per
aph one
Ġor ches
Ġben ch
cor rectional
Ġauditor s
pos itive
Ġclos e
sa w
sat ellite
Ġcalcul ations
Ġgather ing
d od
n au
p od
t hang
er ising
Ġt ch
Ġs eed
Ġc k
Ġtr actor
Ġw iden
ass is
Ġsc en
Ġtime keeper
supervisor y
Ġprot otype
Ġsmart phone
Ġshow manship
javas crip
Ġblog ger
Ġavail able
Ġif rs
f ollow
s uc
y ect
in or
Ġth ach
Ġg au
ad word
Ġgi ft
ter ation
Ġho w
Ġcom b
qu ick
Ġsp ot
staff ing
Ġtool ing
mong odb
Ġear ly
c andid
f usion
l ac
in ational
Ġs oi
Ġr ussian
om otive
ol e
id as
res erv
Ġed tech
Ġbu is
cl os
ouc her
investment s
ngh iem
Ġwel fare
rem itt
Ġ* **
Ġav aya
Ġresort s
Ġrout ers
Ġopr erations
Ġpremier e
d ms
g ment
n ers
n lp
Ġ ital
en gr
ic tion
Ġass osiate
ind irect
sy mfony
Ġbudget s
Ġel icitation
Ġ4 000
Ġvn pt
Ġer icsson
di agnost
hosp ice
esth es
Ġstream ing
adm istrator
cot ton
r ental
w et
z one
Ġt urn
Ġs ung
Ġp ardot
Ġb ms
ig e
Ġres ouc
serv icenow
ng he
Ġhigh er
Ġconf idential
Ġrenew als
ĠG uan
cod ing
Ġsyn th
mant ec
Ġdatab ases
b ench
p ervisor
p qc
x c
z z
Ġ oss
ro ck
ac o
Ġr ates
is ional
Ġcon veyor
min ation
cr iminal
af ka
Ġtp m
Ġeloper s
tra unt
Ġir rigation
read er
Ġagre ement
bul k
at i
Ġk iln
Ġb it
Ġtr ailer
Ġf ort
of i
oc ial
ig er
Ġst eam
Ġgi u
Ġac i
ot y
ot echnical
re habilitation
cr isis
ure au
man ent
Ġsoc cer
eng th
Ġper f
Ġpol itical
urs ement
Ġcol le
ugh t
Ġtw o
Ġnegoti able
read ing
peop lesoft
Ġfeat ure
Ġincl usion
Ġpropos als
Ġexpect ations
Ġchamp ion
m ont
s ellor
er ies
Ġt al
Ġd w
ep er
Ġke o
Ġtechn o
Ġfr anchise
Ġins ulation
Ġo hs
ov en
con duct
ock et
room s
Ġvin pearl
coun sellor
frame work
rece ive
Ġdisc uss
affair s
Ġdiagram s
Ġfu j
d iet
e or
m v
Ġp ast
Ġm fg
ic at
Ġb ul
iv al
ter minal
id ing
Ġpl aza
Ġsh in
ho us
comp ut
sec rectary
Ġcard i
Ġmark erting
Ġfix tures
jun io
ĠW u
b uss
c hanh
c ulation
Ġv tc
Ġman ip
Ġin j
ip l
Ġngh ia
Ġgr and
res ume
lin der
vi ec
Ġmark e
Ġcro p
Ġathlet es
dest ination
c io
e z
Ġp n
ar al
ac id
Ġk ing
Ġtr ee
Ġg an
ad ap
Ġe pa
um en
Ġro of
Ġab ove
Ġcal ibration
high way
Ġeg ineer
b inder
g ner
k cs
l ip
l if
Ġk ubernetes
ter ing
Ġcont in
sal ary
ph i
se afood
Ġcontent s
back up
Ġbd m
ear ing
tool s
Ġcover er
sustain ability
Ġsampl ing
devsys ops
& #
l oud
n o
s it
eb ase
ra ft
Ġfor estry
use um
Ġautom ated
Ġche z
Ġbe er
under writer
Ġra ising
Ġsub mission
land s
load ing
superv iser
Ġparticip ant
prevent ive
Ġderiv atives
rx swift
Ġless ons
Ġd uyen
al yst
it ian
Ġas ian
Ġhop e
Ġnam ed
Ġhand over
Ġset tle
bp o
Ġdecor ative
Ġter ms
Ġjournal ism
sk in
Ġpath ologist
mob ility
mol ding
Ġmanip ulation
d h
f leet
h og
n ication
t al
Ġ old
Ġd ate
Ġp orter
Ġm nc
am azon
ur ence
Ġad idas
istr ative
iz za
Ġcor ps
Ġis p
dr illing
Ġassist ent
employ er
Ġpaint s
Ġdist inguished
Ġprofic iency
Ġipt v
e ast
h iring
t en
ol i
Ġj l
pp et
architect s
per form
ib aba
Ġact ors
sap s
Ġdiscip line
medic aid
Ġfram es
Ġsupev isor
institution al
d ye
i ant
n ic
r ix
Ġm ad
st ream
Ġk afka
Ġr ating
Ġf c
Ġe ai
Ġj d
Ġte a
pl oad
Ġsk ype
Ġchat t
Ġquy nh
Ġmod ification
Ġis v
Ġal exa
Ġengin ering
Ġ200 6
Ġdefine d
Ġns x
Ġphil ipp
Ġathlet ic
Ġassit ance
Ġnum bers
n ent
t bp
u k
u it
y cl
ien d
Ġth is
Ġcon vince
Ġha ul
ens es
tim ber
rel ation
Ġvir al
tour ism
Ġchap ter
rest ful
commission ing
n es
o qc
p n
s qa
it ar
Ġeng neer
Ġsal on
ig ibility
count y
ot ed
istr ar
Ġrel ev
Ġgr ind
Ġpres ervation
Ġviet jet
Ġcoll ateral
Ġus ability
sh ell
Ġbra ke
Ġni ke
rot ary
f ib
f oot
f isher
l oper
Ġ Ċ
Ġs af
Ġp ivot
Ġw ine
Ġoff ering
os ha
os ocial
ite x
com press
sh are
Ġsub station
Ġfun ding
sch e
rev iew
Ġexperiment al
Ġdh cp
Ġten ant
Ġveter ans
Ġmil k
receiv ables
light ing
p otential
Ġd eck
Ġc ul
es k
Ġw i
ot c
pl ating
Ġso ap
Ġres traunt
Ġle ard
Ġy oung
Ġinsp ect
brid al
urs ery
Ġmac ro
eff ective
Ġheadcount s
Ġdevepl oment
h ive
Ġs eat
Ġk anban
Ġn ut
Ġr b
Ġg allery
ers h
Ġdr ess
Ġcouns elling
Ġchan ger
Ġorgan isation
let t
middle ware
inst ein
motor cycle
dan cer
Ġcommod ities
Ġentrepreneur ship
dot net
Ġcompress or
hoan g
recre ation
Ġcis sp
Ġjust ice
g iver
p aid
w heel
Ġd im
Ġd iss
st eward
Ġa ward
Ġsh ar
Ġanalys e
br ush
Ġus da
Ġdi agn
contract ion
Ġopt ics
Ġwr it
sf e
track ing
sof ware
attend ant
tob acco
mand arin
6 00
8 00
h ent
m m
Ġd na
ro f
Ġn estle
Ġin k
Ġw all
Ġas ean
ass isstant
iet y
rec on
Ġdis posal
kh a
go ing
Ġscholar ship
pe er
val idation
shop drawing
Ġenginner ing
dermat ologist
suc cess
g it
h ers
l ow
ar ations
Ġin charge
Ġad option
ull et
iz en
Ġsw im
Ġfield s
bl ood
Ġexp ed
dra ft
video grapher
Ġvin aphone
ink ler
Ġroad map
Ġhaz mat
uch ia
prot ect
appra is
Ġcharter ed
Devel oper
S u
i qc
j ounior
l ast
t ed
v y
Ġk ar
Ġb ev
Ġe instein
uy et
tr eme
Ġpl asma
pro gress
Ġnet app
Ġdep art
Ġo oh
Ġsur faces
Ġtax i
Ġclass ification
Ġsponsor s
Ġlive bank
Ġum ts
Ġdesg iner
Ġmv vm
c ast
d ue
f i
f da
o itte
t ile
en al
Ġs ort
Ġk ent
ag gio
Ġb ct
Ġb inder
Ġh ua
Ġf m
Ġco ater
qu ent
sal ads
Ġvi b
out door
Ġprom ote
erg lass
design ing
cs a
Ġmake up
lear n
rf p
ther apist
fit ting
Ġreserv ations
Ġwee k
Ġrenov ation
Ġann oun
c ue
f ware
t ops
Ġl ook
ag ogy
Ġth ail
as isstant
Ġac ro
Ġrel ocation
co ol
Ġcap ture
sh ops
Ġql cl
Ġsurvey ing
Ġorganiz tion
Ġflow er
Ġlog ical
ri age
dom ain
Ġthail and
s un
Ġt cs
Ġd s
Ġc in
Ġc akephp
Ġp y
Ġm ainten
Ġsal eman
Ġ2 3
Ġo h
Ġtransl ate
kt inf
sel enium
Ġmare ktinf
ĠH ong
Ġadminstr ation
statist ics
Ġintro duce
Ġcer amic
Ġconsum ption
Ġvent ures
g eb
n ance
Ġt chat
Ġp ile
Ġl ob
Ġh acker
Ġf isher
as phalt
ir t
av ionics
pl astics
ql da
Ġ2 8
market place
Ġhuy nh
pos e
Ġdeb ug
car bon
Ġdetail ed
Ġbre ed
Ġfocus ed
nort hern
model er
schedul er
but cher
bab y
r t
t ail
v eneer
in i
Ġc urrency
Ġp al
un cher
as cular
ov ascular
con vers
Ġbu ffer
ban es
Ġus ually
Ġge ophys
vac uum
bi ot
Ġmong o
agr onomist
Ġhist or
Ġcit ibank
dynam ic
intell ectual
negot iation
Ġwir er
remitt ance
t ieu
Ġd ipper
ion ist
Ġb ad
uc k
Ġin coming
ch ildren
oft op
Ġsp ir
pr inter
Ġmak etting
sh ot
sy n
Ġhigh way
Ġdi jango
Ġfact ors
Ġmin or
Ġcount y
Ġwebs ites
Ġengr aver
negot iate
Ġpor sche
Ġorches tration
q trr
s la
Ġc ord
Ġp ot
ro ut
ag ue
Ġb t
Ġb el
Ġr man
Ġf orklift
Ġdu oi
Ġconsult or
igh ter
Ġtrans f
Ġsur ve
out reach
rec ruiment
Ġclin ician
Ġcamp uchia
Ġtru oc
Ġsuppl ied
Ġmot ivation
Ġcook ing
park ing
Ġcompos ite
bre w
Ġaccel eration
Ġfn b
Ġsurve ys
i ev
on ese
or atory
ar ator
Ġth ich
Ġg iong
ed i
cr p
Ġvu i
sal er
Ġfr ance
Ġup dates
Ġge ology
teach ers
Ġmobil ize
Ġdh l
Ġtarget s
instrument ation
Ġpath ology
orid a
g old
z oning
Ġ E
Ġf ert
Ġhan a
ain ing
le bot
Ġpack ard
se eking
Ġo k
Ġbi oin
ge odes
enc ing
ty p
cc n
Ġot hers
new spaper
Ġcol a
dec ision
grad es
story teller
Ġbioin form
l ivestock
w eather
Ġ K
Ġ O
Ġd sm
Ġd hs
or i
el er
Ġa vp
Ġh or
ad d
tern ance
and ora
Ġcomp reh
Ġcoc oa
rec ords
Ġrf i
Ġvin mart
mod ule
Ġload ing
Ġpb x
we i
Ġmu u
cas ual
Ġenhan ce
fund raising
Ġcomput ational
screen writer
switch board
m es
t urn
en as
ro me
Ġb ureau
Ġr ung
ist ent
is c
ch or
end o
Ġteam work
Ġcre am
gro cery
chem ist
Ġpattern s
gy m
Ġser ies
ĠZ hi
Ġpaper work
Ġcogn os
survey or
wr itter
Ġwed ding
ĠX i
candid ate
c ac
e ur
t ig
Ġt ab
Ġt ables
Ġv infast
ro sion
ac na
ag on
om er
Ġw ash
tr eatment
Ġhe aring
Ġsat ff
air plane
Ġgraph ical
Ġro oftop
Ġor g
af er
ov a
fl orist
inter est
Ġprem ise
Ġprov ince
Ġclean ers
Ġz al
Ġmix ing
develop ing
Ġadjust ments
nav al
ipl om
Ġtransf ers
7 00
b oss
c asting
f luent
l ens
w lett
at o
Ġl ak
ro w
Ġa f
Ġh q
ce des
th alm
Ġto ys
Ġhe wlett
eo ut
Ġelectr i
ens er
alu minum
Ġhom eroom
Ġrx java
Ġfund raising
Ġembed ed
motion s
Ġhard lines
Ġunload er
Ġapplic able
ĠB en
Ġconsol idation
exc utive
Ġnex us
Ġmut ual
f ine
h mi
j a
t ao
Ġm ason
Ġsu sp
Ġof ic
Ġex im
Ġle isure
Ġsat ellite
Ġcomp iler
Ġthe oretical
product ivity
lead ing
house keeper
Ġpol itics
Ġdel oitte
dep art
fl ash
Ġsign als
Ġval ley
Ġconcept ual
buil der
book maker
Ġwe ight
Ġkol in
fun eral
comm and
mov ie
k ok
Ġt aker
Ġt actical
Ġc ach
at m
at al
Ġm el
em c
Ġsu it
Ġw lan
yst er
Ġass oc
ot ation
im plant
Ġre ality
ill ery
Ġcoordin ater
Ġback log
sp anish
Ġmer cedes
Ġhead s
Ġcar ol
cor n
Ġdi abetes
shop keeper
Ġrecord er
Ġnav igation
Ġic d
acial ist
vin pearl
ley ball
text iles
Ġpu ppet
Ġaquatic ulture
best os
b ee
d uty
j uridical
j ira
j query
v el
Ġp ic
Ġp neumatic
Ġm n
Ġm as
Ġk id
Ġsu se
ie bel
qu arter
end ar
Ġfr ies
Ġi is
te k
fin ish
cl ay
lin d
Ġal ibaba
webs phere
Ġfries land
r educ
s x
ine ken
Ġeng ag
Ġco t
os a
Ġ3 500
Ġcare giver
Ġbl ower
Ġ20 21
Ġal tern
iat ant
Ġpc i
compl iances
Ġkol s
ĠH ope
Ġpo ultry
Ġ18 00
robot ic
forward er
recre ational
draf ting
meas urement
Ġshin han
geodes y
k ts
et ry
ur a
Ġe eo
ig r
Ġst af
Ġcl b
Ġfor um
Ġeditor s
Ġent ity
Ġlayout s
Ġmult inational
Ġ0 6
Ġvp dd
Ġchair person
dro p
Ġground s
sponsor ship
chair man
Ġblu eprint
Ġnash tech
b ds
v nd
in ng
Ġt or
Ġd ance
Ġh us
Ġr ider
iv oli
Ġgi at
Ġco al
Ġout look
Ġwater fall
Ġcommission er
Ġflu id
oom berg
Ġconc ultant
broadc aster
nuxt js
sim ulation
c itrix
h l
r ip
x in
Ġp unch
em at
is it
Ġch eng
Ġac ute
Ġserv ic
br is
lu ggage
Ġassemb l
contract ing
rel iability
lab our
analyt ic
Ġcur ator
collabor ative
Ġblack board
Ġht ts
Ġconsul ent
Ġext ension
contr ib
Ġinj ury
g un
i able
j oint
in ning
el i
op ter
Ġh ud
Ġg ra
Ġex traction
ir rigation
Ġass s
Ġarchitect ures
Ġins ur
our ces
Ġro ver
Ġind ones
Ġdr ainage
ost at
Ġgovernment al
Ġhome owner
Ġcp u
Ġtechin ical
experiment al
Ġmechand iser
d ial
i us
r ate
r ua
t ape
w ash
Ġ \
Ġd ining
Ġc ip
Ġp ad
ac om
Ġn j
ol ution
au ma
Ġto efl
Ġfinancial s
Ġtyp e
Ġlab els
Ġtho ught
cer amic
Ġengin es
Ġpum per
mag net
Ġvac uum
Ġmal ware
Ġmanagem nent
Ġcorrespond ent
Ġped agogy
disc ip
benef its
l itigation
v fx
Ġp in
it an
Ġh ab
Ġr t
Ġg y
ap ons
Ġho ai
pl ac
Ġweb form
Ġy ii
Ġy arn
Ġinf luence
Ġatt acher
Ġcoc a
Ġca ke
Ġspe acialist
car rier
Ġtext ure
pip eline
Ġom ni
Ġconsul iting
estim ator
13 00
Ġwip ro
diagnost ic
lip se
d p
h au
i ing
n ong
v essel
ar age
Ġg h
Ġch r
od a
re ight
Ġsh ov
Ġsur pervisor
bl u
Ġel astic
sen oir
Ġcompet ency
camp ina
collabor ate
local ization
Ġpass ion
Ġconv ention
forn ation
Ġmock up
assess ment
Ġdiagn osis
rof essional
Ġbioinform atics
Ġfriesland campina
f m
m all
Ġt aking
Ġd d
al er
ic um
Ġan a
Ġw b
ip her
pro ve
sal ad
Ġbo o
af reight
Ġprogramm atic
fin ull
Ġmicro station
Ġtho a
Ġcas ual
Ġmass age
sys admin
Ġhol der
Ġbill s
aer ospace
Ġnas a
Ġengn ieer
Ġkent ico
3 0
h en
p ump
w ine
Ġd ut
al arm
Ġv c
ic ad
ic ator
Ġb sc
op ay
un iversal
Ġe bay
Ġsan itation
Ġconsult and
Ġgro cery
Ġorgan ic
dev erl
Ġrece iver
Ġcat h
Ġafter sales
cap acity
Ġep ic
fab rication
Ġnest js
comput ational
Ġbev arage
b in
f u
h base
l ene
m ax
s hr
Ġp ush
or ate
ac cur
Ġh as
Ġpro gam
as ion
ie e
Ġsp ss
Ġexecutive urgent
Ġpl ating
Ġcl imate
Ġphotograph ic
sc ale
Ġbang kok
Ġval ves
car penter
cass andra
Ġthin k
Ġsew age
ox ley
Ġformer ly
Ġansw er
g ate
Ġc ib
Ġm iller
Ġl ast
ac ion
Ġk ong
Ġn in
Ġh ut
ain ers
form ing
gi oi
con unt
Ġinf ection
Ġsm d
Ġident ification
sn b
statist ic
clean ing
Ġpd f
b ur
b earer
n ec
v ip
in quent
Ġc ultural
ar a
Ġn co
ent ative
Ġb ich
Ġr eb
ch uc
uct ure
Ġj u
mer s
im ax
Ġoff set
Ġfr iend
Ġle at
Ġcomp aign
Ġim ages
Ġop ener
ov o
ex am
Ġis a
Ġper manent
Ġsm acna
Ġfir ebase
Ġpsych osocial
hol e
Ġforeign er
document ary
ĠM arket
Ġtecn ical
Ġenge ener
Ġenge ering
esth etic
sil k
scr ap
Ġd yer
Ġm ounter
ap rofessional
Ġe k
Ġst e
Ġst er
Ġst em
id ay
min ing
ord ers
pr iet
Ġinv erter
ans e
Ġlin ing
Ġap is
Ġus aid
ind le
ins ulation
Ġver ilog
risk s
Ġrad ar
hy per
organ ic
so ap
we ight
hc ns
teleph onist
Ġchall eng
bell man
pan el
bio informatics
bra ke
Ġresouc es
Ġacro bat
g ps
l l
t om
x y
on aut
Ġd eter
ic ious
em nt
Ġmanager r
ad ian
Ġdeveloper urgent
Ġj ag
ho at
ho ur
Ġdo e
sp erson
sol der
Ġplant s
Ġbre aker
Ġir s
Ġ13 00
Ġnation wide
polic ies
Ġdescript ion
Ġrot ational
current ly
Ġdream weaver
Ġprovision ing
Ġjl pt
M arketing
b is
g eo
n osql
p ur
p ad
w ashing
Ġt me
ec ops
ic le
Ġtr y
Ġoff cer
int ro
nam ed
comp uting
Ġexp editor
Ġexp enses
mat lab
Ġguest s
Ġcat alyst
mar itime
amil k
so x
ĠC han
Ġdepos it
Ġrenew al
Ġwh ite
Ġlad der
c au
c utter
h uyen
p in
p yspark
s de
v ent
Ġc ast
al umni
Ġv ill
ic ultural
Ġh ay
Ġw ms
tr eam
int osh
fin acial
ide a
pat h
control s
direct er
Ġid s
Eng ineer
Ġtc kt
cut ting
Ġinfos ys
renew able
Ġans ible
sketch up
Ġhus band
b b
b oi
d og
g h
j ourneyman
Ġt dv
Ġs vp
at omy
Ġm ore
Ġk ms
et ooth
ig ent
Ġw astewater
id es
mer gers
Ġx k
ot fware
Ġdevelop ping
pro sp
Ġstr ength
lin ing
ind oor
tech lead
Ġcent ric
Ġmark ing
headhun ter
Ġ* *
Ġhard line
Ġestablish ment
Ġsar banes
apprais al
accur ate
Ġjag uar
c g
d eck
j ig
s ep
t ask
w astewater
Ġ (
Ġp vc
Ġl au
Ġk it
Ġeng ener
ch ip
ess els
Ġban cas
um l
ill s
Ġsupervisor s
Ġadv erising
Ġsoc iology
Ġtrad es
ex ter
Ġtra inees
Ġus ers
med ication
special ty
pres enter
Ġcommunic ate
inf ra
Ġ0 8
Ġti ki
di amond
Ġland ing
Ġrequest s
superv ising
tran ing
Ġsn r
prot ective
oh ns
scholar ly
M anager
a isor
p ccc
v eg
y arn
Ġ enterpr
Ġc aster
Ġn eu
Ġh iv
ch ing
Ġed m
Ġfl orida
Ġdevs ecops
Ġtan ks
fr anchise
Ġmicro wave
Ġclin ics
ric k
fol ios
Ġmin i
ene ers
micro biology
Ġnav igator
fir efigh
bas el
Ġacount ing
Ġhar vey
Ġtechin ician
tw itter
veg et
s igma
x ml
Ġl os
Ġb uss
it sm
et rics
Ġh en
un tu
Ġf t
ap artment
Ġin to
il ation
Ġsp an
Ġcont ainers
Ġhe ar
Ġaut onomous
per f
Ġmod erator
con c
Ġbas eball
off er
Ġred is
cass urence
Ġing eneer
organ ize
Ġav ionics
photograph ic
Ġapplic ator
cul inary
machin ist
benchmark e
Ġbrows er
0 8
e en
m ud
q p
s ernior
u o
y ear
in fo
Ġs unt
Ġn avy
Ġb ash
op hy
Ġr ush
Ġq m
ip e
Ġj est
Ġnh ot
Ġaccount ability
Ġoff bearer
os ophy
Ġtai lor
pl y
Ġins erter
Ġwork load
Ġtech incal
Ġperson ality
Ġson y
Ġarch icad
travel ing
Ġnegoti ating
Ġbp o
informatic a
Ġalco hol
depart ie
b ob
c ation
l ad
r pa
Ġ elect
Ġc ofounder
Ġp izza
ic ient
ic ycle
el sen
Ġeng eneers
ig ious
Ġex tern
act ional
Ġky c
im istration
Ġrec ep
Ġbr ush
Ġun iversal
Ġsuperv aisor
supp ervisor
special ized
hol ster
Ġreg istrar
bot tle
Ġtem per
gu ard
Ġnav ision
ft ware
Ġgre at
Ġfont end
well ness
Ġdemonstr ator
Ġgar age
main frame
Ġanalist y
hair dresser
communic ator
clear ance
ohns on
a e
c dl
f b
k aizen
k iln
m or
v ert
Ġc el
Ġp ts
ar io
Ġan chor
Ġeng land
Ġin fornation
Ġj ourneyman
gr inder
ain ment
os ure
for estry
Ġhe ater
net ty
Ġla ke
ives tream
sc ada
trans ition
Ġimplement ations
Ġport folios
ĠS he
Ġengin ieer
Ġinnov ative
Ġarch itech
Ġ6 00
Ġvin amilk
Ġtop ica
Ġid p
gre engrocer
script ion
Ġenhan cing
virtual ization
wom an
contin ental
Ġpn j
Ġzal opay
1 00
x code
z il
Ġs vn
ar ial
Ġn op
Ġb w
Ġqu at
Ġw eld
gr adu
Ġre in
Ġaut hent
techn ologist
house hold
Ġdon or
Ġrepair man
Ġtravel ing
Ġbonus es
go al
Ġkn ow
Ġu v
Ġnorth west
cal cul
Ġcompet ition
book keeping
ape utic
wa iting
sl ot
mag az
ĠH i
counsel ing
ther apeutic
Ġcareful ness
table au
buc ket
oty ping
2 5
r er
w in
Ġv iew
Ġn iss
Ġman ul
em ination
am ing
Ġr tl
Ġg ot
Ġf ord
Ġpr im
Ġanalyst e
cr ib
Ġdo ors
Ġab c
hun t
Ġpsych iat
Ġam ount
Ġloc ated
Ġlao s
Ġassist an
Ġlog ging
Ġtop ics
distrib uted
truc king
present ers
comm is
Ġsev ices
draf tsman
Ġcontin ue
Ġsunt ory
h ide
n as
Ġs ir
Ġd xc
Ġc mc
ar c
Ġn t
Ġn ao
Ġb ol
Ġb ui
Ġb ender
Ġg ong
Ġho ur
Ġto ad
Ġhe art
Ġdep end
Ġgr am
Ġcommun ities
ell a
Ġ3 00
Ġ2 6
co il
Ġy ork
ience d
inc are
Ġpharm ac
bo o
comp lex
Ġpa as
ĠS heng
micro service
Ġcv s
Ġsil ver
Ġengen ning
Ġ199 5
cry ptocurrency
Ġtecn ich
wh ite
ĠB u
but ton
expl o
bott om
publish er
Ġdy eing
a es
f is
f itter
h accp
w ok
al ist
Ġb or
et her
et ric
ap s
ur u
ai re
Ġe business
Ġst one
Ġx l
up to
Ġweb service
res e
ell o
Ġim s
Ġresearch ing
pt y
Ġsy mantec
bl og
administr ators
Ġel igibility
Ġrem over
Ġengen ner
Ġvac c
pow der
conv erged
dir etor
Ġinfos ec
Ġtag s
Ġanalis ys
h on
h ub
i mer
i eve
n eed
Ġ ice
at s
Ġth esis
Ġr iv
un e
Ġch rist
Ġw ool
ip hone
Ġoper arations
qu otation
sp ot
Ġretail er
Ġindustrial ization
off icial
cor p
cor por
Ġspe ed
Ġbig c
vp n
sub stance
Ġlo om
rad iology
resp iratory
gm p
Ġsupev ior
sout heast
athlet ic
Ġofic cer
reduc e
Ġengag ements
d ining
t cp
Ġ %
en nier
Ġc fd
ic opter
st em
Ġl ump
Ġb v
Ġpro position
Ġen ig
oper ative
Ġin quir
iem e
ab il
pl aster
str aight
Ġsh aper
Ġrep lenishment
Ġfor mat
roid ery
Ġadvisor s
admin str
let s
Ġhost ed
Ġdeb it
Ġter adata
Ġrf q
Ġfresh ier
Ġmeas ures
fil ter
Ġax on
promotion s
Ġmanagem net
qual itative
Ġfa e
sout hern
Ġia as
Ġsubsid iary
Ġphilipp ines
Ġbct c
deverl oper
Ġmanul ife
d cs
f rom
n ail
s ort
v enture
Ġ ine
Ġt ak
Ġc gv
ec er
Ġb m
Ġa k
ap oteker
Ġsu bpo
Ġof ff
il iary
Ġnh uong
im prov
le gisl
end ant
cr ystal
if rs
Ġva ult
Ġbo ut
ident ity
Ġdr um
ship per
ee er
Ġab b
Ġcan cer
Ġcar p
Ġes b
ver bal
Ġchar ger
Ġbal an
Ġfacilit ation
Ġfarm worker
Ġreceive able
Ġblock er
Ġbrief ing
ĠG ong
sil ver
Ġstraight ener
respons ible
Ġtaiwan ese
Ġbuis iness
ycl ing
rout ine
ĠE N
Ġsubpo enas
c vc
f ont
s qu
v ertical
x i
Ġd k
Ġv ong
Ġn it
am in
Ġan ay
as ive
gr id
av or
ot ives
qu a
Ġaccount ancy
re w
um per
ob d
Ġsh ot
Ġres cue
Ġle af
Ġche if
Ġec o
Ġab ilities
Ġdis count
sol ve
Ġsign age
la unch
coll ect
Ġhosp ice
Ġtop ik
Ġing ineer
advert isement
so at
dec oration
Ġblack berry
bon us
Ġcit izen
Ġdemonstr ations
Ġfed ex
Ġwrit ers
veget able
f mea
h tt
m as
v ision
Ġ enter
Ġt sc
Ġn pp
et aker
Ġf est
Ġex pr
Ġcom un
ust ic
Ġdes igh
qu eting
re fin
Ġcommun nication
com b
Ġy ield
Ġshop s
Ġlam p
Ġ1 10
Ġhand ic
Ġal teration
Ġorder ing
appl iance
Ġposition ing
che if
Ġpan asonic
Ġengeen ier
Ġlubric ant
geb ra
2 9
C huyen
n eg
p ilot
w age
w se
in put
Ġs ex
Ġp mc
ec es
am per
Ġr ights
Ġg al
Ġqu eries
Ġj e
Ġsk us
Ġtrain ning
Ġcr usher
con struct
out put
Ġdis igner
Ġpos ing
Ġsell s
Ġpract icum
Ġsub stitute
Ġic u
buy ing
Ġadd itional
Ġseal er
mob il
medic are
Ġscr ap
ĠAnalist y
orthop edic
stall s
Ġassis ant
fib erglass
p ulp
at ibility
or ient
Ġv m
Ġr au
Ġan ger
Ġq hse
Ġw cf
Ġj ohnson
act ivity
ab ic
Ġit s
co ating
Ġag ility
fin an
Ġtour guide
Ġrepair ing
Ġrail way
Ġchef departie
inv oice
prof ile
hod ont
gu id
Ġic pc
ĠY u
Ġut ilization
tool ing
Ġnegoti ator
Ġexplo it
Ġspl itter
Ġspl unk
**** ****
Ġdead lines
Ġjan itor
vl xd
Ġtch c
hous eman
tal ion
Ġbout ique
c andy
i q
i y
t ow
Ġn w
Ġb oun
Ġa ug
Ġengineer er
ig os
Ġcom unication
ab ling
up date
Ġi o
Ġcor el
Ġstack er
Ġinter continental
sm ith
Ġlab view
Ġhy bris
Ġrem ed
invest ig
ground s
Ġsel ector
so a
copy writing
Ġnutrition ist
prot otype
bor ne
Ġub nd
good s
notar ize
Ġdisput e
Ġminim um
finull cial
' m
a h
d ns
k it
l t
l us
m ess
p est
v est
Ġt ms
Ġp ix
Ġm fc
Ġv ita
Ġn ail
op per
Ġa ka
Ġf illing
Ġf tp
ist ance
Ġsal aries
ess ori
ep ic
Ġthu a
Ġle g
Ġmed ior
Ġbo oth
ian a
ph uong
Ġprofess ion
Ġgu itar
Ġpersonal ization
Ġdiv er
Ġmult it
Ġpar am
Ġengin ere
Ġprov in
Ġform ulation
ri ott
Ġquot es
psych ology
prep aration
ĠEng eneer
Ġsqu are
cart on
Ġmiss ile
Ġsusp icious
Ġshov el
ipher al
b age
p ool
r ich
t ag
Ġs ieng
es cent
Ġn utr
Ġtr ash
Ġth on
Ġth ing
Ġr at
Ġg ov
Ġf ighter
ch ua
ol ine
Ġw allet
pro c
Ġrep eat
Ġins ieme
ans wer
Ġanalyt s
Ġout going
Ġtransl ating
sw e
Ġperson s
pi aggio
video graphy
Ġacc count
Ġclos eout
Ġing eneur
Ġenginner i
Ġread y
Ġpattern maker
cro p
ĠC hang
Ġni elsen
paint ing
Ġjavac ript
Ġrestruct ure
Ġcra f
Ġingen nier
Ġhua wei
c fa
h ull
h ose
j ewel
k in
p le
p neumatic
s ki
en a
Ġs ops
Ġc ordin
Ġp ega
Ġv essels
Ġl unch
Ġe pe
Ġe inng
Ġcon ductor
Ġst amping
ter ra
il y
Ġj ing
Ġho us
re qu
re ase
Ġfr amer
Ġon l
Ġsk y
Ġwork ed
Ġbu ff
Ġvis itor
ix ir
Ġbl oomberg
bl ow
Ġme et
Ġod a
tech incal
Ġexc ut
Ġes c
Ġtechnolog ical
Ġvol leyball
Ġdef ective
Ġter ra
shop per
car pet
Ġlog s
ca e
Ġprosp ecting
ane er
Ġ199 7
Ġappoint ment
Ġlist en
found ry
Ġtun ing
method s
Ġmater nity
Ġexim bank
Ġenig ineer
Ġeinng er
h earing
p ace
t eting
w ildlife
in ical
Ġs qe
Ġd sl
Ġm ile
Ġm dm
Ġv eb
Ġr ice
Ġeng eg
Ġch ia
Ġkh uc
Ġj w
Ġdes iger
Ġpr m
for ecast
Ġanalys ation
Ġsoc iety
ak eting
ret ention
ml a
Ġchan el
Ġcn a
Ġmet allurg
Ġcounselor s
cout ing
Ġengin ier
ver ter
Ġlic ensed
Ġclos er
Ġcal endar
Ġsim ul
uar ance
law n
Ġoption s
cro w
kore a
ox y
Ġresident s
expl os
Ġdesg in
wed ding
Ġshar p
Ġengeg neer
a as
n ie
t ie
u f
en na
Ġv oucher
ic ulture
Ġl ever
ev s
Ġh all
Ġr nd
Ġeng aneer
Ġsu gar
Ġw ildlife
Ġst uff
ount ain
Ġdesign e
pr iority
Ġstr ip
res ort
com bat
Ġgro w
Ġper former
Ġinf o
iss ance
Ġcopy writter
part icip
sw im
Ġengine ener
Ġtutor ing
mon ary
war p
stock er
cb kt
Ġinterpr etor
Ġnc aa
Ġgold en
aqu aculture
Ġscre ens
anc ies
Ġcoord enator
Ġassembl ies
firefigh ter
3 4
P hong
u at
Ġm ex
or m
Ġg ard
Ġph ones
ch uan
Ġe ign
id em
tr as
qu in
th au
Ġlap tops
pl at
olog ies
Ġtrans cription
Ġcs m
cur r
Ġme al
und ai
ct or
he ating
process or
Ġdet ect
Ġpract ical
ne quin
Ġflu ids
print ed
rad i
Ġcompos er
Ġsegment ation
acc ident
Ġsynth esis
Ġbul k
Ġasss istant
Ġeign eeer
N han
c ultural
j an
q m
r is
at su
Ġm ich
Ġm ri
Ġm ds
st h
Ġl cd
et cher
Ġmanag ent
Ġa us
Ġr h
Ġpro p
Ġx ach
Ġprogram ing
Ġpl ater
pr s
Ġconsultant cy
Ġreact or
Ġsy m
Ġmar riott
Ġcy t
Ġshift sup
Ġinstall ations
Ġfound ry
Ġcamer as
fir ewall
Ġmeas uring
Ġguid eline
Ġengen ieer
link edin
psychologist s
ĠF an
ĠIng eneer
Ġadh es
Ġsher iff
ersh ell
Ġengener ing
magaz ine
b ss
f oc
g ui
p v
t actical
u itment
v age
Ġt ng
at ior
Ġm its
Ġv ins
st atic
han k
oper ability
Ġdevel oment
Ġtu m
th ai
for e
end ed
Ġweb logic
Ġle ast
Ġrep ut
Ġend e
Ġback pack
Ġgr c
our er
ident ify
Ġcomputer ization
fl ower
kt ok
Ġu pload
Ġboard ing
cm o
Ġgt gt
dis ability
jun iper
gam ing
Ġsens itive
Ġham mer
Ġbra zil
journal ism
ĠEng ennier
Ġnov ell
Ġmerch ad
Ġbob cat
isit cs
exter ity
Ġgram mar
c ogn
d ish
j ack
m ainten
Ġ og
Ġs ab
Ġm ud
Ġk dt
Ġn d
Ġb gp
Ġh ull
Ġth uyen
Ġph on
om ation
Ġex tra
Ġserv ing
ot o
le ed
Ġfr uit
Ġcr im
Ġap m
out sourcing
out patient
aut odesk
Ġspr inkler
let ter
Ġev idence
Ġ5 000
new scaster
pm p
Ġvin ac
log ical
Ġten nis
bre ak
Ġroll s
Ġconsol e
Ġcement er
Ġrese acher
IN NE
Ġgau ger
c ake
f ord
f ob
f ishing
i ke
p ig
s d
Ġs ip
Ġl um
Ġl ivestock
em ea
Ġr ational
Ġr pa
Ġmanager ial
ch ecker
th read
Ġpl umber
Ġdat as
Ġsan itary
ab road
ob iles
Ġconsult ative
Ġfr agr
Ġsec ur
Ġgr ant
Ġo eration
Ġcontract ed
Ġec lipse
Ġcar ry
inter pr
Ġpat cher
Ġreg ister
pe ony
Ġengin ery
Ġshow case
Ġcat cher
Ġrad ios
sub station
Ġfellow ship
Ġstar ter
Ġsep arator
Ġmov ement
div isional
eal and
lat in
Ġbet a
Ġlingu ist
Ġxer o
Ġpent est
Ġholding s
Ġck editor
Ġcul inary
c ics
c asing
l o
r ussian
Ġt ts
Ġs v
el ite
Ġb am
ev p
Ġan c
as y
us ual
Ġof ser
Ġac o
re er
Ġ3 60
com es
ge ospatial
Ġruby mine
kh ong
Ġhy undai
care ful
Ġshift leader
adv ance
Ġfan uc
Ġti ktok
ne on
Ġqual comm
call center
ĠZ he
Ġengen ier
dry wall
Ġcompress ors
Ġseriv ce
Ġindones ia
Ġcordin eter
T r
d en
d ise
q ms
u duct
v id
Ġp en
Ġm over
Ġl cl
et h
Ġr amp
Ġpro priet
us ability
Ġj i
Ġnh oi
Ġpl aster
Ġat r
Ġat tr
Ġhe ineken
Ġim mun
se gment
Ġbu oi
eg ate
sec ure
can cer
mat hematical
autom ated
Ġprep aring
Ġkn it
Ġdet ector
Ġfit ting
overs ight
hor se
Ġgre ater
elt a
lay er
Ġpt kd
Ġover haul
Ġmess age
Ġdemonstr ation
crypto graphy
rup t
syn th
2 200
A R
b se
d ler
l itho
n euro
p u
r ap
t ower
u es
Ġ ordin
Ġt ops
Ġd ft
Ġm cu
ar ity
Ġl pg
Ġl tl
Ġb sa
um b
Ġit m
ex hib
ax is
ost er
back ground
Ġdis ability
cs o
dr um
prov ider
Ġdraw er
Ġz ealand
ps o
Ġmot ors
buil t
Ġcir cle
Ġhot line
Ġvac ancies
mis a
Ġengeen ir
Ġmus ical
Ġorig ination
controll ing
onaut ical
0 9
3 5
E T
c afe
g ift
j u
n ear
p ill
p andora
in king
Ġt act
Ġc cs
Ġp usher
Ġm k
Ġm ender
Ġh pe
Ġpro s
Ġen ign
ol er
Ġof iser
Ġanal ista
Ġco il
Ġass iatant
Ġx ung
Ġdevelop emnt
re gular
Ġsec ured
ge ophys
Ġlin eman
serv ation
cont ainer
erg ence
Ġunix linux
support ing
play er
san itation
employ ees
so il
Ġoil er
stock s
Ġut ilities
Ġpd ms
Ġrestruct ures
Ġcabin et
spl unk
Ġadminitr ator
R i
e h
k am
m ary
o hs
p ic
r at
w asher
an ite
Ġd id
Ġp ak
ro uting
Ġn iem
it at
it ish
Ġh old
uc e
Ġx box
av ice
co at
se wer
to eic
Ġbu oc
Ġtan ker
off line
Ġmet eor
trans it
irel ine
Ġnat ice
Ġsa ws
Ġ200 9
Ġconf idence
aver a
Ġindependent ly
ĠY e
Ġmess enger
Ġquest ion
clean er
Ġnf pa
Ġang ineer
Ġadd itive
Ġgrad ing
commod ation
benchmark ing
Ġintergr ation
Ġsolder ing
Ġohs as
Ġdress er
Ġnin ja
K ET
d ig
m oodle
n ut
n us
n umerical
p ement
t ic
t ar
er ate
in design
Ġd oss
Ġl vs
Ġk snb
el and
it ives
Ġf all
Ġserv e
Ġoff ecer
re at
re ference
Ġcl ipper
Ġso il
ho u
Ġbi ostat
Ġvietnam obile
ms c
Ġge otechnical
de an
Ġhigh ly
Ġbuy ers
Ġoptim izer
Ġot t
met allurg
Ġtransformation al
ĠM y
hy gien
she ep
je kt
Ġanalis y
IN G
Ġital ian
Ġroof er
Ġfert ilizer
AR KET
ARKET ING
c ctv
c ube
i form
j c
o ke
r ting
Ġl ivestream
et ive
ist ing
Ġeng nier
ap ps
Ġin p
ai le
ort hodont
str act
Ġwork shops
Ġtel em
con dition
her e
Ġcall er
plan ing
Ġengin reer
Ġliqu idation
Ġdv d
Ġtop ic
Ġwe apons
** *
cent r
Ġbut ler
atch ery
Ġengen nier
Ġnati evs
redux js
conn ection
cd ma
dent ist
Ġingenier e
c mc
f illing
k o
m asters
t ub
Ġt fs
Ġs sp
Ġm ro
Ġm csa
es ol
Ġl pn
ro d
Ġb ss
it ng
Ġh ep
Ġh cl
Ġf ax
Ġe banking
Ġe ye
ep ment
Ġmarket in
erv ice
Ġdesign s
end iser
ass ociated
Ġpart ies
Ġim prove
Ġro ugh
se ism
Ġmod ules
con veyor
Ġdr ama
Ġexper iential
Ġout patient
Ġmicro s
supp orter
cy linder
plan er
Ġnort el
Ġpar ad
Ġpar aprofessional
Ġvn express
fac ilit
Ġfun iture
load er
Ġcro wd
travel er
sn ow
Ġmc se
don or
Ġsil icat
prep ress
ama ha
buc k
Ġdead line
mont age
Ġniss an
Ġanay l
a ined
d ance
o tr
p iano
s le
v ung
Ġs ernior
Ġm ine
es ional
ic om
is ed
ap y
ant a
Ġcon verter
Ġly nc
est ate
Ġadmin s
Ġadmin it
pl ug
Ġso oo
Ġvu on
sal eadmin
Ġthe at
Ġus age
Ġcar bon
Ġecom m
keep e
Ġengine ear
bu g
Ġmin eral
coll ar
Ġnav igos
Ġboot camp
assist ent
omet ric
Ġgeo graphy
Ġlogict ics
esthes ia
Ġcarol ina
conc ierge
Ġenign eer
8 6
P ro
g ect
h ort
j enkins
m ut
m ai
t oll
v ending
in arian
Ġt ast
Ġc us
at ld
Ġm arin
am tion
om e
uc ion
Ġw m
Ġac umen
Ġac conunt
pro p
for eman
up sell
up holstery
Ġoffice er
Ġcompl ain
oll o
Ġautom otives
arm s
Ġap s
Ġestim ated
Ġab s
Ġfir er
Ġgu an
ade us
Ġar g
Ġkn itter
iat rics
Ġpar a
Ġinnov ations
Ġvl si
Ġlog ger
ext ension
del iver
Ġexpl oratory
Ġexam ination
psych iatric
Ġauthor ization
Ġrig gers
found ation
Ġblu etooth
Ġadap tation
holster er
Ġauthent ication
Ġboun s
i ar
l ending
Ġ ionic
Ġp itch
Ġm ask
Ġl ms
em otional
Ġa pr
Ġh h
am el
Ġg ay
Ġg uru
Ġin ox
Ġsal s
ark ting
pp ort
av a
Ġdes iner
cr ime
Ġle ave
Ġaccountant s
Ġbr ain
Ġthe u
Ġim c
ak i
Ġal ignment
tech ical
Ġemb oss
pat rol
Ġel ixir
Ġvin as
Ġcal ibr
Ġlif eguard
rad iation
Ġrun s
truct ive
Ġjoin er
Ġbox es
sam pl
Ġneg ineer
Ġcant onese
Ġgh ep
Ġenginere er
5 7
j in
n ior
n ame
p ast
w ifi
Ġp ig
Ġp fc
ec l
ic ate
Ġa mc
Ġh acking
un es
Ġan atomy
Ġg lu
ai x
Ġj p
Ġas a
Ġco d
ort hot
Ġserv i
Ġsh ear
Ġres il
Ġsol e
Ġcomp atibility
Ġbi ologist
Ġlu on
Ġproduc ing
rec over
Ġhand s
Ġpos e
Ġip s
works hop
fo x
Ġlan e
itt en
transl ate
cap a
post doctoral
Ġir b
cour ier
lic ensing
repair er
Ġang eneer
Ġrefin ing
Ġcood enator
Ġinfra st
Ġany list
cardi ac
Ġrese ach
Ġcomb ination
tras ound
m are
ĉ ĉ
in coming
en ieer
Ġp uncher
han ical
el et
Ġn ear
Ġdev loper
Ġr ich
ur t
oc al
as earch
Ġass ur
Ġdu m
for ex
Ġre insurance
Ġarchitect ual
Ġtro m
net core
ov ery
rec overy
Ġsuc h
Ġus af
Ġasp ects
Ġpow ershell
inv o
Ġreg istry
Ġ0 7
Ġmot if
Ġsoft war
psych ological
Ġmain ternance
ĠĠĠĠĠĠĠĠ ĠĠĠĠĠĠĠĠ
exp ansion
Ġadminist ation
Ġrecommend ations
Ġcraf tsman
Ġmex ico
c ant
i aries
r iv
s chem
w ife
Ġt os
Ġc j
Ġc un
Ġc dt
Ġp iano
Ġm az
Ġl iv
Ġk in
op ing
Ġtr auma
Ġg pa
ap ping
ch ao
Ġac cont
Ġdevelop pement
um i
Ġfin ding
Ġle ak
Ġy uan
Ġviet combank
Ġtel ematics
house keep
Ġdel inquent
Ġimport ing
Ġtech inal
Ġcan adian
sc opy
Ġbon nus
Ġse am
mark er
Ġengin near
val ve
be autician
micro services
frig erator
cat alog
Ġfix ture
big data
Ġcurrent ly
sho es
Ġht kk
telemarket er
Ġoffer ings
Ġscre ener
liter acy
Ġprovin ces
c ements
j d
n an
t au
t own
Ġs iebel
Ġc vc
Ġm it
Ġm ort
ec are
ic iency
Ġl iem
Ġl ider
ac er
Ġb ow
it p
Ġa ms
Ġan th
ap ac
Ġin co
ant t
as bestos
tr end
Ġlead el
Ġprogram e
pro bation
pl m
cr ane
hip aa
Ġro d
af ee
Ġbi os
Ġem t
con flict
Ġwin ding
su gar
Ġab a
Ġdis orders
bl ue
sh uttle
dep loy
Ġcar etaker
trans formation
cc na
del i
Ġcit i
ĠEng inner
Ġwatch es
magnet ic
fis cal
Ġine drive
Ġvita e
hygien e
b ang
d ft
f uture
r ib
r ange
s se
t un
u il
Ġ ult
er ie
on er
Ġd ess
or nam
Ġk hang
Ġh l
Ġg all
Ġw ard
min ary
rol ogist
Ġins ulator
ui ux
Ġcomp tele
ish i
Ġcr an
Ġun secured
Ġind ian
ret irement
Ġinf ot
Ġsql ite
sm s
Ġcad d
Ġlen ovo
Ġdef ect
set ting
pol e
nort heast
Ġinterpr eting
Ġhol iday
wel fare
proced ure
Ġsee k
aqu atic
Ġinvo icing
Ġengn iring
Ġplat oon
Ġcreat ivity
Ġaltern ative
plac ement
legisl ative
Ġesc ort
Ġterra form
3 500
b ursement
f iller
m us
r ise
s v
t ant
Ġc and
Ġm ui
Ġv h
ic ide
ac us
el ter
ag o
Ġb uc
it il
Ġh it
Ġin fr
Ġe bank
Ġj nc
av o
tr ailer
Ġdoc k
Ġsc ene
Ġbr itish
Ġop ens
Ġve get
Ġsch ematic
Ġchi et
Ġatt ention
Ġbro wse
cor rection
Ġengine ar
Ġpower plant
Ġorganiz ed
td d
Ġmac intosh
Ġarch it
ĠM ay
Ġing ener
Ġib s
Ġrest api
Ġhol e
Ġover all
ĠEng lish
Ġiron er
Ġdeliver er
Ġscan ning
Ġapartment s
ĠIng enieer
Ġcel eb
improv ement
b icycle
d iversity
g ic
m useum
o gram
t k
Ġ ics
Ġ our
al y
Ġn ursery
Ġb is
Ġch ic
ir m
im aging
arch ivist
le ard
os ph
work flow
Ġfin ace
Ġnet suite
Ġit em
quan lity
ass it
ass oc
Ġfor ces
Ġcr ystal
ex trusion
ret urn
pt ologic
ty pe
program er
Ġpos s
Ġmar queting
Ġspr eader
Ġra iser
eu rope
dis pense
loc omotive
Ġreserv oir
spe aking
Ġadd itives
Ġspl icer
Ġfe et
Ġdisput es
ullet in
thalm ic
Ġexcut ives
G INNE
b ead
d in
t m
v ulnerability
z ing
Ġt ivoli
Ġs ut
Ġd exterity
ec s
ro le
Ġa ux
us cript
Ġco us
Ġban ners
Ġaccount an
le g
Ġre fund
Ġsupp erv
Ġnet weaver
Ġapp ear
ast ro
Ġup grades
arep lus
Ġtender ing
sc an
bp m
Ġprep ress
Ġanalyz er
Ġfound ations
educ ator
Ġmac book
Ġadm imistration
chi u
compl etion
Ġsl ot
do uble
rad ar
Ġtre ater
Ġmap reduce
mak erting
Ġengen ir
mol der
Ġdraft sperson
mix ing
communic atoin
estim ation
Ġneg ociation
Ġmor ning
Ġwhol esales
notar ized
Ġdisp enser
tb yt
binder y
Ġdiss emination
Ġbreed er
biot echnology
Ġhusband ry
Ġmits ub
oler ance
Ġdoss ier
GINNE R
8 8
b et
j ud
r ag
u pl
Ġ ig
en ance
Ġt ob
Ġd p
Ġp interest
Ġm aint
ic ated
Ġn ms
Ġb k
it ro
em ber
Ġth y
am s
Ġf id
Ġf ace
ol v
Ġex chan
Ġj ourney
Ġpr in
im ex
Ġpl sql
Ġrep os
ateg ic
Ġcr it
Ġag end
Ġem otion
ak a
Ġmat hemat
oo ter
cp u
Ġse qu
ger man
Ġown ed
cu u
Ġacc enture
Ġcp q
Ġform ul
Ġcover ing
ĠH e
Ġdig ger
Ġtun nel
Ġxer ox
Ġpersu asion
Ġscen es
Ġmarke int
Ġrelev ant
typ ist
eli minary
Ġsex ual
Ġreput ation
Ġinp ector
b iz
f eat
l oom
m illing
t ab
w atson
Ġ inh
er ik
Ġt cb
Ġt acker
es or
ac ute
Ġb aster
Ġb mw
it o
Ġth or
Ġf mla
Ġcon currently
Ġw imax
Ġas les
Ġass ault
Ġcom er
Ġx uyen
Ġpr ec
Ġdu mp
Ġit unes
Ġsk incare
Ġsoc ket
Ġind ep
Ġsch ematics
ok es
con servation
Ġcoll ator
Ġup grade
br im
br ain
Ġdel phi
Ġcar ver
pat issier
az ier
bro adband
ush ion
Ġshare file
Ġ199 4
Ġ199 6
Ġphil osophy
Ġprepare d
sil icon
lat he
Ġich i
mix er
Ġwal mart
cigar ette
Ġhaul er
Ġdim ension
Ġcompreh ension
Ġrein forcement
ĠEN GINNER
2 2
g ep
l ia
m ate
o ugh
s ky
x ecutive
y oung
Ġd j
Ġp cs
ic d
Ġb urse
Ġh ack
Ġeng ieer
Ġdevel epment
ant ed
Ġco uld
Ġban der
act iv
Ġpr ior
th ao
Ġcl ash
ra iser
ass osiate
se am
Ġappl ica
Ġart illery
inc ing
Ġinter operability
amp oo
Ġprot otyping
Ġdet ective
Ġfil ing
Ġsub sea
Ġinvestig ative
Ġlog isitcs
Ġpip elines
mar ble
Ġgen aral
photos hoot
Ġthem e
Ġtechnic ial
Ġroll ing
Ġdivers e
Ġub untu
Ġol ym
dem o
Ġmarkting s
Ġpop ulation
Ġcreat ively
zz o
Ġboo strap
Ġpsychiat rist
Ġamount s
Ġdk sh
foc us
4 000
d ia
f our
f di
g ed
m ock
r ush
s urance
v ay
w ort
w ax
Ġt og
Ġs eg
Ġd tdd
ec an
Ġl od
Ġa hu
Ġtr eat
Ġh um
un ion
Ġg sa
Ġf ro
Ġf ea
oc key
Ġe a
ter adata
Ġmarketing urgent
Ġas c
Ġco up
tr ieu
act uary
est ics
og en
au x
ud ing
Ġo v
Ġo ven
oll ution
Ġint ake
Ġout fitting
Ġout comes
appl ic
Ġcomm ision
Ġel ements
Ġse als
Ġtelecom unication
Ġhap p
Ġsub scription
electro mechanical
di abetes
Ġsim pl
Ġaid ed
log ging
Ġeu ro
ustral ian
Ġwr itting
Ġcm mi
coc oa
sign ing
Ġsampl er
ser geant
dock er
hist or
ensor flow
Ġdos m
Ġtheat re
Ġanth rop
e i
g ather
h rop
n ish
Ġ icer
Ġs izer
at ial
Ġp est
st on
Ġl ev
Ġn p
un load
Ġpro te
ch a
ad o
Ġw alk
Ġad l
gr ant
Ġx p
Ġplan e
Ġrel ief
Ġfl o
Ġun usual
Ġbi om
to y
ey e
Ġal so
Ġben z
Ġline ar
dra we
Ġloc omotive
doc s
td v
rel ay
Ġimprov ements
Ġmark enting
Ġdh kk
Ġcm ms
Ġil a
statist ician
prep aring
bh xh
ĠR ui
Ġmas an
discip linary
j i
l amp
n estle
r wok
t ung
Ġd iplom
at cher
Ġp ms
Ġm ir
ar is
ar ound
Ġl il
ro ugh
el earning
Ġn m
Ġb op
et r
Ġman nual
em r
Ġdev ision
uc utive
ch art
Ġw arden
Ġst ep
Ġst ill
Ġex porter
Ġsp ect
Ġres eller
and a
Ġadv ise
Ġtap er
Ġcap stone
dat as
Ġcre o
Ġsm es
Ġintegr ators
ef t
Ġstore keeper
under ground
Ġel ite
Ġrem ot
contract ed
du kt
Ġ8 0
Ġafter sale
Ġos pf
ful fillment
Ġmaintain ance
rece ipt
Ġsing le
collabor ators
pb x
Ġwr itter
photograph ers
db ms
Ġover head
Ġplac er
coordin ation
Ġpp ap
Ġlift ing
mol ecular
ĠW en
tec nical
Ġconnection s
Ġpick up
wom en
publ ications
next cloud
Ġadminitr ative
Ġscor es
Ġsubmission s
compress or
Ġkar ofi
Ġweek ly
Ġcord ova
Ġchalleng es
atsu hu
Ġcollator abor
Ġprepared ness
7 0
h m
j ext
p ce
t ension
v uc
v ass
at tractive
ec on
Ġv y
ro c
Ġn oval
Ġh em
Ġph ase
om eter
ach i
Ġex treme
ys ler
ud ct
str ip
js on
Ġtri age
Ġins ector
Ġup holstery
nh ien
Ġmar sh
vc s
Ġcount ries
chu oi
Ġcommission s
unte ers
cat tle
Ġsen oir
Ġbrew ery
solar is
Ġsai es
Ġang el
esth etics
Ġcharacter ization
mechatr onic
respons ive
cardi ovascular
Ġadh d
c areplus
j o
l im
p ile
p allet
s dlc
v il
er a
in tranet
en viroment
on a
Ġd isk
al at
ar ry
ag ed
Ġb le
it ual
Ġh pc
Ġr is
Ġf cc
Ġph lebot
oc ycle
ch ron
ant age
Ġcon str
Ġmarket ign
Ġco uch
od y
Ġsp ac
Ġlead s
ab out
Ġtro ubles
ql rr
man n
Ġadv ising
se afreight
Ġmer keting
Ġap ollo
su it
tion s
vir al
lin en
Ġreal ization
eas ibility
Ġhy att
Ġam adeus
Ġexecut e
Ġhome work
bu ff
bi ochem
vis io
Ġretouch ing
gl ue
Ġmark iting
mf g
pharm a
cert ification
Ġdecision s
Ġmess ages
Ġsens ing
ĠJ ian
super market
bh tn
thre at
cloth ing
Ġathlet e
concept ual
troubleshoot ing
flex ible
recruit ers
Ġmechand ise
dent istry
imb ursement
Ġek g
gradu ated
Ġmitsub ishi
0 12
b aker
d x
m ort
w i
w ich
Ã §
Ġc co
ev en
Ġtr ao
Ġh al
Ġch t
Ġe fl
ig an
Ġj ee
Ġad dress
Ġcom ments
Ġcons ignment
um n
age gic
ra el
man power
air lines
Ġed u
Ġmod eller
Ġab acus
Ġdel i
network s
Ġal gebra
sc rew
mat ic
Ġbon d
Ġmin ded
Ġmin ister
Ġfloor ing
gu arant
ĠM aketing
Ġflu ency
inst agram
cent re
Ġvac ancy
rail way
Ġbab ys
prom ote
bit ration
tec n
appra ise
Ġadminist ator
engr aver
Ġoh io
Ġcrim es
rupt cy
c ion
f use
g ang
j akarta
m ice
o use
s ens
s ix
s hank
Ġ ell
Ġs otfware
Ġp cr
Ġv iem
Ġv tv
Ġv ouch
ac ademy
it el
it as
em on
Ġa ies
Ġg od
Ġf te
Ġch rome
Ġin trusion
ant hrop
as per
Ġst ap
Ġex cl
id ency
Ġx o
Ġdesign ier
Ġsh ou
Ġtechnical s
ub a
Ġhr ms
Ġem ission
Ġhead er
Ġexport ing
eg g
Ġmicro controller
Ġexp and
ick en
Ġads l
ins ights
Ġcomm itter
Ġswitch es
Ġsection s
Ġtherap e
Ġaccess ory
Ġcompet ence
gl ove
mo uld
sub stitute
Ġep idem
stand ard
ĠZ heng
pet ty
Ġsof eware
Ġdt x
Ġped iatric
pastry cook
Ġgun s
optim ize
Ġdut ies
Ġenterpr ises
Ġlil ama
Ġvouch ers
f ort
g ent
p ac
s yst
s dn
s ails
w afer
Ġm asters
Ġa aa
Ġdev e
Ġr ack
Ġr ide
un c
Ġeng l
Ġw et
Ġw oker
Ġex ucutive
Ġj ot
Ġx em
tr ess
act ory
Ġthi ep
le af
Ġngh ep
Ġso w
Ġle x
Ġgr ain
res idence
Ġim ag
se e
Ġhead quarter
Ġsw at
br ead
Ġware houseman
Ġdis charge
Ġregul ator
bl ast
ng hanh
sh ield
Ġvol unteers
Ġsa els
Ġrad iation
Ġcrew man
Ġnan o
ht ts
organiz ing
dist ance
Ġquick ly
Ġdig ial
Ġsla es
Ġcabin ets
detail ed
Ġmaxim um
Ġsist em
c ipt
g em
g sm
h d
s us
w ot
Ġt olerance
Ġs ad
Ġs ail
Ġd uct
ien c
Ġb n
it i
it su
et ary
Ġh ort
ig ade
ol ve
Ġmarket iing
Ġw iring
Ġst amper
ate x
Ġass uarance
tr ial
Ġte en
ph ical
Ġpack ager
Ġcap t
ex hibition
cl ose
tel epresence
Ġlin en
Ġcs g
Ġnew brand
Ġord nance
Ġair ways
Ġmak teting
Ġprom oted
Ġdi amond
prov ision
Ġter r
Ġfund raiser
hy dr
abl ie
Ġexpl oration
Ġexam s
Ġcompos ition
Ġfarm ing
char ter
Ġarm s
Ġpt sp
Ġsof wares
Ġstartup s
Ġtes ing
prot ection
gen aral
Ġexect u
Ġeth ical
Ġach itect
Ġsav ills
convers ion
Ġhear ings
refin ery
okes person
6 9
f p
g ht
m ig
p unch
s op
Ġt k
Ġs ig
Ġs aff
Ġc g
Ġc elta
Ġm useum
Ġb er
ev ious
Ġtr ue
Ġg lob
Ġf at
Ġch ai
Ġin str
Ġqu arter
ol ta
Ġw intel
uct or
Ġac commodation
Ġdevelopment al
istr ies
Ġcl im
cr uise
Ġhe ating
ill ary
ill ustr
ph e
Ġro und
ex cell
Ġresour se
Ġper ipheral
ib ution
Ġus ed
Ġal pha
Ġlect ra
Ġelectric ity
Ġes d
inter face
Ġet cher
ins ight
Ġall ow
Ġprov ide
Ġexec u
ca ho
Ġdevele opment
Ġfoc al
reg istration
class ification
alog ic
Ġimp air
Ġpark ing
Ġmart in
spe ak
Ġapply ing
ron os
veter ans
dispat ch
optim ization
prod ution
Ġexped ite
Ġhistor ical
Ġhab itat
Ġdesigh ner
jan itor
Ġdum per
Ġtob acco
3 1
f elt
h w
l ime
r ice
r and
s det
y a
in et
in sole
Ġs ave
Ġd l
Ġd rop
ac cs
Ġk en
it les
Ġr ight
Ġg ender
Ġg iving
Ġg prs
om ist
Ġdevel ment
Ġsal se
Ġw ax
Ġst a
ical ist
Ġsales e
work place
pl us
ho op
ass y
Ġend ors
Ġfl c
Ġem pty
Ġsch eme
Ġautom obiles
Ġequ iv
Ġlear ner
Ġinc rease
bo om
sr p
Ġge ospatial
Ġcy bers
bu is
loy alty
ĠS hu
frig er
Ġcir culation
Ġsel es
Ġcp o
ĠĠĠĠ Ġ
Ġinit ial
Ġmotor ola
Ġid c
Ġagr ibank
Ġss ils
fish monger
Ġcalcul ator
skill ed
Ġgp on
Ġsher aton
engr aving
max im
bob bin
Ġtemper ature
Ġprim avera
Ġinquir ies
Ġtsc d
Ġcran es
3 60
c is
g allery
h ibernate
m ason
p ent
p op
r amp
s ous
t uong
v ide
w right
y l
Ġ ont
Ġm ARKETING
Ġg uy
Ġf ti
om ance
Ġmarket iong
il a
est op
Ġsp inner
Ġtu i
ab r
Ġat s
Ġbo om
res ult
Ġed ger
Ġro aster
ogist ics
Ġgo ing
Ġglobal ization
iss ary
off set
Ġbl ade
Ġbl asting
Ġscrum master
Ġbro ad
soft war
Ġam p
Ġtim elines
Ġnot ebook
iqu ette
sour cer
be ing
Ġacc couting
Ġmark rting
Ġsys ops
bat talion
Ġform work
na issance
ĠH ai
dan ang
prot ocol
draul ics
wel come
wr apper
Ġaeon mall
ĠT he
Ġpur ifier
ven ile
proof ing
contr uction
Ġmerch endiser
Ġexerc ise
bow ling
vel ope
Ġtor ch
Ġtrainees hip
Ġhep desk
Ġult imate
europe an
Ġnoval and
f y
h ing
i el
r am
Ġd ro
Ġc ater
at l
at y
ic ts
han nel
Ġn em
ent ity
it l
iv ir
ep c
Ġmarket ability
Ġw illing
Ġex ective
Ġac e
Ġx r
pro active
itor s
Ġdo ing
Ġind ex
sp ir
sp eed
Ġrepresent ive
Ġup holsterer
Ġatt t
br ass
Ġhealth y
web gl
Ġimport s
Ġinternational business
sec ret
Ġsuccess ion
Ġbon o
Ġbook er
trans former
dr iving
Ġcent os
Ġsub division
Ġdoctor al
cal o
Ġadm ix
Ġlight room
Ġvir us
broker age
travel ers
Ġsoft eware
Ġaqu atics
char acter
cir culation
commission ed
Ġtn cn
Ġproof read
petro chemical
def ine
lot us
Ġvalu er
liter ature
Ġmainten ace
blu eprint
uil der
Ġhit achi
Ġsow ftware
wot k
Ġequiv alent
D ev
a ustralian
d iser
f ellow
f ailure
l ake
n x
o yster
q hse
r ural
er o
in struction
Ġd ic
es aler
el e
el ing
Ġb gd
it arian
Ġf soft
Ġph ac
oc opy
ad ing
ig m
ig ure
ol escent
erv iew
Ġho oker
Ġx au
min eral
ab ank
Ġcustom ization
Ġhe el
Ġdata stage
Ġbr usher
Ġadv antage
se at
Ġun employment
Ġest ale
Ġinter faces
br ight
Ġbe g
Ġbe am
aut onomous
Ġout let
ded icated
Ġinternet working
comp ose
Ġmet als
Ġbon ding
inter action
Ġads ense
ling u
cout ant
Ġms n
pi ece
Ġresp iratory
micro wave
Ġcook er
open ing
gs bh
sl ip
ĠJ O
astics earch
Ġtecn ician
Ġbroadcast s
ĠI n
Ġproof reader
hydro electric
Ġwee ker
compos ite
publ ication
Ġpul se
Ġturn over
Ġrelev ance
ĠMarket in
intro duce
ornam ental
3 2
4 5
d sp
e astern
i as
l ak
p ull
v eb
Ġ N
on cology
Ġc ps
al co
Ġp sm
Ġm q
Ġm ic
ar f
ch itect
Ġcon formance
Ġmarket ig
Ġw af
Ġkh kt
ul pt
ach ute
Ġex it
Ġj ose
tr asonic
Ġtechn ol
ang ement
pr edictive
Ġsh b
Ġto wn
Ġdigital marketing
Ġfor ester
res ources
co in
co op
Ġop enc
Ġpack s
Ġag il
Ġo x
Ġis rael
Ġmerchand ier
fin ace
Ġap ex
ee k
Ġbe ach
web logic
rec ycling
Ġhel icopter
Ġemb roidery
Ġob iee
Ġorder ly
Ġcam bridge
retail s
Ġsuppl ement
Ġcust umer
Ġ9 00
san itary
ne ider
tv gs
Ġdistributor s
Ġsemiconductor s
ĠP in
gre ens
bus in
Ġol ap
Ġgs d
osc ience
sing le
Ġscre w
Ġdf mea
Ġpersu ade
Ġplug in
Ġspot ter
prosp ective
Ġpharmac ology
need le
Ġnit eco
Ġpix el
Ġmich igan
tun nel
Ġaies ec
8 4
f orklift
j oin
l ator
m os
t enant
v ba
w inder
x nk
Ġt ma
Ġs end
Ġs izing
Ġc ateg
Ġc pi
el f
Ġb lind
Ġman nequin
Ġh dt
Ġg ive
Ġf so
Ġq i
is p
Ġsal ing
Ġex hib
Ġdevelop pment
qu ote
Ġfin der
Ġvu ot
com ed
Ġop h
Ġcu on
Ġkhu an
ib co
Ġsy tem
Ġinsp ir
Ġserver less
Ġout ward
Ġmat rix
Ġemb assy
cor rosion
Ġpm i
Ġsign ature
Ġ4 00
cook ing
Ġfil er
Ġmong obd
mach ining
Ġchar ges
Ġmark ening
ĠM arkting
Ġsing er
Ġrout es
Ġenginer r
Ġrefin isher
wait stress
Ġne ural
buc ks
Ġbiz fly
Ġsquad ron
Ġscor ecard
Ġdiscuss ions
Ġgra f
Ġfest ival
Ġsimul ink
orthodont ic
Ġseg ments
3 6
b m
b ull
l ace
s ail
s ense
t ent
t aff
t esol
v ault
Ġs b
Ġc raw
Ġc andy
al d
Ġv ms
st ake
Ġl v
ent ional
Ġh es
Ġh atchery
am bul
Ġr ent
Ġf ib
Ġf pso
om o
ed ential
Ġquan lity
Ġac id
Ġfin ished
Ġto w
Ġat g
Ġon estop
ition s
ge otechnical
ex treme
hr ead
Ġsy ner
ool er
Ġar abic
Ġar bitration
emarket ing
dr edge
Ġsmart home
fer encing
Ġpg s
invest igation
Ġcard iology
ver izon
cal ibration
Ġz hu
lab s
Ġmot her
exper iential
Ġdb s
Ġmethod ologies
Ġiv r
ri ers
Ġcd w
Ġsens ors
Ġphil ips
cust odial
tele graph
Ġshel f
Ġpi ece
lat am
Ġmaxim ize
spec ification
Ġwo uld
Ġld ap
ten nis
Ġchr ysler
Ġpassion ate
Ġtact ics
ivir us
7 9
8 7
b asketball
j ust
m ater
n ursery
w or
z y
Ġs is
Ġc res
Ġl ux
ev ice
Ġh k
Ġr iver
Ġg c
Ġf ha
ap ery
Ġin tr
Ġe pm
Ġw iz
Ġst ations
Ġgi fts
ach t
Ġmarketing s
Ġj ockey
Ġas o
mer ch
ust ion
im ulation
re insurance
Ġanalys ing
Ġstr inger
Ġskill ed
res olve
Ġli ke
ual a
Ġop p
Ġcor rectional
Ġcloud y
Ġmer chan
out s
Ġmat cher
Ġsf dc
sc ap
tech inical
fl icts
Ġsit ter
manufact ory
Ġillustr ations
pm b
met rics
Ġtick eter
phys iology
itr ator
Ġmart s
Ġapplic ants
aer onautical
Ġbra k
intell igent
Ġhar ness
Ġscr aper
mix ed
Ġlock er
gener ator
steward ess
Ġservic ed
Ġpts c
L y
c and
d ell
g ill
p icture
r iver
s is
v a
Ġc ult
at in
Ġl t
Ġl aster
ro ving
Ġa way
Ġch urch
Ġst an
Ġad f
Ġban ca
Ġx n
qu il
Ġcl amp
up s
sal on
eo us
Ġon lin
Ġadv isement
Ġcor rosion
Ġjavas cipt
ge ological
arm or
Ġenvironment s
sh irt
Ġev er
part time
Ġge ological
Ġsit ed
Ġphys icist
Ġsuppl iers
Ġson ar
Ġfun eral
tax tation
compl ete
Ġgm ail
Ġlo u
Ġnan ny
Ġgre et
superv ior
Ġwr itten
Ġhon or
Ġevangel ism
Ġmanagem ant
sem i
farm worker
Ġgar a
scholar ship
Ġsav ings
Ġcustod y
Ġbrows ing
ĠK e
Ġtab let
Ġvacc ine
orient ation
Ġsut atsuhu
Ġsimpl ification
Ġexcl usive
Ġbeg inner
b ai
b ms
f ro
n ce
n ang
t ip
u ro
x p
Ġs vice
at ios
Ġp and
Ġp aste
Ġn ag
Ġn urses
Ġa pl
Ġth ie
Ġpro ctor
Ġpro sth
Ġf if
ad ded
Ġsal les
ort ium
Ġserv ise
Ġdu al
Ġle ague
port ation
Ġinv olv
Ġfl ag
ph il
Ġreact ive
Ġtruc ker
ew riter
Ġpay ables
Ġap qp
Ġattend ent
Ġtax es
Ġemploy ers
Ġlevel er
Ġexp editing
Ġant enna
Ġwith in
Ġmid wife
Ġinstall ment
prov ide
Ġbig bike
export ing
development al
document s
bro ch
itt ed
Ġorient ations
Ġsum mit
Ġsum mary
Ġdom ino
cat ia
Ġbehavior s
Ġaid es
ocol ate
tem p
dry ing
cust umer
Ġdevol oping
compet ency
pers u
Ġcoast al
pass ion
Ġadap t
Ġaccel erator
Ġnor ms
other mal
Ġque ue
Ġcolle ges
Ġcardi ovascular
sla es
ether net
Ġhandic raft
swim ming
Ġlum ion
Ġbrain stor
Ġbk av
gather ing
hm tl
Ġimpair ed
c af
d ump
e arth
g ement
g arden
h um
l od
m am
r ive
u pper
v r
w ip
w eld
Ġ Q
Ġ ur
Ġc iso
al mer
Ġp tn
ro uter
Ġa w
ect ious
ur day
of acial
ch r
as ian
ul f
Ġac a
Ġco vid
Ġserv es
tr e
Ġnh s
Ġnh in
Ġtu bing
re hab
rol og
rol ley
Ġsh r
Ġsh ooter
ub rication
Ġgr inding
Ġbe fore
Ġmicro scopy
rep lenishment
Ġhigh lands
ns x
anal ys
train ning
Ġbar rel
Ġmult ic
Ġnv vp
Ġmonth ly
Ġdef ects
Ġspec alist
Ġmark ating
post office
Ġfish ing
Ġliter ate
Ġhd bank
ĠH ui
hib a
Ġperform ing
Ġfoot age
Ġincub ator
Ġce h
cop orate
expat r
Ġobserv ation
Ġbit bucket
Ġriv eter
Ġexpr ienced
metallurg ical
guarant ee
3 3
d ust
f lu
m iss
s head
Ġt ell
Ġs les
Ġd ip
Ġc ans
Ġc urer
al tern
Ġp ain
Ġm sp
ing en
ing le
et ist
Ġh plc
Ġr i
un secured
Ġf ill
is st
om a
oc om
ad option
ul can
Ġst u
Ġj caho
ech er
im en
Ġadmin n
th ing
th eft
Ġto ky
Ġi q
port al
Ġsk i
electr on
Ġelectr on
der rick
Ġcommer ical
Ġtrans actional
techn ial
ge ology
Ġmer ger
Ġseo er
Ġcs a
Ġfood service
Ġpost ing
Ġcan vas
eg ation
Ġinternational ization
Ġme an
Ġmar tering
Ġproced ural
ric ular
Ġmag net
Ġip o
consultant s
Ġnv l
inf antry
cal ender
Ġmot iv
Ġrad i
bat ical
Ġoc curr
cap ability
Ġconn ector
Ġmc afee
Ġlot ter
ĠC h
Ġstar s
fun ction
sf dc
Ġtur ning
Ġconv ergence
implement ing
Ġphil ip
Ġach ieve
khu on
Ġgather er
imb edded
Ġjet ty
Ġscen ario
Ġtal eo
Ġcardi ac
hog shead
bee f
contrib uting
Ġvill as
Ġbancas urance
Ġdepend ency
Ġlump ur
rich ment
Ġhous es
cogn os
Ġbam boo
mare kting
9 000
J i
S hi
S heng
c age
f ence
h al
l uc
p ension
s ke
Ġs g
Ġm uong
Ġm pm
Ġl cb
Ġb itex
op ilot
Ġa ust
Ġa str
Ġr ico
Ġg po
Ġsal le
Ġj v
ir es
act ic
ud a
Ġre hab
Ġsupp urt
Ġfor w
Ġadv enture
ph lebot
Ġ2 200
Ġli abilities
ov olta
Ġsch neider
Ġmon ster
fin isher
fr ond
Ġinf antry
Ġpol ish
Ġjs a
Ġsw iss
Ġdis bursement
eg y
sh ort
dep os
ict ures
can vas
Ġstat ic
part ime
Ġhigh land
Ġscal er
Ġpower train
Ġkn ock
dr ink
dr apery
Ġperson el
Ġbay er
Ġtelecom s
Ġaccess ibility
Ġpc ba
met eor
Ġsuper ior
Ġprofit ability
cup ola
Ġpark son
kn itting
cry ptologic
vs ip
map ping
Ġproc ces
Ġiron worker
Ġvertical s
Ġlegisl ative
Ġfram gia
lock stitch
attend ance
mr p
Ġwal ker
compos ition
Ġexerc ises
clos ing
Ġpal ace
mess aging
terra zzo
Ġmerchad iser
Ġaccont ant
Ġdess igner
Ġthy et
Ġoccurr ences
Ġbitex co
c x
g gest
o it
s end
t vc
u ge
u els
Ġ )
Ġd ss
at us
Ġm w
es hip
ic itor
Ġb sw
Ġb iller
et c
et ician
is ers
Ġch ev
of uels
ep ret
Ġw ales
us age
Ġac adem
min d
od iesel
ab bit
re in
Ġfr an
Ġapp ort
Ġcontrol ing
ass ignment
ution s
Ġend ing
Ġag ri
ex erc
Ġdocument ations
Ġvis iting
Ġtyp ing
Ġeduc ate
Ġartist s
emb oss
Ġdis gner
bl ade
med iat
Ġod m
fl oral
Ġtrac er
Ġet hic
Ġkn ife
Ġu pper
Ġunder stand
invest igator
Ġmob lie
ver ilog
react native
pay ments
met ers
cat h
Ġcrew member
sub sea
Ġnext js
