{"<s>":0,"<pad>":1,"</s>":2,"<unk>":3,"<mask>":4,"!":5,"\"":6,"#":7,"$":8,"%":9,"&":10,"'":11,"(":12,")":13,"*":14,"+":15,",":16,"-":17,".":18,"/":19,"0":20,"1":21,"2":22,"3":23,"4":24,"5":25,"6":26,"7":27,"8":28,"9":29,":":30,";":31,"<":32,"=":33,">":34,"?":35,"@":36,"A":37,"B":38,"C":39,"D":40,"E":41,"F":42,"G":43,"H":44,"I":45,"J":46,"K":47,"L":48,"M":49,"N":50,"O":51,"P":52,"Q":53,"R":54,"S":55,"T":56,"U":57,"V":58,"W":59,"X":60,"Y":61,"Z":62,"[":63,"\\":64,"]":65,"^":66,"_":67,"`":68,"a":69,"b":70,"c":71,"d":72,"e":73,"f":74,"g":75,"h":76,"i":77,"j":78,"k":79,"l":80,"m":81,"n":82,"o":83,"p":84,"q":85,"r":86,"s":87,"t":88,"u":89,"v":90,"w":91,"x":92,"y":93,"z":94,"{":95,"|":96,"}":97,"~":98,"¡":99,"¢":100,"£":101,"¤":102,"¥":103,"¦":104,"§":105,"¨":106,"©":107,"ª":108,"«":109,"¬":110,"®":111,"¯":112,"°":113,"±":114,"²":115,"³":116,"´":117,"µ":118,"¶":119,"·":120,"¸":121,"¹":122,"º":123,"»":124,"¼":125,"½":126,"¾":127,"¿":128,"À":129,"Á":130,"Â":131,"Ã":132,"Ä":133,"Å":134,"Æ":135,"Ç":136,"È":137,"É":138,"Ê":139,"Ë":140,"Ì":141,"Í":142,"Î":143,"Ï":144,"Ð":145,"Ñ":146,"Ò":147,"Ó":148,"Ô":149,"Õ":150,"Ö":151,"×":152,"Ø":153,"Ù":154,"Ú":155,"Û":156,"Ü":157,"Ý":158,"Þ":159,"ß":160,"à":161,"á":162,"â":163,"ã":164,"ä":165,"å":166,"æ":167,"ç":168,"è":169,"é":170,"ê":171,"ë":172,"ì":173,"í":174,"î":175,"ï":176,"ð":177,"ñ":178,"ò":179,"ó":180,"ô":181,"õ":182,"ö":183,"÷":184,"ø":185,"ù":186,"ú":187,"û":188,"ü":189,"ý":190,"þ":191,"ÿ":192,"Ā":193,"ā":194,"Ă":195,"ă":196,"Ą":197,"ą":198,"Ć":199,"ć":200,"Ĉ":201,"ĉ":202,"Ċ":203,"ċ":204,"Č":205,"č":206,"Ď":207,"ď":208,"Đ":209,"đ":210,"Ē":211,"ē":212,"Ĕ":213,"ĕ":214,"Ė":215,"ė":216,"Ę":217,"ę":218,"Ě":219,"ě":220,"Ĝ":221,"ĝ":222,"Ğ":223,"ğ":224,"Ġ":225,"ġ":226,"Ģ":227,"ģ":228,"Ĥ":229,"ĥ":230,"Ħ":231,"ħ":232,"Ĩ":233,"ĩ":234,"Ī":235,"ī":236,"Ĭ":237,"ĭ":238,"Į":239,"į":240,"İ":241,"ı":242,"Ĳ":243,"ĳ":244,"Ĵ":245,"ĵ":246,"Ķ":247,"ķ":248,"ĸ":249,"Ĺ":250,"ĺ":251,"Ļ":252,"ļ":253,"Ľ":254,"ľ":255,"Ŀ":256,"ŀ":257,"Ł":258,"ł":259,"Ń":260,"an":261,"er":262,"in":263,"en":264,"Ġt":265,"Ġs":266,"on":267,"Ġd":268,"Ġc":269,"at":270,"al":271,"Ġp":272,"Ġm":273,"or":274,"es":275,"ec":276,"Ġv":277,"ic":278,"ar":279,"st":280,"ien":281,"Ġl":282,"ing":283,"han":284,"ro":285,"ion":286,"ac":287,"Ġk":288,"el":289,"Ġn":290,"ent":291,"ag":292,"Ġb":293,"it":294,"op":295,"ong":296,"et":297,"Ġman":298,"ev":299,"Ġmanag":300,"em":301,"Ġa":302,"Ġtr":303,"Ġh":304,"Ġth":305,"Ġvien":306,"am":307,"Ġdev":308,"Ġr":309,"un":310,"ation":311,"Ġan":312,"Ġpro":313,"ect":314,"ine":315,"inh":316,"Ġen":317,"Ġg":318,"Ġmanager":319,"Ġf":320,"Ġph":321,"oper":322,"Ġq":323,"ist":324,"is":325,"om":326,"uc":327,"Ġeng":328,"Ġch":329,"Ġdevel":330,"ap":331,"ur":332,"ineer":333,"ut":334,"of":335,"Ġin":336,"Ġengineer":337,"oc":338,"ch":339,"iv":340,"oan":341,"ad":342,"ai":343,"Ġhan":344,"ant":345,"Ġqu":346,"ce":347,"Ġsu":348,"Ġsal":349,"Ġe":350,"ark":351,"Ġcon":352,"ment":353,"ess":354,"ig":355,"arket":356,"uong":357,"Ġdeveloper":358,"ep":359,"ol":360,"ive":361,"ior":362,"as":363,"Ġmarket":364,"Ġw":365,"ao":366,"erv":367,"Ġkh":368,"ul":369,"uct":370,"Ġly":371,"Ġst":372,"Ġgi":373,"uy":374,"Ġnhan":375,"ement":376,"ter":377,"us":378,"are":379,"ial":380,"enior":381,"ach":382,"yst":383,"Ġhang":384,"Ġof":385,"ical":386,"il":387,"oun":388,"ed":389,"Ġquan":390,"uyen":391,"Ġthu":392,"Ġmarketing":393,"Ġex":394,"ip":395,"Ġj":396,"ech":397,"Ġad":398,"Ġand":399,"ead":400,"ject":401,"ance":402,"gr":403,"ie":404,"ir":405,"Ġsales":406,"ung":407,"Ġas":408,"Ġac":409,"ator":410,"Ġanal":411,"Ġco":412,"Ġmanagement":413,"Ġng":414,"ice":415,"Ġdoan":416,"ity":417,"nhan":418,"ware":419,"ate":420,"echn":421,"Ġho":422,"Ġdoanh":423,"ay":424,"id":425,"Ġass":426,"Ġke":427,"duct":428,"oft":429,"Ġban":430,"Ġcom":431,"pp":432,"oi":433,"mer":434,"ack":435,"ust":436,"ount":437,"ort":438,"Ġproject":439,"Ġx":440,"iness":441,"senior":442,"av":443,"usiness":444,"count":445,"min":446,"Ġkinh":447,"Ġ&":448,"Ġserv":449,"oftware":450,"tr":451,"od":452,"ign":453,"Ġtoan":454,"act":455,"Ġvan":456,"Ġtechn":457,"Ġtrinh":458,"ecut":459,"ff":460,"ot":461,"Ġdes":462,"Ġpr":463,"Ġoper":464,"art":465,"est":466,"Ġdevelop":467,"ieu":468,"gram":469,"ecutive":470,"ations":471,"Ġky":472,"Ġnh":473,"Ġdu":474,"Ġphong":475,"im":476,"iem":477,"qu":478,"ector":479,"Ġadmin":480,"og":481,"Ġaccount":482,"arch":483,"Ġsp":484,"ystem":485,"Ġproduct":486,"Ġlead":487,"istant":488,"ult":489,"Ġdevelopment":490,"Ġexecutive":491,"Ġdesign":492,"Ġthi":493,"Ġcons":494,"Ġprogram":495,"Ġoff":496,"Ġte":497,"Ġbusiness":498,"Ġtu":499,"Ġsoftware":500,"au":501,"Ġcong":502,"ork":503,"irector":504,"th":505,"ustom":506,"ain":507,"Ġlap":508,"ich":509,"ord":510,"Ġpl":511,"Ġdat":512,"Ġsan":513,"Ġsystem":514,"ab":515,"ers":516,"le":517,"re":518,"Ġdoc":519,"Ġtruong":520,"tern":521,"um":522,"Ġthuat":523,"ob":524,"pro":525,"eb":526,"Ġsale":527,"Ġcont":528,"Ġdung":529,"Ġjav":530,"Ġgiam":531,"Ġconsult":532,"os":533,"for":534,"Ġassistant":535,"istr":536,"ys":537,"Ġanalyst":538,"end":539,"ud":540,"ecial":541,"aff":542,"Ġcl":543,"Ġhanh":544,"Ġtai":545,"Ġcustom":546,"Ġre":547,"Ġngh":548,"Ġchinh":549,"Ġphan":550,"isor":551,"ang":552,"icer":553,"Ġspecial":554,"Ġthong":555,"work":556,"pl":557,"rol":558,"str":559,"Ġdirector":560,"Ġofficer":561,"ital":562,"Ġservice":563,"Ġplan":564,"Ġso":565,"Ġengineering":566,"pr":567,"Ġdien":568,"form":569,"Ġspecialist":570,"cr":571,"Ġsupp":572,"Ġkiem":573,"Ġintern":574,"ative":575,"chuyen":576,"Ġfin":577,"up":578,"Ġdevelopers":579,"Ġvu":580,"Ġnet":581,"sal":582,"Ġsh":583,"Ġres":584,"Ġstaff":585,"and":586,"js":587,"Ġsenior":588,"Ġconsultant":589,"Ġto":590,"Ġweb":591,"olog":592,"Ġtri":593,"ics":594,"Ġat":595,"Ġxu":596,"Ġit":597,"Ġhe":598,"Ġfr":599,"igital":600,"Ġle":601,"Ġsup":602,"Ġapp":603,"itect":604,"Ġrel":605,"architect":606,"aph":607,"if":608,"Ġbao":609,"Ġprogrammer":610,"cess":611,"Ġjava":612,"iep":613,"Ġmed":614,"Ġleader":615,"Ġanalys":616,"Ġcontrol":617,"Ġdata":618,"Ġadministr":619,"ervisor":620,"ow":621,"cial":622,"ont":623,"Ġarchitect":624,"ure":625,"Ġcustomer":626,"Ġanalysis":627,"hip":628,"Ġplann":629,"struct":630,"Ġqa":631,"ill":632,"Ġthiet":633,"Ġtrien":634,"ho":635,"Ġva":636,"ordin":637,"ua":638,"age":639,"eo":640,"Ġgiao":641,"Ġkhach":642,"ra":643,"ia":644,"ication":645,"Ġsupport":646,"Ġtechnical":647,"Ġluong":648,"quan":649,"Ġpham":650,"ass":651,"Ġrep":652,"gi":653,"Ġsat":654,"mun":655,"Ġtro":656,"Ġstr":657,"ql":658,"Ġdigital":659,"ux":660,"Ġvi":661,"Ġchuyen":662,"Ġsupervisor":663,"ality":664,"Ġsec":665,"Ġhoa":666,"ipt":667,"truong":668,"sales":669,"Ġi":670,"ile":671,"Ġdich":672,"Ġbo":673,"port":674,"Ġxuat":675,"ard":676,"Ġaut":677,"Ġsc":678,"ateg":679,"man":680,"elect":681,"Ġcoordin":682,"ology":683,"Ġphat":684,"Ġon":685,"earch":686,"ke":687,"air":688,"ices":689,"Ġtien":690,"Ġdesigner":691,"ite":692,"ian":693,"Ġfor":694,"ub":695,"Ġdong":696,"Ġkho":697,"per":698,"Ġprocess":699,"ution":700,"Ġnetwork":701,"Ġteam":702,"Ġend":703,"Ġrec":704,"Ġaccountant":705,"Ġdep":706,"Ġsol":707,"cript":708,"Ġsk":709,"Ġoperation":710,"hanh":711,"Ġinv":712,"urance":713,"Ġback":714,"ull":715,"ient":716,"iz":717,"electr":718,"Ġgr":719,"ener":720,"Ġcommun":721,"Ġquality":722,"ase":723,"Ġins":724,"Ġservices":725,"Ġpres":726,"Ġbr":727,"ky":728,"Ġoperations":729,"Ġplanning":730,"urity":731,"Ġskill":732,"ui":733,"res":734,"Ġnha":735,"ell":736,"Ġqc":737,"Ġcoordinator":738,"Ġproduction":739,"Ġngan":740,"enter":741,"ancial":742,"Ġbank":743,"Ġstrateg":744,"itor":745,"net":746,"Ġhoc":747,"Ġlieu":748,"Ġed":749,"ast":750,"ional":751,"Ġfl":752,"Ġrelations":753,"urch":754,"Ġ3":755,"ood":756,"Ġcomp":757,"Ġtechnology":758,"echan":759,"Ġadv":760,"eneral":761,"ph":762,"ician":763,"ail":764,"our":765,"all":766,"giam":767,"ans":768,"int":769,"igh":770,"tract":771,"ary":772,"Ġteach":773,"Ġ2":774,"te":775,"isk":776,"Ġtong":777,"Ġpart":778,"ish":779,"Ġgraph":780,"Ġfront":781,"ief":782,"Ġli":783,"Ġthe":784,"Ġnghiep":785,"com":786,"oud":787,"Ġmem":788,"Ġhr":789,"Ġim":790,"Ġro":791,"Ġreact":792,"Ġsecurity":793,"Ġelectr":794,"struction":795,"Ġoperator":796,"Ġresearch":797,"Ġtrain":798,"Ġnoi":799,"obile":800,"line":801,"co":802,"ode":803,"ual":804,"der":805,"Ġchat":806,"Ġtap":807,"Ġtin":808,"ner":809,"Ġop":810,"Ġtich":811,"iate":812,"Ġdieu":813,"formation":814,"Ġrisk":815,"Ġhoach":816,"Ġor":817,"Ġty":818,"gal":819,"Ġsolution":820,"Ġmay":821,"Ġadministrator":822,"Ġfull":823,"Ġsoc":824,"Ġfinancial":825,"Ġpack":826,"market":827,"ies":828,"Ġtest":829,"se":830,"product":831,"Ġpurch":832,"Ġy":833,"Ġcr":834,"Ġxay":835,"Ġshop":836,"roid":837,"chan":838,"Ġviet":839,"Ġfinance":840,"Ġcor":841,"ogist":842,"Ġmechan":843,"business":844,"ational":845,"Ġhop":846,"Ġgia":847,"Ġoffice":848,"Ġappl":849,"00":850,"iter":851,"use":852,"Ġsystems":853,"Ġcao":854,"aint":855,"Ġaff":856,"Ġjavas":857,"Ġun":858,"Ġag":859,"project":860,"Ġo":861,"director":862,"Ġtechnician":863,"ience":864,"Ġinvest":865,"Ġcap":866,"Ġcloud":867,"Ġdra":868,"Ġgeneral":869,"por":870,"Ġcontract":871,"ustr":872,"ater":873,"manag":874,"graph":875,"ame":876,"Ġprogrammers":877,"Ġaffair":878,"Ġkhai":879,"ester":880,"Ġcompl":881,"Ġcommer":882,"Ġdo":883,"ly":884,"event":885,"ery":886,"af":887,"Ġdinh":888,"software":889,"fact":890,"erson":891,"Ġbrand":892,"Ġwork":893,"Ġtrans":894,"ociate":895,"ory":896,"Ġve":897,"ise":898,"Ġtrad":899,"ight":900,"qc":901,"Ġanh":902,"alth":903,"Ġnhom":904,"Ġki":905,"Ġnode":906,"gul":907,"ru":908,"Ġtieng":909,"techn":910,"Ġtuyen":911,"Ġonline":912,"lish":913,"Ġphap":914,"ufact":915,"Ġandroid":916,"Ġnhap":917,"marketing":918,"Ġphp":919,"ov":920,"stack":921,"oll":922,"Ġmedia":923,"Ġart":924,"Ġtao":925,"Ġbi":926,"Ġmobile":927,"ition":928,"asing":929,"Ġind":930,"Ġem":931,"ications":932,"Ġlogist":933,"Ġtruc":934,"ese":935,"lead":936,"Ġlegal":937,"Ġcontent":938,"Ġquy":939,"Ġmod":940,"ident":941,"Ġdau":942,"Ġconstruction":943,"Ġinformation":944,"ge":945,"Ġtel":946,"Ġlu":947,"ew":948,"Ġsch":949,"Ġmon":950,"porate":951,"ument":952,"Ġtester":953,"Ġinsurance":954,"Ġest":955,"ces":956,"chand":957,"ok":958,"ubl":959,"ex":960,"Ġphot":961,"Ġautom":962,"Ġche":963,"Ġchi":964,"resent":965,"nam":966,"Ġrev":967,"to":968,"Ġresour":969,"con":970,"site":971,"Ġios":972,"Ġdevs":973,"Ġthuong":974,"her":975,"eld":976,"Ġrelationship":977,"Ġmach":978,"Ġteacher":979,"Ġsinh":980,"Ġthanh":981,"assistant":982,"ak":983,"ection":984,"ound":985,"house":986,"sp":987,"eng":988,"Ġmanufact":989,"Ġmua":990,"Ġdao":991,"ideo":992,"artment":993,"Ġ+":994,"Ġhiem":995,"Ġdan":996,"manager":997,"ore":998,"tro":999,"Ġphu":1000,"Ġnghe":1001,"ax":1002,"utter":1003,"Ġmang":1004,"custom":1005,"Ġmer":1006,"Ġchief":1007,"technical":1008,"Ġbanking":1009,"Ġtiep":1010,"evel":1011,"iance":1012,"Ġtac":1013,"abor":1014,"Ġcoll":1015,"ield":1016,"Ġprogramm":1017,"Ġapplication":1018,"press":1019,"Ġtraining":1020,"ler":1021,"ization":1022,"Ġstack":1023,"Ġis":1024,"umer":1025,"ert":1026,"Ġdepartment":1027,"Ġmedical":1028,"Ġdr":1029,"dat":1030,"Ġrepresent":1031,"Ġgro":1032,"Ġaud":1033,"lob":1034,"Ġhead":1035,"oai":1036,"ublic":1037,"lobal":1038,"Ġjob":1039,"ash":1040,"uman":1041,"Ġbien":1042,"Ġret":1043,"Ġwin":1044,"Ġcu":1045,"Ġexper":1046,"Ġbu":1047,"ding":1048,"Ġthuc":1049,"uty":1050,"Ġstrategy":1051,"ility":1052,"avel":1053,"Ġlam":1054,"Ġla":1055,"Ġduoc":1056,"ipment":1057,"Ġ-":1058,"Ġmodel":1059,"ret":1060,"inc":1061,"Ġinter":1062,"Ġindustr":1063,"Ġtruyen":1064,"ocad":1065,"Ġfre":1066,"enc":1067,"account":1068,"Ġcost":1069,"able":1070,"Ġkhu":1071,"Ġrecru":1072,"Ġper":1073,"Ġ1":1074,"Ġui":1075,"customer":1076,"Ġmerchand":1077,"Ġvideo":1078,"ml":1079,"edit":1080,"ey":1081,"Ġassociate":1082,"Ġvietnam":1083,"Ġevent":1084,"fin":1085,"Ġcham":1086,"abase":1087,"Ġscient":1088,"Ġde":1089,"arm":1090,"ift":1091,"intern":1092,"ainten":1093,"nel":1094,"Ġexport":1095,"Ġrepresentative":1096,"iser":1097,"aterial":1098,"Ġtan":1099,"ordpress":1100,"fr":1101,"Ġenglish":1102,"riter":1103,"Ġcorporate":1104,"ier":1105,"Ġphoi":1106,"aintenance":1107,"Ġeditor":1108,"gional":1109,"Ġautocad":1110,"Ġseo":1111,"Ġdocument":1112,"Ġinf":1113,"Ġequ":1114,"Ġanaly":1115,"Ġflutter":1116,"Ġconsumer":1117,"ock":1118,"Ġcommunication":1119,"Ġaccounting":1120,"Ġdoi":1121,"Ġvis":1122,"oint":1123,"mc":1124,"iet":1125,"Ġcre":1126,"Ġjavascript":1127,"aster":1128,"Ġnodejs":1129,"Ġelectrical":1130,"ib":1131,"sale":1132,"ace":1133,"incip":1134,"afet":1135,"cl":1136,"Ġcum":1137,"tel":1138,"Ġmachine":1139,"Ġlogistics":1140,"Ġsoat":1141,"aging":1142,"unior":1143,"Ġpublic":1144,"Ġwordpress":1145,"Ġinvestment":1146,"Ġtra":1147,"Ġkien":1148,"Ġcenter":1149,"ship":1150,"Ġec":1151,"Ġcompliance":1152,"ence":1153,"ning":1154,"Ġsolutions":1155,"Ġcoun":1156,"Ġplanner":1157,"Ġautomation":1158,"wing":1159,"ium":1160,"ops":1161,"Ġung":1162,"Ġup":1163,"Ġtrung":1164,"Ġpol":1165,"afety":1166,"anh":1167,"Ġequipment":1168,"Ġint":1169,"uter":1170,"Ġpay":1171,"Ġmanufactur":1172,"Ġlin":1173,"Ġngu":1174,"Ġscientist":1175,"formance":1176,"Ġvuc":1177,"ale":1178,"Ġconsulting":1179,"Ġtrade":1180,"Ġatt":1181,"Ġcler":1182,"Ġreport":1183,"Ġact":1184,"Ġsql":1185,"ide":1186,"Ġpurchasing":1187,"iting":1188,"Ġaffairs":1189,"qa":1190,"Ġsite":1191,"Ġvat":1192,"Ġprof":1193,"hr":1194,"Ġgood":1195,"Ġcs":1196,"Ġcare":1197,"Ġadvisor":1198,"Ġdai":1199,"Ġmaterial":1200,"incipal":1201,"oy":1202,"Ġwebsite":1203,"Ġdon":1204,"Ġchung":1205,"Ġjs":1206,"Ġap":1207,"lap":1208,"Ġkhi":1209,"Ġsw":1210,"ee":1211,"ising":1212,"admin":1213,"apan":1214,"Ġmechanical":1215,"Ġmaintenance":1216,"Ġdart":1217,"bound":1218,"head":1219,"Ġstrategic":1220,"Ġ/":1221,"Ġphuc":1222,"Ġux":1223,"Ġsur":1224,"ership":1225,"ales":1226,"Ġtham":1227,"des":1228,"Ġtrach":1229,"pho":1230,"amp":1231,"Ġhinh":1232,"Ġdatabase":1233,"Ġadministration":1234,"Ġbackend":1235,"Ġcommercial":1236,"Ġrelation":1237,"ime":1238,"Ġfield":1239,"Ġscience":1240,"yth":1241,"Ġfac":1242,"apanese":1243,"ython":1244,"Ġkhoa":1245,"io":1246,"Ġcouns":1247,"tml":1248,"Ġchan":1249,"br":1250,"Ġrui":1251,"data":1252,"duc":1253,"Ġassurance":1254,"Ġpresident":1255,"ision":1256,"erp":1257,"Ġmy":1258,"Ġvb":1259,"gular":1260,"Ġnew":1261,"Ġsm":1262,"enterpr":1263,"Ġtyp":1264,"Ġeduc":1265,"enterprise":1266,"Ġmai":1267,"Ġgo":1268,"Ġpolic":1269,"Ġstud":1270,"Ġsafety":1271,"Ġmoi":1272,"Ġvue":1273,"Ġgraphql":1274,"Ġcoc":1275,"ograph":1276,"itment":1277,"Ġangular":1278,"Ġreactjs":1279,"su":1280,"alent":1281,"ify":1282,"Ġestim":1283,"ban":1284,"aud":1285,"Ġkhau":1286,"Ġcredit":1287,"Ġlinux":1288,"retary":1289,"ender":1290,"Ġcall":1291,"Ġgroup":1292,"Ġchanh":1293,"Ġcontroller":1294,"pt":1295,"Ġgraphic":1296,"Ġhuman":1297,"Ġhtml":1298,"Ġiso":1299,"system":1300,"Ġduong":1301,"Ġhealth":1302,"sm":1303,"digital":1304,"Ġsy":1305,"Ġanalyt":1306,"Ġbuil":1307,"entory":1308,"Ġno":1309,"Ġcua":1310,"Ġca":1311,"Ġcocos":1312,"Ġab":1313,"jav":1314,"Ġglobal":1315,"Ġfood":1316,"Ġjapanese":1317,"Ġdatum":1318,"Ġgame":1319,"Ġow":1320,"Ġperformance":1321,"Ġnam":1322,"Ġproduc":1323,"Ġpackaging":1324,"ty":1325,"ber":1326,"Ġcuu":1327,"Ġclerk":1328,"Ġcoach":1329,"Ġtypes":1330,"Ġbe":1331,"cing":1332,"Ġclient":1333,"ool":1334,"Ġhai":1335,"Ġgiang":1336,"Ġresources":1337,"Ġdel":1338,"Ġvisual":1339,"Ġcommunications":1340,"Ġnhanh":1341,"engineer":1342,"web":1343,"tion":1344,"Ġcounsel":1345,"hop":1346,"Ġlang":1347,"cong":1348,"ost":1349,"network":1350,"Ġshopify":1351,"Ġpython":1352,"Ġadministrative":1353,"Ġchain":1354,"Ġattend":1355,"Ġpharm":1356,"ealth":1357,"Ġimport":1358,"ersonal":1359,"thuc":1360,"ern":1361,"Ġdraf":1362,"Ġmanufacturing":1363,"Ġha":1364,"structure":1365,"Ġrevit":1366,"Ġlab":1367,"Ġtypescript":1368,"Ġhieu":1369,"Ġretail":1370,"cur":1371,"ural":1372,"out":1373,"ue":1374,"uage":1375,"Ġtieu":1376,"Ġii":1377,"Ġcau":1378,"Ġware":1379,"Ġintell":1380,"arep":1381,"ens":1382,"Ġviec":1383,"rastructure":1384,"Ġsour":1385,"Ġlear":1386,"Ġattendant":1387,"Ġartist":1388,"arepoint":1389,"Ġsupply":1390,"esta":1391,"Ġcommerce":1392,"fre":1393,"Ġsecretary":1394,"back":1395,"Ġinbound":1396,"Ġcollabor":1397,"gan":1398,"Ġprofess":1399,"uby":1400,"aut":1401,"Ġcho":1402,"Ġpresent":1403,"emic":1404,"Ġlanguage":1405,"ask":1406,"Ġdrawing":1407,"ivery":1408,"Ġchannel":1409,"ities":1410,"otion":1411,"chief":1412,"Ġcompan":1413,"opy":1414,"Ġwarehouse":1415,"front":1416,"urant":1417,"Ġinventory":1418,"upal":1419,"estaurant":1420,"Ġintellig":1421,"Ġthue":1422,"one":1423,"devel":1424,"Ġcn":1425,"vir":1426,"Ġcung":1427,"ivil":1428,"onom":1429,"Ġnghiem":1430,"action":1431,"rec":1432,"Ġopen":1433,"Ġpurchase":1434,"Ġlar":1435,"ploy":1436,"Ġtax":1437,"serv":1438,"ry":1439,"quis":1440,"Ġcomputer":1441,"Ġhel":1442,"ating":1443,"quisition":1444,"Ġpartner":1445,"Ġprocessing":1446,"Ġinsp":1447,"Ġsach":1448,"icro":1449,"Ġprogramme":1450,"ix":1451,"Ġwinform":1452,"Ġinte":1453,"Ġintegr":1454,"Ġhand":1455,"Ġdrupal":1456,"java":1457,"iss":1458,"Ġthat":1459,"Ġadvert":1460,"ker":1461,"emb":1462,"nh":1463,"Ġtalent":1464,"thiet":1465,"Ġgoods":1466,"enh":1467,"roll":1468,"Ġsharepoint":1469,"Ġinc":1470,"ives":1471,"Ġregional":1472,"ency":1473,"viron":1474,"bo":1475,"Ġtour":1476,"Ġdesk":1477,"vironment":1478,"Ġenterprise":1479,"Ġmerchandiser":1480,"Ġindustrial":1481,"Ġlaw":1482,"Ġchay":1483,"ologist":1484,"Ġchem":1485,"Ġtime":1486,"Ġeff":1487,"acle":1488,"crum":1489,"Ġinfrastructure":1490,"Ġfres":1491,"Ġphotos":1492,"++":1493,"Ġpolicy":1494,"Ġdis":1495,"Ġtech":1496,"Ġoperational":1497,"Ġintelligence":1498,"Ġactiv":1499,"Ġdelivery":1500,"atory":1501,"Ġfir":1502,"Ġsuc":1503,"Ġquoc":1504,"Ġnghien":1505,"Ġbuilding":1506,"Ġtinh":1507,"Ġhoi":1508,"emand":1509,"Ġprint":1510,"Ġmedium":1511,"Ġruby":1512,"thu":1513,"Ġbac":1514,"Ġbas":1515,"program":1516,"Ġthau":1517,"Ġanim":1518,"off":1519,"Ġrestaurant":1520,"Ġus":1521,"Ġkhoan":1522,"Ġsocial":1523,"Ġbd":1524,"Ġsourcing":1525,"Ġtrainer":1526,"Ġord":1527,"Ġserver":1528,"Ġlaravel":1529,"Ġcompany":1530,"cont":1531,"Ġschool":1532,"sr":1533,"Ġacquisition":1534,"ear":1535,"Ġnganh":1536,"Ġsap":1537,"lin":1538,"Ġwriter":1539,"ows":1540,"area":1541,"Ġphien":1542,"Ġteles":1543,"Ġregul":1544,"ademic":1545,"Ġrecruitment":1546,"Ġphotograph":1547,"Ġexperience":1548,"kinh":1549,"force":1550,"Ġcopy":1551,"Ġngoai":1552,"Ġhc":1553,"staff":1554,"Ġquang":1555,"Ġeducation":1556,"Ġtool":1557,"Ġbl":1558,"team":1559,"Ġaudit":1560,"Ġpho":1561,"Ġowner":1562,"Ġworker":1563,"vice":1564,"Ġgu":1565,"bl":1566,"tu":1567,"Ġlearning":1568,"ping":1569,"ounder":1570,"Ġkhoi":1571,"Ġresource":1572,"Ġcle":1573,"Ġanalytics":1574,"Ġair":1575,"Ġstudent":1576,"edul":1577,"Ġprojects":1578,"Ġnang":1579,"Ġhotel":1580,"Ġday":1581,"Ġpartn":1582,"Ġ20":1583,"Ġpost":1584,"sup":1585,"Ġcash":1586,"giao":1587,"Ġout":1588,"production":1589,"cons":1590,"curement":1591,"Ġtrang":1592,"Ġagile":1593,"Ġtesting":1594,"ms":1595,"Ġbat":1596,"Ġnhat":1597,"Ġunity":1598,"Ġmat":1599,"Ġnu":1600,"ef":1601,"Ġcan":1602,"ith":1603,"alk":1604,"Ġsf":1605,"ded":1606,"eg":1607,"Ġror":1608,"ability":1609,"Ġfrontend":1610,"Ġal":1611,"Ġproducer":1612,"Ġinternational":1613,"ardware":1614,"Ġsi":1615,"itch":1616,"eption":1617,"eter":1618,"junior":1619,"Ġscrum":1620,"ind":1621,"Ġdevops":1622,"Ġerp":1623,"Ġgiai":1624,"Ġnative":1625,"Ġthoai":1626,"Ġwa":1627,"Ġframe":1628,"Ġcreative":1629,"Ġsr":1630,"Ġcac":1631,"Ġmechanic":1632,"Ġscript":1633,"Ġestate":1634,"Ġemploy":1635,"Ġinternet":1636,"Ġstore":1637,"Ġschedul":1638,"Ġtransaction":1639,"Ġben":1640,"ward":1641,"Ġorgan":1642,"Ġmak":1643,"warehouse":1644,"ts":1645,"Ġwealth":1646,"kh":1647,"Ġbro":1648,"Ġxe":1649,"Ġasp":1650,"med":1651,"Ġtam":1652,"Ġeffect":1653,"full":1654,"Ġproducts":1655,"Ġfresher":1656,"Ġchua":1657,"Ġchu":1658,"Ġframework":1659,"Ġcivil":1660,"Ġphau":1661,"arin":1662,"oo":1663,"lu":1664,"comp":1665,"Ġapi":1666,"Ġagent":1667,"general":1668,"atform":1669,"Ġmau":1670,"Ġaccounts":1671,"Ġeconom":1672,"edded":1673,"pa":1674,"entor":1675,"Ġdrafter":1676,"ve":1677,"Ġfraud":1678,"Ġmep":1679,"Ġmicro":1680,"Ġarchitecture":1681,"Ġcustoms":1682,"get":1683,"Ġsuperv":1684,"ysql":1685,"Ġsua":1686,"ting":1687,"talk":1688,"Ġenvironment":1689,"Ġmonitor":1690,"Ġteaching":1691,"Ġprom":1692,"Ġtender":1693,"Ġpos":1694,"Ġrepair":1695,"ission":1696,"Ġcad":1697,"Ġprogramming":1698,"ng":1699,"Ġlevel":1700,"Ġopenstack":1701,"iztalk":1702,"ures":1703,"Ġmoney":1704,"Ġindustry":1705,"Ġoracle":1706,"Ġintegration":1707,"alu":1708,"Ġme":1709,"ons":1710,"Ġmar":1711,"merce":1712,"Ġfreight":1713,"Ġod":1714,"Ġprofessional":1715,"Ġinternship":1716,"Ġphotoshop":1717,"ced":1718,"sc":1719,"Ġspr":1720,"tech":1721,"Ġline":1722,"Ġclin":1723,"Ġtrieu":1724,"urg":1725,"quality":1726,"Ġjunior":1727,"sec":1728,"Ġinstruct":1729,"Ġstruct":1730,"Ġswift":1731,"principal":1732,"writer":1733,"Ġrail":1734,"Ġacademic":1735,"Ġpresales":1736,"mission":1737,"Ġmysql":1738,"financial":1739,"Ġmaterials":1740,"iew":1741,"Ġabap":1742,"inee":1743,"Ġdistr":1744,"Ġimpl":1745,"Ġcss":1746,"pf":1747,"Ġhien":1748,"Ġwind":1749,"Ġdia":1750,"Ġgoi":1751,"Ġexp":1752,"Ġcore":1753,"dev":1754,"Ġbiztalk":1755,"Ġexc":1756,"under":1757,"Ġprincipal":1758,"Ġlanh":1759,"Ġemb":1760,"Ġpersonal":1761,"sh":1762,"associate":1763,"dep":1764,"ook":1765,"uxt":1766,"Ġplatform":1767,"developer":1768,"supervisor":1769,"ict":1770,"erg":1771,"Ġmo":1772,"Ġpow":1773,"Ġluoc":1774,"Ġtransl":1775,"Ġninh":1776,"Ġmanual":1777,"Ġfullstack":1778,"design":1779,"Ġchien":1780,"Ġpartnership":1781,"Ġadvisory":1782,"consult":1783,"Ġhardware":1784,"Ġprice":1785,"Ġflask":1786,"Ġstand":1787,"executive":1788,"Ġant":1789,"Ġ#":1790,"hang":1791,"Ġchuc":1792,"onics":1793,"Ġob":1794,"Ġodoo":1795,"Ġproced":1796,"Ġstock":1797,"Ġnuoc":1798,"elance":1799,"Ġship":1800,"Ġsfmc":1801,"Ġ.":1802,"amarin":1803,"can":1804,"000":1805,"Ġmodeling":1806,"acy":1807,"Ġprocurement":1808,"Ġluat":1809,"kiem":1810,"Ġcar":1811,"Ġreal":1812,"Ġincent":1813,"Ġsalary":1814,"eloper":1815,"sol":1816,"ules":1817,"Ġql":1818,"Ġchef":1819,"Ġlect":1820,"Ġwpf":1821,"Ġnuxt":1822,"regional":1823,"Ġtravel":1824,"Ġvice":1825,"finance":1826,"Ġbep":1827,"Ġkey":1828,"Ġphi":1829,"Ġcommunity":1830,"ade":1831,"Ġinternal":1832,"Ġexpert":1833,"Ġthoi":1834,"ogle":1835,"cept":1836,"supp":1837,"Ġsalesforce":1838,"ric":1839,"Ġ201":1840,"Ġhom":1841,"Ġbranding":1842,"Ġcollection":1843,"Ġkenh":1844,"Ġlogistic":1845,"overn":1846,"ecom":1847,"urn":1848,"let":1849,"Ġorder":1850,"pg":1851,"leader":1852,"Ġhelp":1853,"Ġxamarin":1854,"Ġforward":1855,"Ġset":1856,"eller":1857,"service":1858,"Ġdeputy":1859,"cor":1860,"soft":1861,"sy":1862,"Ġsurg":1863,"Ġspring":1864,"vc":1865,"ote":1866,"Ġwindows":1867,"ordinator":1868,"udget":1869,"und":1870,"administr":1871,"Ġqs":1872,"Ġupto":1873,"urgent":1874,"Ġmet":1875,"Ġadvertising":1876,"blem":1877,"old":1878,"Ġreception":1879,"graphic":1880,"irect":1881,"Ġmentor":1882,"Ġcounselor":1883,"Ġroom":1884,"ct":1885,"eting":1886,"Ġtho":1887,"ords":1888,"ards":1889,"ba":1890,"Ġmaster":1891,"Ġinstructor":1892,"Ġar":1893,"Ġthuy":1894,"Ġchemical":1895,"global":1896,"mobile":1897,"eas":1898,"eck":1899,"Ġarea":1900,"Ġvuejs":1901,"ied":1902,"Ġquant":1903,"Ġclear":1904,"Ġpresentation":1905,"phu":1906,"ick":1907,"ieng":1908,"anch":1909,"Ġobject":1910,"fl":1911,"Ġops":1912,"Ġpackage":1913,"Ġelectric":1914,"Ġlich":1915,"ki":1916,"Ġinspector":1917,"Ġgioi":1918,"arment":1919,"Ġsuccess":1920,"commun":1921,"mechan":1922,"cs":1923,"chain":1924,"Ġstat":1925,"Ġsearch":1926,"purch":1927,"tt":1928,"preter":1929,"appl":1930,"utor":1931,"Ġgol":1932,"Ġplant":1933,"urer":1934,"Ġdiv":1935,"inv":1936,"ife":1937,"Ġqua":1938,"Ġcollaboration":1939,"Ġclearance":1940,"gro":1941,"Ġes":1942,"mcg":1943,"mat":1944,"Ġpacking":1945,"Ġcomplaint":1946,"adu":1947,"Ġproblem":1948,"perty":1949,"Ġkich":1950,"desk":1951,"Ġbid":1952,"autom":1953,"aig":1954,"Ġlay":1955,"Ġev":1956,"research":1957,"deputy":1958,"cy":1959,"Ġbon":1960,"Ġtranslator":1961,"Ġgovern":1962,"human":1963,"Ġcoaching":1964,"iture":1965,"otive":1966,"Ġassemb":1967,"enue":1968,"Ġinst":1969,"Ġlaunder":1970,"isco":1971,"tim":1972,"Ġmien":1973,"luenc":1974,"urse":1975,"ense":1976,"sych":1977,"Ġlabor":1978,"ockchain":1979,"ouc":1980,"Ġanti":1981,"Ġsolid":1982,"Ġbudget":1983,"Ġfounder":1984,"luencer":1985,"Ġtrainee":1986,"etic":1987,"Ġmag":1988,"office":1989,"ements":1990,"Ġpre":1991,"its":1992,"Ġinvestor":1993,"Ġlen":1994,"Ġket":1995,"he":1996,"part":1997,"Ġsoan":1998,"Ġceo":1999,"Ġge":2000,"Ġthang":2001,"ever":2002,"Ġembedded":2003,"ebook":2004,"Ġhuy":2005,"Ġnetworking":2006,"backend":2007,"Ġmonitoring":2008,"english":2009,"Ġemployee":2010,"ake":2011,"ws":2012,"vi":2013,"Ġdot":2014,"Ġdemand":2015,"php":2016,"Ġpromotion":2017,"Ġthre":2018,"inese":2019,"Ġhy":2020,"ific":2021,"Ġspe":2022,"Ġecom":2023,"cp":2024,"inter":2025,"Ġduc":2026,"Ġgoogle":2027,"Ġcustomers":2028,"vey":2029,"dra":2030,"Ġfirm":2031,"teach":2032,"Ġdistrib":2033,"Ġapplications":2034,"icing":2035,"hun":2036,"Ġfmcg":2037,"Ġnguoi":2038,"vac":2039,"rep":2040,"Ġnguyen":2041,"person":2042,"Ġdec":2043,"tor":2044,"ental":2045,"mechanical":2046,"itative":2047,"Ġ5":2048,"Ġeffects":2049,"cer":2050,"aser":2051,"Ġbook":2052,"content":2053,"corporate":2054,"Ġsit":2055,"recru":2056,"Ġengineers":2057,"Ġquyet":2058,"onic":2059,"Ġinfluencer":2060,"special":2061,"Ġinterpreter":2062,"brand":2063,"als":2064,"Ġphim":2065,"operation":2066,"de":2067,"Ġads":2068,"Ġcosting":2069,"Ġcpa":2070,"aceut":2071,"systems":2072,"Ġtang":2073,"room":2074,"Ġresearcher":2075,"Ġtrac":2076,"riting":2077,"Ġrecruiter":2078,"ulesoft":2079,"Ġpat":2080,"Ġjsp":2081,"Ġhigh":2082,"Ġclass":2083,"field":2084,"keep":2085,"Ġdivision":2086,"pga":2087,"Ġblockchain":2088,"da":2089,"Ġpm":2090,"Ġwait":2091,"Ġprocedures":2092,"Ġent":2093,"aceutical":2094,"Ġda":2095,"Ġvung":2096,"Ġet":2097,"Ġloan":2098,"urniture":2099,"Ġdi":2100,"Ġlayout":2101,"auty":2102,"ling":2103,"istry":2104,"cloud":2105,"bao":2106,"Ġcam":2107,"Ġpsych":2108,"ified":2109,"ript":2110,"Ġpa":2111,"sw":2112,"Ġdept":2113,"Ġretouc":2114,"engineering":2115,"bers":2116,"Ġpayment":2117,"kt":2118,"king":2119,"onsor":2120,"Ġtelesale":2121,"Ġwith":2122,"Ġam":2123,"oot":2124,"ns":2125,"Ġku":2126,"Ġsupervision":2127,"Ġposition":2128,"Ġmarketer":2129,"trans":2130,"Ġevents":2131,"Ġinterior":2132,"pres":2133,"Ġbonus":2134,"ins":2135,"crip":2136,"Ġmvc":2137,"Ġauditor":2138,"go":2139,"Ġscal":2140,"Ġthree":2141,"aduate":2142,"strateg":2143,"Ġgolang":2144,"Ġrails":2145,"Ġbuy":2146,"Ġproperty":2147,"wth":2148,"Ġestimate":2149,"Ġsign":2150,"Ġreports":2151,"Ġba":2152,"Ġdeal":2153,"Ġdam":2154,"Ġbrid":2155,"Ġmanufacture":2156,"Ġrece":2157,"Ġrevenue":2158,"iver":2159,"Ġsam":2160,"sql":2161,"logist":2162,"Ġgovernment":2163,"aluation":2164,"Ġcnc":2165,"solution":2166,"bp":2167,"Ġsieu":2168,"Ġactivation":2169,"'s":2170,"hic":2171,"Ġchup":2172,"Ġhost":2173,"Ġservlet":2174,"Ġquay":2175,"Ġamer":2176,"Ġmulesoft":2177,"Ġcamp":2178,"Ġcheck":2179,"Ġcomm":2180,"Ġcrm":2181,"Ġrieng":2182,"Ġ$":2183,"Ġall":2184,"emarket":2185,"vien":2186,"Ġchuong":2187,"Ġjavascrip":2188,"Ġjavasript":2189,"Ġred":2190,"Ġameric":2191,"Ġfacebook":2192,"eed":2193,"Ġloc":2194,"anal":2195,"Ġrequ":2196,"Ġfpga":2197,"Ġdotnet":2198,"Ġvon":2199,"led":2200,"cout":2201,"plan":2202,"Ġgarment":2203,"tuyen":2204,"pat":2205,"Ġel":2206,"Ġengine":2207,"Ġprot":2208,"Ġprep":2209,"Ġpress":2210,"Ġcapital":2211,"Ġcry":2212,"Ġchinese":2213,"stud":2214,"Ġanimation":2215,"orter":2216,"Ġfast":2217,"Ġip":2218,"Ġasset":2219,"Ġlao":2220,"eat":2221,"hot":2222,"Ġpayable":2223,"cc":2224,"fres":2225,"Ġsponsor":2226,"Ġphys":2227,"Ġelectronics":2228,"Ġcy":2229,"frontend":2230,"utive":2231,"train":2232,"Ġmicrosoft":2233,"Ġbenef":2234,"Ġmid":2235,"Ġcntt":2236,"Ġdocumentation":2237,"consultant":2238,"Ġcisco":2239,"Ġprevent":2240,"oving":2241,"Ġmember":2242,"Ġpower":2243,"personal":2244,"information":2245,"Ġsurvey":2246,"ification":2247,"lam":2248,"soc":2249,"Ġbeauty":2250,"otlin":2251,"Ġoptim":2252,"Ġspeak":2253,"Ġcob":2254,"Ġestimation":2255,"purchasing":2256,"care":2257,"itant":2258,"Ġqaqc":2259,"Ġdirect":2260,"Ġstandards":2261,"dieu":2262,"Ġimplement":2263,"Ġshift":2264,"Ġbranch":2265,"Ġhelpdesk":2266,"Ġkn":2267,"electrical":2268,"Ġfree":2269,"dr":2270,"Ġpharmaceutical":2271,"Ġforwarder":2272,"Ġther":2273,"oor":2274,"Ġscala":2275,"Ġcobol":2276,"computer":2277,"uan":2278,"test":2279,"Ġbinh":2280,"Ġexecut":2281,"Ġlecturer":2282,"ire":2283,"Ġcommercialization":2284,"page":2285,"Ġmerchandising":2286,"olar":2287,"Ġecommerce":2288,"Ġbever":2289,"Ġplans":2290,"Ġstructural":2291,"Ġkhong":2292,"Ġot":2293,"Ġaws":2294,"iability":2295,"Ġbasic":2296,"Ġautomotive":2297,"ento":2298,"merchand":2299,"process":2300,"Ġtelemarket":2301,"Ġtuong":2302,"trade":2303,"Ġcontractor":2304,"Ġrem":2305,"ios":2306,"hicle":2307,"brid":2308,"Ġhouse":2309,"Ġenvironmental":2310,"ashion":2311,"Ġprograms":2312,"bien":2313,"Ġkotlin":2314,"Ġgrowth":2315,"Ġcanh":2316,"Ġtechnolog":2317,"Ġpricing":2318,"Ġtrong":2319,"adv":2320,"Ġra":2321,"Ġperson":2322,"Ġsmart":2323,"Ġmechanics":2324,"credit":2325,"ĠĠ":2326,"Ġse":2327,"dle":2328,"board":2329,"Ġhse":2330,"Ġfurniture":2331,"Ġtuc":2332,"Ġinstruction":2333,"Ġobjective":2334,"Ġbang":2335,"demand":2336,"Ġangularjs":2337,"Ġinstall":2338,"Ġrm":2339,"Ġassist":2340,"Ġorganization":2341,"Ġgeod":2342,"freight":2343,"hoot":2344,"ensation":2345,"Ġhome":2346,"Ġanalyz":2347,"legal":2348,"Ġcent":2349,"Ġsell":2350,"ger":2351,"Ġmanage":2352,"Ġreceptionist":2353,"Ġiot":2354,"security":2355,"Ġfact":2356,"android":2357,"Ġtru":2358,"eph":2359,"Ġtelesales":2360,"Ġcreator":2361,"Ġtim":2362,"Ġfound":2363,"iances":2364,"Ġsang":2365,"bu":2366,"Ġbay":2367,"Ġregulatory":2368,"Ġlaundering":2369,"medical":2370,"Ġmt":2371,"Ġhuong":2372,"Ġtechnologies":2373,"Ġdet":2374,"Ġreliability":2375,"endent":2376,"works":2377,"Ġrecords":2378,"Ġfacility":2379,"Ġ4":2380,"Ġhvac":2381,"mark":2382,"Ġbai":2383,"retail":2384,"Ġanimator":2385,"Ġluc":2386,"Ġlife":2387,"Ġworking":2388,"construction":2389,"Ġhcm":2390,"Ġval":2391,"ury":2392,"Ġunix":2393,"list":2394,"key":2395,"iat":2396,"Ġissu":2397,"Ġsem":2398,"student":2399,"Ġnai":2400,"import":2401,"international":2402,"Ġms":2403,"Ġver":2404,"Ġarr":2405,"doc":2406,"Ġtrader":2407,"Ġnort":2408,"social":2409,"accountant":2410,"Ġinspection":2411,"Ġu":2412,"Ġscholar":2413,"Ġrua":2414,"phan":2415,"accounting":2416,"fer":2417,"Ġbeverage":2418,"Ġport":2419,"Ġmotion":2420,"ages":2421,"Ġtrading":2422,"Ġprevention":2423,"ilities":2424,"Ġactivities":2425,"Ġpract":2426,"Ġcashier":2427,"Ġcampaig":2428,"Ġbar":2429,"Ġreview":2430,"Ġappro":2431,"contract":2432,"fresher":2433,"Ġshipping":2434,"Ġgap":2435,"Ġunder":2436,"Ġpayroll":2437,"Ġdevsys":2438,"Ġclinical":2439,"les":2440,"Ġvip":2441,"Ġrap":2442,"Ġbroker":2443,"Ġbh":2444,"phong":2445,"Ġminh":2446,"afe":2447,"Ġaccout":2448,"hol":2449,"Ġtools":2450,"accp":2451,"Ġfreelance":2452,"Ġfactory":2453,"tl":2454,"Ġskills":2455,"Ġluu":2456,"Ġgraphics":2457,"Ġpg":2458,"Ġregulation":2459,"Ġincentive":2460,"Ġhelper":2461,"invest":2462,"ings":2463,"Ġmob":2464,"Ġswitch":2465,"Ġsty":2466,"Ġsalesman":2467,"Ġsuppl":2468,"opment":2469,"Ġxa":2470,"Ġnon":2471,"recruitment":2472,"Ġmuc":2473,"Ġlinh":2474,"reen":2475,"owled":2476,"Ġcert":2477,"Ġmaker":2478,"Ġreceiv":2479,"Ġrequir":2480,"owledge":2481,"Ġphone":2482,"management":2483,"Ġenroll":2484,"Ġadw":2485,"Ġdecor":2486,"application":2487,"operations":2488,"Ġpharmacy":2489,"Ġtp":2490,"Ġstor":2491,"cook":2492,"Ġtutor":2493,"Ġleadership":2494,"hs":2495,"Ġtelecom":2496,"Ġnguon":2497,"drawing":2498,"Ġfoundation":2499,"client":2500,"Ġtheo":2501,"Ġexcutive":2502,"Ġcard":2503,"oop":2504,"Ġreg":2505,"Ġagency":2506,"Ġmagento":2507,"Ġvehicle":2508,"Ġhaccp":2509,"itchen":2510,"Ġtoa":2511,"Ġtransport":2512,"Ġdistribution":2513,"sap":2514,"Ġpsychologist":2515,"Ġquantitative":2516,"Ġmult":2517,"Ġpolicies":2518,"Ġhap":2519,"Ġinterv":2520,"Ġkhuon":2521,"Ġcontraction":2522,"Ġvol":2523,"Ġiii":2524,"Ġorganiz":2525,"pos":2526,"Ġlop":2527,"put":2528,"anced":2529,"Ġauditing":2530,"Ġscheduler":2531,"bi":2532,"commer":2533,"Ġthao":2534,"strategic":2535,"Ġsalesperson":2536,"Ġxuong":2537,"Ġnv":2538,"logistics":2539,"Ġpar":2540,"eperson":2541,"Ġheadhun":2542,"chem":2543,"Ġguest":2544,"Ġdanh":2545,"cn":2546,"commercial":2547,"Ġmanufacturer":2548,"acist":2549,"code":2550,"Ġbuyer":2551,"du":2552,"nov":2553,"Ġclinic":2554,"Ġide":2555,"prov":2556,"pe":2557,"Ġlaboratory":2558,"Ġvn":2559,"supply":2560,"itive":2561,"Ġinsight":2562,"Ġbridge":2563,"ss":2564,"Ġauto":2565,"Ġoptimization":2566,"Ġmonth":2567,"pc":2568,"nal":2569,"Ġmodeler":2570,"az":2571,"Ġstrategist":2572,"Ġteachers":2573,"Ġunit":2574,"Ġentry":2575,"bank":2576,"Ġconcept":2577,"Ġcompensation":2578,"Ġspace":2579,"Ġfil":2580,"Ġsub":2581,"obe":2582,"new":2583,"Ġcosm":2584,"Ġimage":2585,"Ġboard":2586,"Ġsection":2587,"kd":2588,"Ġimplementation":2589,"Ġsurgery":2590,"Ġchong":2591,"ld":2592,"egot":2593,"Ġmkt":2594,"ute":2595,"nk":2596,"Ġknowledge":2597,"van":2598,"Ġbim":2599,"Ġproduce":2600,"wear":2601,"Ġassitant":2602,"eu":2603,"ategory":2604,"swift":2605,"administrative":2606,"ulture":2607,"Ġson":2608,"Ġdriver":2609,"Ġill":2610,"Ġtherap":2611,"specialist":2612,"Ġschools":2613,"pto":2614,"nha":2615,"Ġeconomist":2616,"Ġcontact":2617,"Ġdraw":2618,"ivers":2619,"ma":2620,"mid":2621,"Ġdocuments":2622,"eral":2623,"Ġthac":2624,"Ġdba":2625,"Ġvo":2626,"Ġasm":2627,"freelance":2628,"Ġpod":2629,"Ġxnk":2630,"ated":2631,"loy":2632,"ĠS":2633,"automation":2634,"dition":2635,"nhh":2636,"Ġdeb":2637,"Ġmong":2638,"fullstack":2639,"Ġcamer":2640,"Ġprem":2641,"gage":2642,"Ġteller":2643,"Ġphotographer":2644,"chmark":2645,"Ġengin":2646,"Ġai":2647,"training":2648,"adoop":2649,"Ġincentives":2650,"Ġngon":2651,"fac":2652,"elan":2653,"Ġtnhh":2654,"td":2655,"ver":2656,"Ġmerchandise":2657,"core":2658,"oad":2659,"Ġkitchen":2660,"pack":2661,"Ġluyen":2662,"yer":2663,"Ġfashion":2664,"gor":2665,"Ġnot":2666,"rel":2667,"eign":2668,"isement":2669,"Ġthuoc":2670,"Ġfun":2671,"Ġshow":2672,"industr":2673,"prof":2674,"gorith":2675,"Ġassembly":2676,"adc":2677,"Ġanalyze":2678,"Ġmedic":2679,"Ġgian":2680,"Ġdoctor":2681,"Ġappra":2682,"Ġnong":2683,"Ġbidding":2684,"Ġhrbp":2685,"stry":2686,"Ġpharmacist":2687,"500":2688,"agement":2689,"Ġfan":2690,"aration":2691,"fol":2692,"Ġrisks":2693,"Ġassess":2694,"Ġsurgical":2695,"atic":2696,"Ġprofessor":2697,"Ġjobs":2698,"Ġown":2699,"online":2700,"lance":2701,"change":2702,"phat":2703,"Ġeducational":2704,"Ġhandling":2705,"tractive":2706,"ney":2707,"Ġoperating":2708,"Ġcoordination":2709,"top":2710,"manufact":2711,"devops":2712,"Ġreporting":2713,"fo":2714,"cost":2715,"Ġshopdrawing":2716,"Ġgoals":2717,"Ġcondition":2718,"Ġcommunic":2719,"urs":2720,"fx":2721,"cher":2722,"ness":2723,"Ġmen":2724,"Ġmachin":2725,"pi":2726,"Ġpresale":2727,"ootwear":2728,"Ġstylist":2729,"Ġphuong":2730,"vers":2731,"food":2732,"react":2733,"Ġimplant":2734,"Ġyear":2735,"Ġvideograph":2736,"Ġspeaking":2737,"Ġuser":2738,"Ġinvestig":2739,"Ġcampaign":2740,"ista":2741,"ergency":2742,"Ġnorth":2743,"Ġcopywriter":2744,"pay":2745,"Ġnurse":2746,"Ġmarcom":2747,"uring":2748,"Ġloi":2749,"artender":2750,"cre":2751,"tester":2752,"giang":2753,"ournal":2754,"Ġsout":2755,"iences":2756,"database":2757,"ize":2758,"Ġimprov":2759,"Ġstorage":2760,"planning":2761,"trr":2762,"Ġcto":2763,"Ġhadoop":2764,"Ġadvertisement":2765,"founder":2766,"esale":2767,"Ġhoan":2768,"Ġdem":2769,"Ġvay":2770,"Ġjr":2771,"Ġbenchmark":2772,"educ":2773,"Ġcrypto":2774,"Ġnegot":2775,"Ġattractive":2776,"Ġinnov":2777,"Ġassistance":2778,"Ġmac":2779,"eness":2780,"Ġadmission":2781,"cu":2782,"val":2783,"Ġrx":2784,"Ġhandle":2785,"folio":2786,"inf":2787,"Ġlance":2788,"Ġalgorith":2789,"Ġteleph":2790,"iation":2791,"Ġlan":2792,"talent":2793,"irel":2794,"writing":2795,"Ġnat":2796,"Ġmembers":2797,"Ġfanpage":2798,"Ġ0":2799,"Ġprov":2800,"Ġredux":2801,"loyment":2802,"hem":2803,"internship":2804,"Ġdef":2805,"Ġsaleperson":2806,"face":2807,"mach":2808,"Ġ_":2809,"Ġpastry":2810,"Ġthai":2811,"chemical":2812,"urr":2813,"graduate":2814,"xd":2815,"Ġidea":2816,"atr":2817,"Ġcskh":2818,"gres":2819,"Ġpe":2820,"sen":2821,"rr":2822,"ederal":2823,"Ġsa":2824,"la":2825,"Ġqtrr":2826,"Ġmentoring":2827,"Ġguide":2828,"Ġclean":2829,"Ġter":2830,"ral":2831,"video":2832,"Ġsmb":2833,"Ġimprovement":2834,"Ġshopping":2835,"Ġxcode":2836,"Ġillustr":2837,"cv":2838,"uting":2839,"Ġengagement":2840,"Ġhoat":2841,"odb":2842,"cle":2843,"ild":2844,"Ġspec":2845,"industrial":2846,"Ġmax":2847,"rite":2848,"Ġduy":2849,"cal":2850,"Ġorders":2851,"Ġdebt":2852,"Ġscreen":2853,"easury":2854,"ager":2855,"gresql":2856,"Ġ8":2857,"Ġcat":2858,"Ġforce":2859,"Ġvp":2860,"Ġrxswift":2861,"nv":2862,"ony":2863,"Ġltd":2864,"group":2865,"ansion":2866,"Ġden":2867,"ireless":2868,"Ġarch":2869,"Ġmin":2870,"Ġwater":2871,"Ġparts":2872,"yt":2873,"Ġbroadc":2874,"aily":2875,"ular":2876,"Ġsolidworks":2877,"jr":2878,"Ġgeodetic":2879,"Ġqlrr":2880,"ress":2881,"Ġsurveyor":2882,"unity":2883,"Ġpartnerships":2884,"Ġpractice":2885,"erpoint":2886,"distr":2887,"Ġaccess":2888,"Ġclai":2889,"Ġz":2890,"ango":2891,"Ġstructure":2892,"Ġvl":2893,"Ġvfx":2894,"electro":2895,"xt":2896,"iqu":2897,"Ġbig":2898,"jango":2899,"owner":2900,"Ġbenefits":2901,"export":2902,"Ġlong":2903,"Ġflow":2904,"Ġaccoutant":2905,"Ġexpansion":2906,"Ġmeeting":2907,"Ġleasing":2908,"Ġeditorial":2909,"shop":2910,"Ġkore":2911,"Ġbuu":2912,"Ġpurchaser":2913,"Ġschedule":2914,"Ġgener":2915,"profess":2916,"Ġpersonnel":2917,"Ġdeployment":2918,"bot":2919,"master":2920,"Ġadobe":2921,"Ġhybrid":2922,"ous":2923,"public":2924,"urid":2925,"teaching":2926,"Ġbartender":2927,"Ġbds":2928,"Ġta":2929,"uridical":2930,"ators":2931,"Ġexec":2932,"Ġcrp":2933,"vp":2934,"aper":2935,"Ġfloor":2936,"Ġmongodb":2937,"Ġpremium":2938,"Ġpage":2939,"Ġairfreight":2940,"Ġreporter":2941,"Ġthings":2942,"Ġpc":2943,"lab":2944,"Ġmanagers":2945,"ps":2946,"pm":2947,"Ġmake":2948,"Ġadm":2949,"Ġcompet":2950,"Ġcust":2951,"sour":2952,"Ġmanaging":2953,"chi":2954,"illing":2955,"Ġinterview":2956,"Ġnhiet":2957,"keeper":2958,"me":2959,"eel":2960,"be":2961,"Ġti":2962,"center":2963,"Ġ7":2964,"Ġchemistry":2965,"investment":2966,"Ġhcns":2967,"phot":2968,"tai":2969,"ulation":2970,"iversity":2971,"Ġjournal":2972,"Ġtrack":2973,"Ġmech":2974,"Ġsre":2975,"clin":2976,"Ġreceivable":2977,"Ġfit":2978,"Ġbarista":2979,"Ġcay":2980,"Ġresp":2981,"strument":2982,"Ġretoucher":2983,"Ġestimator":2984,"Ġkhieu":2985,"edia":2986,"Ġcode":2987,"Ġvlxd":2988,"coll":2989,"Ġadviser":2990,"Ġtot":2991,"civil":2992,"Ġclerical":2993,"Ġcompliances":2994,"ngh":2995,"Ġtask":2996,"Ġprotection":2997,"fter":2998,"etch":2999,"Ġhuan":3000,"Ġhealthcare":3001,"Ġthuyet":3002,"Ġpostgresql":3003,"national":3004,"dn":3005,"technology":3006,"Ġsector":3007,"vis":3008,"Ġdent":3009,"Ġacc":3010,"Ġhosp":3011,"Ġadvanced":3012,"car":3013,"Ġalgorithm":3014,"Ġyeu":3015,"Ġretouch":3016,"Ġassessment":3017,"hn":3018,"internal":3019,"tax":3020,"met":3021,"Ġtechnologist":3022,"Ġtran":3023,"Ġlecture":3024,"Ġ6":3025,"ions":3026,"Ġchar":3027,"Ġjuridical":3028,"ography":3029,"Ġgate":3030,"risk":3031,"Ġcategory":3032,"Ġcoordinate":3033,"Ġ9":3034,"Ġaccept":3035,"Ġlog":3036,"Ġteamlead":3037,"Ġshowroom":3038,"Ġmot":3039,"hi":3040,"Ġgam":3041,"ider":3042,"Ġassembler":3043,"001":3044,"ene":3045,"represent":3046,"dt":3047,"Ġapps":3048,"Ġnational":3049,"Ġprinting":3050,"maintenance":3051,"uss":3052,"ilit":3053,"health":3054,"Ġtransformation":3055,"Ġservlets":3056,"atics":3057,"rect":3058,"Ġportfolio":3059,"iveness":3060,"ious":3061,"Ġlawyer":3062,"Ġcalls":3063,"thi":3064,"imedia":3065,"Ġsupplier":3066,"Ġcai":3067,"merchandiser":3068,"Ġder":3069,"Ġ200":3070,"ctional":3071,"embedded":3072,"elancer":3073,"seo":3074,"Ġqlda":3075,"Ġkcs":3076,"ivate":3077,"Ġinterns":3078,"Ġpreparation":3079,"Ġforeign":3080,"cm":3081,"Ġ++":3082,"development":3083,"Ġrecov":3084,"Ġer":3085,"machine":3086,"Ġnhung":3087,"dai":3088,"Ġelectronic":3089,"ata":3090,"consulting":3091,"community":3092,"Ġlight":3093,"Ġevalu":3094,"gl":3095,"micro":3096,"Ġrf":3097,"ower":3098,"Ġapproval":3099,"Ġexchange":3100,"teacher":3101,"Ġsuper":3102,"eatment":3103,"document":3104,"Ġhospital":3105,"Ġclients":3106,"teller":3107,"ha":3108,"linux":3109,"ergy":3110,"game":3111,"eca":3112,"itory":3113,"Ġcargo":3114,"Ġstatist":3115,"set":3116,"sch":3117,"channel":3118,"ease":3119,"ormer":3120,"holesale":3121,"ving":3122,"Ġthuan":3123,"Ġeloper":3124,"Ġwel":3125,"Ġdjango":3126,"store":3127,"Ġjqu":3128,"Ġattor":3129,"Ġfilm":3130,"tual":3131,"Ġphoto":3132,"Ġdental":3133,"Ġeffectiveness":3134,"Ġattorney":3135,"Ġthreejs":3136,"Ġverification":3137,"dsm":3138,"Ġcafe":3139,"Ġscreenwriter":3140,"Ġfootwear":3141,"node":3142,"ism":3143,"Ġenergy":3144,"Ġpip":3145,"Ġpowerpoint":3146,"Ġcook":3147,"Ġvietnamese":3148,"Ġaml":3149,"hod":3150,"coordinator":3151,"Ġelectro":3152,"Ġmoving":3153,"hoa":3154,"Ġhoac":3155,"reception":3156,"manufacturing":3157,"Ġchuoi":3158,"place":3159,"Ġtherapist":3160,"Ġbod":3161,"bro":3162,"Ġnotar":3163,"xu":3164,"eration":3165,"Ġchot":3166,"Ġfund":3167,"oss":3168,"tsman":3169,"Ġdaily":3170,"Ġwriting":3171,"oreca":3172,"control":3173,"Ġanalytical":3174,"Ġemergency":3175,"idation":3176,"free":3177,"dsmax":3178,"Ġregion":3179,"Ġliqu":3180,"Ġdang":3181,"Ġcount":3182,"ternal":3183,"Ġrelationships":3184,"Ġfacilities":3185,"mar":3186,"pre":3187,"exper":3188,"Ġlic":3189,"programmer":3190,"Ġton":3191,"material":3192,"hav":3193,"Ġinnovation":3194,"itte":3195,"Ġnvkd":3196,"Ġma":3197,"Ġrequirements":3198,"Ġfab":3199,"Ġcyber":3200,"viet":3201,"Ġtreatment":3202,"Ġovers":3203,"Ġboi":3204,"Ġrecord":3205,"Ġsketch":3206,"Ġrad":3207,"quet":3208,"Ġafter":3209,"javas":3210,"ates":3211,"Ġhau":3212,"Ġdotnetcore":3213,"Ġeconomic":3214,"creative":3215,"moving":3216,"python":3217,"Ġmodern":3218,"safety":3219,"Ġeconomics":3220,"ritory":3221,"solutions":3222,"Ġdisaster":3223,"Ġmeetings":3224,"Ġdemo":3225,"Ġtruck":3226,"itt":3227,"Ġamerica":3228,"real":3229,"oin":3230,"ground":3231,"iment":3232,"Ġtreasury":3233,"support":3234,"onent":3235,"Ġdeep":3236,"rom":3237,"media":3238,"Ġdealer":3239,"Ġcfo":3240,"ond":3241,"buil":3242,"phien":3243,"Ġpages":3244,"aker":3245,"Ġvaluation":3246,"communication":3247,"Ġarray":3248,"Ġnhiep":3249,"adata":3250,"Ġmechatr":3251,"app":3252,"Ġtem":3253,"Ġjournalist":3254,"Ġfederal":3255,"lear":3256,"commerce":3257,"insurance":3258,"etics":3259,"chu":3260,"designer":3261,"avy":3262,"play":3263,"Ġmark":3264,"ized":3265,"Ġcustormer":3266,"Ġtoi":3267,"san":3268,"Ġtram":3269,"Ġsciences":3270,"professional":3271,"employ":3272,"ention":3273,"Ġcourse":3274,"Ġrsm":3275,"Ġdb":3276,"ellor":3277,"Ġselect":3278,"Ġmiddle":3279,"gu":3280,"ubles":3281,"ainter":3282,"clinical":3283,"time":3284,"Ġurgent":3285,"Ġsme":3286,"Ġdermat":3287,"mf":3288,"Ġsolving":3289,"atives":3290,"Ġvir":3291,"autician":3292,"Ġphotographers":3293,"Ġorient":3294,"Ġwaitress":3295,"Ġsport":3296,"Ġliquid":3297,"Ġsouth":3298,"Ġmaking":3299,"Ġtau":3300,"andid":3301,"oracle":3302,"Ġsmt":3303,"Ġshipper":3304,"Ġcertified":3305,"Ġdevice":3306,"Ġphotoshoot":3307,"Ġcommission":3308,"ĠM":3309,"Ġvin":3310,"environment":3311,"Ġforwarding":3312,"endor":3313,"Ġasia":3314,"Ġos":3315,"Ġlocal":3316,"rectary":3317,"Ġgraduate":3318,"Ġarchitectural":3319,"Ġselling":3320,"ea":3321,"Ġresol":3322,"Ġdevop":3323,"Ġga":3324,"ittee":3325,"ologation":3326,"xay":3327,"Ġcold":3328,"romat":3329,"Ġpha":3330,"Ġuniversity":3331,"Ġlearn":3332,"mod":3333,"orld":3334,"cham":3335,"Ġcoo":3336,"intendent":3337,"Ġwholesale":3338,"Ġtiec":3339,"ependent":3340,"Ġsolidity":3341,"frig":3342,"Ġtay":3343,"romatography":3344,"Ġdistrict":3345,"Ġscripting":3346,"Ġtick":3347,"Ġehs":3348,"ending":3349,"Ġnetworks":3350,"Ġhoreca":3351,"Ġkorean":3352,"Ġyears":3353,"Ġdraftsman":3354,"ration":3355,"ug":3356,"inder":3357,"Ġbasel":3358,"ivist":3359,"Ġlevels":3360,"ubleshoot":3361,"cass":3362,"Ġadwords":3363,"Ġdefine":3364,"Ġlenh":3365,"Ġillustrator":3366,"ful":3367,"Ġbeautician":3368,"Ġfeed":3369,"road":3370,"wind":3371,"Ġrepairer":3372,"Ġenrollment":3373,"the":3374,"Ġmobil":3375,"Ġtransportation":3376,"Ġevaluation":3377,"Ġcommittee":3378,"inu":3379,"Ġquantity":3380,"Ġcutter":3381,"sourcing":3382,"astic":3383,"Ġkhoe":3384,"Ġinstrument":3385,"rem":3386,"Ġtext":3387,"mfony":3388,"Ġbiet":3389,"Ġdevsysops":3390,"Ġpqc":3391,"kien":3392,"Ġxep":3393,"performance":3394,"oteker":3395,"nual":3396,"rev":3397,"procurement":3398,"Ġwaiter":3399,"Ġinstaller":3400,"Ġthin":3401,"Ġbanquet":3402,"trinh":3403,"Ġrelease":3404,"Ġpresentations":3405,"book":3406,"Ġgt":3407,"Ġsum":3408,"osql":3409,"Ġbased":3410,"ancy":3411,"Ġprocedure":3412,"dich":3413,"istrator":3414,"Ġaccepted":3415,"Ġpqa":3416,"ctv":3417,"Ġlien":3418,"Ġ10":3419,"Ġamericas":3420,"Ġwireless":3421,"Ġfunctional":3422,"Ġbase":3423,"Ġnhiem":3424,"internet":3425,"Ġclos":3426,"president":3427,"Ġstudy":3428,"sinh":3429,"rent":3430,"affic":3431,"Ġpresenter":3432,"Ġtesters":3433,"Ġcour":3434,"Ġdevsysop":3435,"Ġsteel":3436,"Ġexecutives":3437,"Ġbroadcaster":3438,"tain":3439,"Ġmethod":3440,"Ġphysical":3441,"Ġcir":3442,"ines":3443,"Ġmultimedia":3444,"Ġarchivist":3445,"Ġiqc":3446,"Ġbuild":3447,"nodejs":3448,"urrency":3449,"Ġtracking":3450,"Ġclerks":3451,"Ġcandid":3452,"Ġmont":3453,"Ġkhuyen":3454,"secretary":3455,"cad":3456,"ext":3457,"keeping":3458,"Ġlean":3459,"Ġinsights":3460,"elling":3461,"Ġens":3462,"Ġhm":3463,"Ġsecrectary":3464,"relations":3465,"Ġtelephone":3466,"stant":3467,"Ġfpt":3468,"Ġapprais":3469,"scaster":3470,"pol":3471,"Ġcounsellor":3472,"Ġoop":3473,"Ġsys":3474,"stain":3475,"Ġcomponent":3476,"Ġcontracts":3477,"Ġare":3478,"Ġcol":3479,"Ġfrom":3480,"alegal":3481,"Ġmedicine":3482,"Ġdv":3483,"Ġscientific":3484,"building":3485,"Ġchair":3486,"pharm":3487,"ursing":3488,"ibern":3489,"Ġconditioning":3490,"land":3491,"Ġpainter":3492,"ibernate":3493,"frigeration":3494,"active":3495,"compl":3496,"Ġkhao":3497,"bat":3498,"Ġcentral":3499,"Ġgd":3500,"irth":3501,"ecurity":3502,"receptionist":3503,"Ġbehav":3504,"aste":3505,"inventory":3506,"usive":3507,"Ġoutput":3508,"Ġapoteker":3509,"Ġpartners":3510,"Ġoqc":3511,"Ġbenefit":3512,"bersecurity":3513,"Ġcosmetics":3514,"hand":3515,"Ġswitchboard":3516,"academic":3517,"ume":3518,"unt":3519,"Ġhs":3520,"Ġhive":3521,"isine":3522,"analyst":3523,"Ġtren":3524,"ample":3525,"Ġremote":3526,"ne":3527,"Ġstory":3528,"Ġrecovery":3529,"arel":3530,"come":3531,"Ġinstallation":3532,"dis":3533,"Ġnosql":3534,"mo":3535,"hom":3536,"nghien":3537,"Ġml":3538,"isher":3539,"Ġbirth":3540,"uster":3541,"Ġcuisine":3542,"Ġsel":3543,"Ġmoc":3544,"Ġprovider":3545,"ductor":3546,"Ġsymfony":3547,"itter":3548,"Ġvision":3549,"Ġcty":3550,"Ġ12":3551,"Ġensure":3552,"Ġsustain":3553,"Ġissues":3554,"Ġvalidation":3555,"Ġjquery":3556,"Ġhomologation":3557,"ociat":3558,"stress":3559,"Ġmontage":3560,"gress":3561,"own":3562,"Ġstatements":3563,"Ġarrang":3564,"Ġie":3565,"mon":3566,"mem":3567,"Ġnewscaster":3568,"idential":3569,"ortgage":3570,"Ġcallcenter":3571,"javascript":3572,"Ġhibernate":3573,"ccc":3574,"managing":3575,"Ġppc":3576,"Ġfintech":3577,"Ġduyet":3578,"Ġcal":3579,"ete":3580,"ynam":3581,"odes":3582,"Ġuu":3583,"Ġhn":3584,"cuit":3585,"ocurrency":3586,"ptocurrency":3587,"Ġoc":3588,"Ġclick":3589,"Ġnuxtjs":3590,"Ġexecusive":3591,"tin":3592,"ports":3593,"Ġrecruiting":3594,"Ġliquidity":3595,"ological":3596,"tv":3597,"relationship":3598,"ential":3599,"Ġmanger":3600,"tiep":3601,"Ġhong":3602,"Ġspa":3603,"isstant":3604,"Ġpresenters":3605,"Ġmobilization":3606,"Ġpsychologists":3607,"Ġaz":3608,"hy":3609,"ective":3610,"iour":3611,"aman":3612,"Ġstandard":3613,"Ġcamera":3614,"Ġneed":3615,"Ġvirtual":3616,"Ġlat":3617,"aid":3618,"Ġchromatography":3619,"Ġrust":3620,"Ġhanoi":3621,"administration":3622,"posal":3623,"Ġ15":3624,"way":3625,"gd":3626,"Ġlai":3627,"Ġphe":3628,"Ġgiay":3629,"high":3630,"Ġconf":3631,"Ġtop":3632,"headhun":3633,"power":3634,"Ġoutbound":3635,"Ġcp":3636,"visual":3637,"services":3638,"cash":3639,"porary":3640,"Ġcollaborative":3641,"lp":3642,"Ġpeop":3643,"distrib":3644,"Ġexecution":3645,"equ":3646,"Ġns":3647,"Ġteamleader":3648,"Ġmetadata":3649,"Ġstage":3650,"Ġrules":3651,"Ġtroubleshoot":3652,"atering":3653,"Ġnhua":3654,"Ġmarketplace":3655,"Ġagric":3656,"Ġdecoration":3657,"Ġlicense":3658,"Ġcc":3659,"Ġdir":3660,"plant":3661,"Ġing":3662,"transl":3663,"Ġgames":3664,"tra":3665,"munications":3666,"Ġoperate":3667,"Ġgm":3668,"Ġcommunicator":3669,"Ġinvestigation":3670,"Ġdispat":3671,"sel":3672,"environmental":3673,"Ġthep":3674,"Ġdermatologist":3675,"direct":3676,"Ġkhich":3677,"Ġkpi":3678,"del":3679,"ada":3680,"Ġbooking":3681,"Ġsl":3682,"cassurance":3683,"illance":3684,"nhom":3685,"Ġtelemarketing":3686,"Ġbanh":3687,"education":3688,"Ġazure":3689,"labor":3690,"gia":3691,"cap":3692,"Ġdom":3693,"Ġsuperintendent":3694,"jor":3695,"editor":3696,"veillance":3697,"fraud":3698,"dl":3699,"partner":3700,"ceo":3701,"Ġarts":3702,"Ġbrse":3703,"Ġvideographer":3704,"abl":3705,"amil":3706,"war":3707,"Ġvendor":3708,"onductor":3709,"Ġipc":3710,"Ġpccc":3711,"emiconductor":3712,"encies":3713,"ervation":3714,"Ġsetup":3715,"Ġcryptocurrency":3716,"tlement":3717,"life":3718,"Ġsolve":3719,"ĠĠĠĠ":3720,"Ġagencies":3721,"red":3722,"iner":3723,"Ġfresh":3724,"Ġkhien":3725,"Ġrefrigeration":3726,"Ġkham":3727,"Ġmis":3728,"Ġthoat":3729,"representative":3730,"itional":3731,"Ġcomplaints":3732,"Ġform":3733,"Ġremitt":3734,"Ġrespons":3735,"Ġsummer":3736,"Ġmold":3737,"iles":3738,"Ġinventor":3739,"Ġcalling":3740,"Ġwaitstress":3741,"iso":3742,"lex":3743,"Ġib":3744,"Ġiv":3745,"cement":3746,"Ġdrawings":3747,"Ġpaint":3748,"Ġcoordinating":3749,"Ġflight":3750,"ison":3751,"Ġsfe":3752,"Ġmol":3753,"Ġmenu":3754,"Ġled":3755,"Ġlaser":3756,"Ġscheduling":3757,"tation":3758,"audit":3759,"unte":3760,"Ġcosmetic":3761,"Ġadmistrator":3762,"osp":3763,"Ġparalegal":3764,"Ġhung":3765,"Ġadvice":3766,"Ġinit":3767,"japanese":3768,"Ġroi":3769,"organ":3770,"advert":3771,"eman":3772,"Ġmonths":3773,"hardware":3774,"Ġplc":3775,"Ġ*":3776,"Ġgas":3777,"Ġtechniqu":3778,"Ġrecruit":3779,"Ġheadhunt":3780,"Ġgrapher":3781,"post":3782,"Ġcv":3783,"Ġtung":3784,"cat":3785,"Ġsysadmin":3786,"banking":3787,"Ġexternal":3788,"Ġdetail":3789,"Ġinterface":3790,"odesk":3791,"Ġquyen":3792,"angular":3793,"di":3794,"cert":3795,"ables":3796,"sa":3797,"ifications":3798,"Ġcompetitive":3799,"Ġnghi":3800,"Ġapprent":3801,"Ġsaas":3802,"esson":3803,"Ġfitness":3804,"member":3805,"Ġregulations":3806,"mware":3807,"Ġland":3808,"Ġdisplay":3809,"Ġcuc":3810,"Ġpatient":3811,"Ġinvestments":3812,"dien":3813,"telecom":3814,"Ġphotography":3815,"Ġgeneration":3816,"crm":3817,"Ġstoryteller":3818,"Ġfinal":3819,"headhunt":3820,"Ġqual":3821,"Ġexpense":3822,"iving":3823,"so":3824,"Ġcity":3825,"ivity":3826,"Ġworld":3827,"Ġopport":3828,"Ġprofile":3829,"Ġprivate":3830,"park":3831,"Ġpartie":3832,"Ġict":3833,"salesforce":3834,"Ġcounter":3835,"server":3836,"Ġshe":3837,"Ġtechlead":3838,"Ġtuan":3839,"copy":3840,"urities":3841,"Ġlighting":3842,"esy":3843,"igur":3844,"Ġappraisal":3845,"tour":3846,"Ġworks":3847,"Ġwrite":3848,"unteer":3849,"camp":3850,"otional":3851,"Ġwaitstaff":3852,"Ġannual":3853,"remote":3854,"Ġmare":3855,"Ġscripts":3856,"Ġphysician":3857,"Ġqe":3858,"reach":3859,"Ġusd":3860,"Ġbehavior":3861,"Ġsim":3862,"aintain":3863,"Ġnen":3864,"Ġapprentice":3865,"asting":3866,"Ġenginner":3867,"Ġonly":3868,"country":3869,"Ġ30":3870,"Ġcomputing":3871,"Ġran":3872,"Ġoto":3873,"Ġwelder":3874,"Ġmechatronics":3875,"Ġthien":3876,"Ġsketchup":3877,"do":3878,"ablement":3879,"middle":3880,"Ġinterpersonal":3881,"Ġcollaborate":3882,"Ġwaiting":3883,"load":3884,"uar":3885,"Ġshipment":3886,"eward":3887,"Ġareas":3888,"cam":3889,"Ġbre":3890,"Ġcrew":3891,"Ġvideography":3892,"Ġident":3893,"Ġdevices":3894,"Ġcameraman":3895,"Ġmachinery":3896,"Ġexpertise":3897,"Ġcatering":3898,"automotive":3899,"Ġedit":3900,"Ġconsultancy":3901,"Ġnursing":3902,"Ġcollections":3903,"Ġvoice":3904,"tp":3905,"Ġtv":3906,"Ġchao":3907,"ube":3908,"Ġstate":3909,"oth":3910,"Ġcircuit":3911,"offee":3912,"iliate":3913,"Ġautodesk":3914,"Ġcorpor":3915,"Ġcentre":3916,"Ġenablement":3917,"Ġclosing":3918,"Ġfreelancer":3919,"developers":3920,"Ġfish":3921,"order":3922,"programm":3923,"iguration":3924,"Ġcontrols":3925,"iller":3926,"Ġadj":3927,"Ġexperiment":3928,"ruby":3929,"hotel":3930,"Ġadword":3931,"ors":3932,"phys":3933,"Ġbancassurance":3934,"Ġthieu":3935,"ggage":3936,"wide":3937,"Ġclaims":3938,"iency":3939,"uction":3940,"consumer":3941,"eger":3942,"Ġflu":3943,"thanh":3944,"Ġngay":3945,"amily":3946,"Ġgeodesy":3947,"Ġwe":3948,"quant":3949,"Ġmam":3950,"infrastructure":3951,"istration":3952,"native":3953,"Ġsurveillance":3954,"vietnam":3955,"broker":3956,"tong":3957,"Ġheavy":3958,"Ġyen":3959,"technician":3960,"Ġcontinu":3961,"eline":3962,"efigh":3963,"Ġevaluate":3964,"truyen":3965,"Ġowners":3966,"pense":3967,"Ġsuat":3968,"aft":3969,"Ġoffic":3970,"Ġembed":3971,"Ġcybersecurity":3972,"electric":3973,"Ġnav":3974,"Ġhosting":3975,"Ġaid":3976,"elopers":3977,"motion":3978,"ussiness":3979,"sub":3980,"manual":3981,"Ġtaxation":3982,"Ġheadhunter":3983,"print":3984,"ellow":3985,"Ġcounseling":3986,"Ġwebgl":3987,"Ġeast":3988,"coun":3989,"nt":3990,"Ġlo":3991,"igma":3992,"iology":3993,"Ġsource":3994,"Ġmix":3995,"Ġluoi":3996,"ociates":3997,"tham":3998,"utr":3999,"Ġediting":4000,"kting":4001,"Ġload":4002,"electronic":4003,"Ġtelemarketer":4004,"hse":4005,"Ġchannels":4006,"Ġmaketing":4007,"Ġopt":4008,"flow":4009,"mult":4010,"ina":4011,"sum":4012,"urban":4013,"Ġdesigning":4014,"Ġcharge":4015,"xh":4016,"Ġbal":4017,"ees":4018,"Ġdispatcher":4019,"Ġticket":4020,"gien":4021,"unch":4022,"branch":4023,"write":4024,"Ġ000":4025,"Ġmgr":4026,"Ġmotions":4027,"lect":4028,"Ġbackground":4029,"Ġexpl":4030,"Ġcandidate":4031,"Ġlif":4032,"dro":4033,"Ġpb":4034,"atoin":4035,"Ġread":4036,"devs":4037,"Ġthinking":4038,"oter":4039,"Ġbell":4040,"inciple":4041,"Ġexam":4042,"Ġav":4043,"Ġsettlement":4044,"google":4045,"Ġlia":4046,"Ġcompanies":4047,"Ġmortgage":4048,"Ġrest":4049,"Ġincident":4050,"Ġchange":4051,"Ġoil":4052,"Ġdistributor":4053,"Ġorganizational":4054,"Ġelectromechanical":4055,"certified":4056,"Ġaide":4057,"Ġwaste":4058,"Ġetl":4059,"Ġradio":4060,"Ġfirmware":4061,"Ġacquisitions":4062,"Ġpeople":4063,"rant":4064,"hel":4065,"Ġperl":4066,"ference":4067,"Ġterritory":4068,"rad":4069,"ape":4070,"Ġpositions":4071,"Ġclaim":4072,"Ġic":4073,"Ġnext":4074,"inside":4075,"Ġspecifications":4076,"tieng":4077,"Ġkol":4078,"strategy":4079,"gap":4080,"Ġcro":4081,"translator":4082,"Ġtraffic":4083,"analyt":4084,"fir":4085,"Ġsolar":4086,"Ġcorporation":4087,"Ġstall":4088,"Ġsteward":4089,"wa":4090,"Ġinstit":4091,"Ġhsse":4092,"sur":4093,"Ġnegotiation":4094,"operational":4095,"Ġproposal":4096,"Ġotc":4097,"restaurant":4098,"acial":4099,"Ġrun":4100,"communications":4101,"Ġbridal":4102,"open":4103,"Ġactive":4104,"Ġibm":4105,"Ġir":4106,"trien":4107,"Ġsmall":4108,"Ġmotor":4109,"website":4110,"microsoft":4111,"structural":4112,"Ġfix":4113,"Ġhostess":4114,"loc":4115,"Ġluggage":4116,"Ġchap":4117,"Ġcollaborators":4118,"Ġmeas":4119,"Ġmarekting":4120,"home":4121,"ri":4122,"agile":4123,"Ġfinull":4124,"Ġspark":4125,"Ġhospitality":4126,"doi":4127,"advertising":4128,"Ġpet":4129,"Ġbanker":4130,"Ġfirefigh":4131,"Ġoutreach":4132,"Ġcountry":4133,"Ġimaging":4134,"cisco":4135,"any":4136,"Ġcas":4137,"Ġarchitects":4138,"Ġhrm":4139,"side":4140,"Ġdvkh":4141,"water":4142,"asm":4143,"Ġstart":4144,"egr":4145,"ray":4146,"Ġsample":4147,"administrator":4148,"craft":4149,"Ġvolt":4150,"ft":4151,"evator":4152,"ffer":4153,"Ġneeds":4154,"Ġmetal":4155,"Ġcase":4156,"Ġlesson":4157,"Ġyout":4158,"ecommerce":4159,"Ġaccur":4160,"thong":4161,"ensic":4162,"ean":4163,"Ġcommissioning":4164,"Ġrobot":4165,"Ġmodelling":4166,"Ġmagaz":4167,"travel":4168,"Ġtransactions":4169,"scrum":4170,"Ġcut":4171,"Ġfellow":4172,"Ġstatement":4173,"Ġtre":4174,"Ġexcecutive":4175,"sua":4176,"aver":4177,"Ġpattern":4178,"Ġconsultants":4179,"Ġforec":4180,"Ġstudies":4181,"equipment":4182,"tn":4183,"ible":4184,"Ġhygien":4185,"Ġremittance":4186,"inion":4187,"Ġconsumers":4188,"Ġcommunicatoin":4189,"employee":4190,"Ġcleaner":4191,"reactjs":4192,"hematics":4193,"officer":4194,"Ġpromoter":4195,"Ġsemiconductor":4196,"Ġccie":4197,"integr":4198,"apply":4199,"log":4200,"Ġagriculture":4201,"Ġtoc":4202,"usic":4203,"Ġinput":4204,"instruct":4205,"Ġep":4206,"Ġmarkets":4207,"Ġspecialists":4208,"Ġviettel":4209,"Ġvoltage":4210,"Ġbia":4211,"heast":4212,"summer":4213,"ultural":4214,"Ġcur":4215,"ments":4216,"Ġexcell":4217,"guest":4218,"02":4219,"card":4220,"Ġaction":4221,"frame":4222,"ooking":4223,"bal":4224,"Ġguid":4225,"Ġgroups":4226,"ricul":4227,"Ġcryptograph":4228,"Ġdentistry":4229,"Ġ25":4230,"gers":4231,"uble":4232,"akery":4233,"Ġfire":4234,"windows":4235,"Ġnan":4236,"ister":4237,"truc":4238,"ink":4239,"Ġsalad":4240,"priate":4241,"Ġunits":4242,"Ġkhoang":4243,"teamlead":4244,"otential":4245,"aa":4246,"econom":4247,"school":4248,"Ġnlp":4249,"sk":4250,"Ġdynam":4251,"Ġplastic":4252,"12":4253,"ader":4254,"datum":4255,"Ġdesktop":4256,"logistic":4257,"riculum":4258,"Ġwest":4259,"Ġsetter":4260,"Ġkim":4261,"Ġxac":4262,"lege":4263,"stock":4264,"transport":4265,"html":4266,"regul":4267,"presales":4268,"Ġdentist":4269,"Ġnatural":4270,"Ġsustainable":4271,"Ġtier":4272,"yspark":4273,"Ġopinion":4274,"Ġconn":4275,"mep":4276,"Ġtach":4277,"Ġreleas":4278,"hoc":4279,"Ġvirtualization":4280,"Ġboot":4281,"Ġanalytic":4282,"Ġsites":4283,"Ġmobility":4284,"Ġreleases":4285,"pip":4286,"Ġghi":4287,"phap":4288,"Ġnotarized":4289,"manage":4290,"over":4291,"Ġnews":4292,"ificial":4293,"Ġvolume":4294,"Ġ2000":4295,"Ġlon":4296,"assemb":4297,"10":4298,"65":4299,"Ġunderwriting":4300,"overs":4301,"Ġfabric":4302,"Ġlibr":4303,"Ġconfiguration":4304,"uarial":4305,"Ġwar":4306,"call":4307,"Ġtable":4308,"Ġcertific":4309,"experience":4310,"Ġemail":4311,"Ġprocesses":4312,"Ġsecurities":4313,"Ġmind":4314,"Ġren":4315,"autocad":4316,"Ġabroad":4317,"Ġraw":4318,"ĠP":4319,"Ġshoot":4320,"Ġesports":4321,"Ġbhxh":4322,"Ġprofit":4323,"company":4324,"Ġesh":4325,"Ġmaintain":4326,"Ġkhdn":4327,"Ġreviews":4328,"Ġsen":4329,"Ġeffic":4330,"ico":4331,"stand":4332,"Ġnetty":4333,"Ġetc":4334,"inbound":4335,"bar":4336,"Ġpmo":4337,"hor":4338,"elts":4339,"dm":4340,"Ġmining":4341,"learning":4342,"Ġcooperation":4343,"Ġpostman":4344,"user":4345,"Ġliter":4346,"eadmin":4347,"Ġexperienced":4348,"Ġvoip":4349,"rui":4350,"ecker":4351,"Ġboc":4352,"Ġresort":4353,"Ġstudio":4354,"bas":4355,"Ġ2012":4356,"igration":4357,"2000":4358,"Ġao":4359,"rece":4360,"Ġtrend":4361,"na":4362,"advisor":4363,"Ġgl":4364,"right":4365,"Ġpostal":4366,"Ġchecks":4367,"Ġsea":4368,"gs":4369,"Ġdocumentary":4370,"Ġtelecommunications":4371,"mal":4372,"quy":4373,"delivery":4374,"Ġstaging":4375,"distribution":4376,"Ġmill":4377,"develop":4378,"Ġsucess":4379,"Ġtemporary":4380,"oom":4381,"Ġbuilder":4382,"Ġgre":4383,"rf":4384,"Ġrepresentatives":4385,"Ġscientists":4386,"Ġuc":4387,"anim":4388,"Ġsaps":4389,"Ġcommand":4390,"els":4391,"phuc":4392,"Ġsing":4393,"Ġby":4394,"Ġcareer":4395,"hosp":4396,"Ġmass":4397,"Ġfacilit":4398,"seniour":4399,"Ġroad":4400,"Ġability":4401,"ochem":4402,"compliance":4403,"Ġroute":4404,"garment":4405,"Ġhmtl":4406,"Ġtraditional":4407,"Ġbenh":4408,"erver":4409,"ems":4410,"asp":4411,"tho":4412,"ave":4413,"sharepoint":4414,"Ġsd":4415,"Ġcertificate":4416,"collection":4417,"Ġbus":4418,"ysis":4419,"tle":4420,"check":4421,"Ġindependent":4422,"senious":4423,"Ġunified":4424,"purchase":4425,"loan":4426,"Ġstocker":4427,"Ġissue":4428,"Ġnotarize":4429,"ibility":4430,"mt":4431,"Ġdispense":4432,"property":4433,"ulty":4434,"elding":4435,"Ġinside":4436,"Ġmap":4437,"Ġsau":4438,"Ġhris":4439,"Ġscholarly":4440,"esign":4441,"agr":4442,"cyber":4443,"Ġstatistical":4444,"erl":4445,"Ġaffiliate":4446,"ema":4447,"Ġlease":4448,"Ġsetting":4449,"patient":4450,"we":4451,"Ġcoffee":4452,"Ġtraning":4453,"Ġvisio":4454,"Ġtraveler":4455,"advanced":4456,"auto":4457,"programmable":4458,"lecturer":4459,"ache":4460,"partn":4461,"Ġatld":4462,"fil":4463,"Ġkhcn":4464,"Ġtaxtation":4465,"Ġresolution":4466,"ging":4467,"esales":4468,"Ġsoft":4469,"Ġplatforms":4470,"duoc":4471,"customs":4472,"Ġprogrammable":4473,"interns":4474,"Ġhaz":4475,"issier":4476,"Ġpostoffice":4477,"chay":4478,"fire":4479,"omed":4480,"Ġ2015":4481,"help":4482,"che":4483,"ule":4484,"Ġsong":4485,"hcm":4486,"Ġpyspark":4487,"rocess":4488,"ocol":4489,"Ġbenchmarking":4490,"Ġdrafting":4491,"arget":4492,"ainer":4493,"bridge":4494,"educational":4495,"Ġhd":4496,"crete":4497,"ivid":4498,"utrition":4499,"elt":4500,"job":4501,"Ġtrat":4502,"packaging":4503,"sl":4504,"Ġfirefighter":4505,"Ġpotential":4506,"Ġexcel":4507,"Ġdirectory":4508,"Ġmajor":4509,"ugh":4510,"inst":4511,"Ġsaleadmin":4512,"salesman":4513,"Ġeducator":4514,"forcement":4515,"Ġescal":4516,"Ġtypist":4517,"Ġstockbroker":4518,"Ġsupplies":4519,"Ġvinh":4520,"Ġkd":4521,"igation":4522,"Ġgir":4523,"produc":4524,"Ġapparel":4525,"Ġsigma":4526,"itation":4527,"Ġemployees":4528,"Ġalliance":4529,"Ġtranslation":4530,"dao":4531,"Ġurban":4532,"collabor":4533,"partnership":4534,"eneer":4535,"ca":4536,"col":4537,"Ġcomtor":4538,"arta":4539,"Ġcompos":4540,"vin":4541,"Ġsafe":4542,"Ġeh":4543,"Ġdirection":4544,"akarta":4545,"hvac":4546,"iring":4547,"Ġtravelers":4548,"Ġbalance":4549,"Ġqh":4550,"Ġcontr":4551,"Ġership":4552,"Ġindesign":4553,"Ġgovernance":4554,"local":4555,"izer":4556,"Ġadvoc":4557,"law":4558,"ĠY":4559,"Ġcopywriting":4560,"unix":4561,"Ġvar":4562,"Ġbach":4563,"Ġchild":4564,"minal":4565,"Ġtherapy":4566,"payroll":4567,"onist":4568,"shipping":4569,"Ġpiping":4570,"ush":4571,"qs":4572,"son":4573,"arketing":4574,"biology":4575,"elor":4576,"Ġassistants":4577,"Ġcontroll":4578,"Ġclassroom":4579,"Ġhoang":4580,"Ġstewardess":4581,"ngan":4582,"unit":4583,"dau":4584,"inary":4585,"ou":4586,"district":4587,"Ġliaison":4588,"itical":4589,"mot":4590,"iler":4591,"nd":4592,"Ġpreprocess":4593,"Ġfluent":4594,"Ġactivity":4595,"shore":4596,"insp":4597,"Ġchecker":4598,"Ġlink":4599,"ball":4600,"Ġvnd":4601,"Ġpreprocessor":4602,"Ġdevelopper":4603,"Ġdrill":4604,"ividual":4605,"branding":4606,"wood":4607,"Ġamb":4608,"ction":4609,"Ġtw":4610,"Ġww":4611,"luat":4612,"Ġexcellence":4613,"lanh":4614,"Ġintelligent":4615,"bac":4616,"Ġsound":4617,"Ġbilling":4618,"Ġmanaged":4619,"dung":4620,"gy":4621,"Ġgio":4622,"Ġbiochem":4623,"show":4624,"ature":4625,"agn":4626,"trainee":4627,"Ġexaminer":4628,"revenue":4629,"Ġjavaserver":4630,"**":4631,"Ġantt":4632,"omedical":4633,"Ġbuon":4634,"Ġ19":4635,"estic":4636,"assist":4637,"Ġappraise":4638,"Ġchemist":4639,"Ġaccouting":4640,"fashion":4641,"inform":4642,"Ġ9001":4643,"Ġcapability":4644,"iers":4645,"Ġpum":4646,"Ġshows":4647,"Ġappropriate":4648,"base":4649,"Ġstrut":4650,"hrbp":4651,"Ġgen":4652,"quang":4653,"par":4654,"Ġhcmc":4655,"Ġpatissier":4656,"Ġbakery":4657,"Ġforensic":4658,"Ġvalve":4659,"Ġtextile":4660,"erformance":4661,"Ġaudio":4662,"Ġhygienist":4663,"freelancer":4664,"ador":4665,"hern":4666,"ruiment":4667,"chung":4668,"wer":4669,"Ġcoating":4670,"shift":4671,"Ġfabr":4672,"usion":4673,"Ġsponsorship":4674,"Ġ2007":4675,"gol":4676,"Ġoption":4677,"bod":4678,"Ġbussiness":4679,"Ġrequest":4680,"gis":4681,"Ġut":4682,"Ġdirectors":4683,"tool":4684,"Ġdac":4685,"Ġbse":4686,"Ġnhien":4687,"Ġ13":4688,"Ġopportunity":4689,"Ġinstitution":4690,"xuat":4691,"ĠPerformance":4692,"Ġ17":4693,"Ġunderwriter":4694,"Ġsimulation":4695,"sn":4696,"Ġxuc":4697,"ds":4698,"Ġnhac":4699,"nguyen":4700,"ird":4701,"spr":4702,"Ġeu":4703,"hc":4704,"mua":4705,"Ġid":4706,"assitant":4707,"Ġser":4708,"stat":4709,"Ġger":4710,"smart":4711,"Ġmc":4712,"interior":4713,"experienced":4714,"ream":4715,"Ġqldt":4716,"Ġproblems":4717,"Ġgiac":4718,"cashier":4719,"Ġanimal":4720,"Ġalliances":4721,"Ġresolve":4722,"gression":4723,"furniture":4724,"Ġmu":4725,"Ġlending":4726,"lines":4727,"merchandising":4728,"Ġmount":4729,"Ġkv":4730,"Ġnation":4731,"Ġdevele":4732,"Ġjakarta":4733,"ather":4734,"telesales":4735,"api":4736,"Ġfoc":4737,"regulatory":4738,"Ġfarm":4739,"dress":4740,"day":4741,"rier":4742,"Ġdiem":4743,"Ġdash":4744,"Ġgradu":4745,"afood":4746,"cb":4747,"resp":4748,"facility":4749,"oice":4750,"Ġnegoti":4751,"Ġmba":4752,"Ġaqu":4753,"fferent":4754,"Ġbp":4755,"Ġqualitative":4756,"Ġproper":4757,"Ġqhkh":4758,"Ġmatter":4759,"independent":4760,"cent":4761,"search":4762,"Ġtourism":4763,"Ġclub":4764,"Ġforecast":4765,"uch":4766,"Ġinform":4767,"Ġsignal":4768,"itr":4769,"Ġstation":4770,"Ġpref":4771,"Ġtechniques":4772,"cel":4773,"enium":4774,"thuong":4775,"ulp":4776,"ges":4777,"Ġpan":4778,"Ġngo":4779,"Ġreward":4780,"salesperson":4781,"accounts":4782,"Ġsupervise":4783,"Ġadmissions":4784,"cour":4785,"Ġalt":4786,"wealth":4787,"reg":4788,"Ġwebmaster":4789,"uxury":4790,"ngu":4791,"iatives":4792,"hospital":4793,"Ġuse":4794,"Ġassociates":4795,"tem":4796,"Ġthan":4797,"kong":4798,"Ġdestin":4799,"deal":4800,"mag":4801,"Ġax":4802,"Ġphai":4803,"Vien":4804,"rics":4805,"wordpress":4806,"Ġpastrycook":4807,"chinh":4808,"Ġbenchmarke":4809,"Ġshare":4810,"Ġmathematics":4811,"ks":4812,"Ġgirl":4813,"Ġtm":4814,"payment":4815,"metal":4816,"Ġdeverl":4817,"category":4818,"Ġcooper":4819,"Ġdestination":4820,"qt":4821,"sell":4822,"superv":4823,"researcher":4824,"Ġequipments":4825,"Ġidentity":4826,"Ġtgd":4827,"factory":4828,"spaper":4829,"Ġinitiatives":4830,"Ġtrouble":4831,"Ġfacilitator":4832,"Ġtranh":4833,"Ġrequirement":4834,"Ġlim":4835,"Ġmodels":4836,"class":4837,"engineers":4838,"Ġissuer":4839,"ench":4840,"Ġelevator":4841,"Ġvalue":4842,"tran":4843,"Ġcover":4844,"Ġfinacial":4845,"Ġdelev":4846,"analysis":4847,"ances":4848,"Ġcart":4849,"odial":4850,"Ġincome":4851,"Ġwire":4852,"territory":4853,"Ġenforcement":4854,"Ġquot":4855,"ley":4856,"Ġadministrators":4857,"Ġgolf":4858,"may":4859,"maker":4860,"gn":4861,"Ġsew":4862,"Ġambass":4863,"chinese":4864,"Ġconduct":4865,"Ġreduxjs":4866,"Ġdh":4867,"Ġstocks":4868,"Ġexpat":4869,"Ġvolunteer":4870,"Ġsports":4871,"Ġprefer":4872,"Ġtake":4873,"igence":4874,"ustral":4875,"Ġpcb":4876,"Ġmindset":4877,"Ġefficiency":4878,"Ġmergers":4879,"erging":4880,"ta":4881,"anger":4882,"Ġbhtn":4883,"contractor":4884,"cto":4885,"pb":4886,"jun":4887,"Ġcopywrite":4888,"Ġprotocol":4889,"ranty":4890,"Ġgoal":4891,"Ġvisa":4892,"Ġdelevoper":4893,"wireless":4894,"Ġworkers":4895,"Ġdomain":4896,"Ġlot":4897,"Ġmarine":4898,"ik":4899,"inema":4900,"Ġcreation":4901,"egment":4902,"Ġaccident":4903,"Ġcontinuous":4904,"ĠZ":4905,"Ġpub":4906,"mak":4907,"ino":4908,"Ġkts":4909,"Ġ14":4910,"Ġ2013":4911,"Ġmixer":4912,"Ġacqu":4913,"Ġoptical":4914,"ere":4915,"Ġpromotional":4916,"Ġreduction":4917,"pes":4918,"Ġxet":4919,"scape":4920,"Ġworldwide":4921,"read":4922,"teleph":4923,"onomist":4924,"Ġdeveleoper":4925,"ica":4926,"Ġtrim":4927,"admission":4928,"Ġrevamp":4929,"Ġtasks":4930,"1500":4931,"Ġfb":4932,"Ġvmware":4933,"Ġvisualization":4934,"Ġesl":4935,"merchandise":4936,"hold":4937,"sung":4938,"huong":4939,"Ġpass":4940,"Ġbike":4941,"Ġbrew":4942,"Ġtrai":4943,"Ġchatpage":4944,"costing":4945,"Ġtelephonist":4946,"cup":4947,"interpreter":4948,"Ġcurriculum":4949,"Ġfamily":4950,"chat":4951,"Ġsurface":4952,"Ġmekong":4953,"Ġinstructional":4954,"ĠMarketing":4955,"buy":4956,"Ġnature":4957,"ering":4958,"Ġtig":4959,"Ġnau":4960,"Ġhard":4961,"Ġjpa":4962,"ove":4963,"Ġculture":4964,"ilot":4965,"Ġresidential":4966,"ank":4967,"Ġassisstant":4968,"Ġsupporter":4969,"Ġchemicals":4970,"flutter":4971,"Ġbhyt":4972,"Ġpoint":4973,"Ġwr":4974,"foreign":4975,"Ġregression":4976,"ishing":4977,"ĠSu":4978,"lic":4979,"Ġkeep":4980,"Ġsigning":4981,"ited":4982,"Ġlaws":4983,"rope":4984,"abilities":4985,"Ġartificial":4986,"Ġcampaigns":4987,"photograph":4988,"Ġoem":4989,"Ġ2010":4990,"Ġassessments":4991,"gam":4992,"Ġshooting":4993,"iot":4994,"sys":4995,"Ġitems":4996,"Ġcreate":4997,"Ġloss":4998,"irement":4999,"ollow":5000,"Ġfacade":5001,"lay":5002,"Ġoverseas":5003,"Ġuong":5004,"char":5005,"ets":5006,"photos":5007,"ination":5008,"icip":5009,"Ġwan":5010,"phone":5011,"elances":5012,"nguoi":5013,"Ġmand":5014,"Ġassign":5015,"big":5016,"Ġplay":5017,"Ġfaculty":5018,"imary":5019,"struong":5020,"Ġfunction":5021,"owners":5022,"cro":5023,"Ġambassador":5024,"stor":5025,"Ġtransfer":5026,"Ġinvestigator":5027,"ĠH":5028,"Ġten":5029,"Ġcpr":5030,"Ġnutrition":5031,"Ġopening":5032,"Ġtableau":5033,"emergency":5034,"Ġfocus":5035,"govern":5036,"trad":5037,"Ġresult":5038,"Ġlow":5039,"ipper":5040,"Ġswitching":5041,"Ġcm":5042,"estern":5043,"Ġconnect":5044,"cua":5045,"ĠC":5046,"former":5047,"Ġcms":5048,"Ġhire":5049,"Ġdevelopement":5050,"Ġadminstr":5051,"Ġpac":5052,"umber":5053,"Ġphay":5054,"Ġanalyzing":5055,"Ġtarget":5056,"Ġcd":5057,"Ġhandler":5058,"Ġ1500":5059,"acenter":5060,"iple":5061,"ĠSue":5062,"working":5063,"Ġrecruiment":5064,"Ġrespon":5065,"Ġbut":5066,"Ġhip":5067,"chef":5068,"Ġstar":5069,"standing":5070,"Ġtiet":5071,"report":5072,"eria":5073,"host":5074,"Ġaltium":5075,"Ġdod":5076,"uclear":5077,"Ġsuite":5078,"Ġcontainer":5079,"marine":5080,"fun":5081,"Ġtom":5082,"Ġdecision":5083,"vol":5084,"Ġkt":5085,"Ġdap":5086,"ingu":5087,"Ġgrinder":5088,"mediate":5089,"Ġtec":5090,"Ġonsite":5091,"facebook":5092,"Ġfeedback":5093,"Ġbag":5094,"transaction":5095,"Ġlive":5096,"Ġcaptain":5097,"Ġpo":5098,"heel":5099,"Ġself":5100,"Ġbellman":5101,"Ġreceivables":5102,"band":5103,"ely":5104,"20":5105,"lan":5106,"budget":5107,"Ġmachines":5108,"Ġprocessor":5109,"rug":5110,"Ġverbal":5111,"len":5112,"Ġpaper":5113,"Ġagr":5114,"Ġcalc":5115,"station":5116,"Ġactuarial":5117,"eneur":5118,"west":5119,"arian":5120,"using":5121,"specialists":5122,"footwear":5123,"Ġil":5124,"atch":5125,"Ġveter":5126,"counsel":5127,"alog":5128,"Ġchon":5129,"entertain":5130,"recruiter":5131,"Ġsamsung":5132,"cos":5133,"afeteria":5134,"Ġmicrobiology":5135,"aign":5136,"gas":5137,"gies":5138,"Ġrout":5139,"Ġexpend":5140,"statist":5141,"Ġprinter":5142,"flight":5143,"ht":5144,"agric":5145,"itle":5146,"munication":5147,"Ġintegrity":5148,"Ġchairman":5149,"Ġfair":5150,"Ġhot":5151,"Ġlarge":5152,"pet":5153,"psych":5154,"suppl":5155,"Ġyoutube":5156,"nort":5157,"oil":5158,"Ġaustral":5159,"adobe":5160,"Ġfinisher":5161,"Ġmandarin":5162,"surg":5163,"ange":5164,"Ġgeneralist":5165,"mong":5166,"Ġwell":5167,"Ġcopyright":5168,"Ġrouting":5169,"Ġelectrician":5170,"Ġproductivity":5171,"Ġspeaker":5172,"Ġsn":5173,"Ġpressure":5174,"Ġsegment":5175,"iling":5176,"electronics":5177,"Ġmolding":5178,"po":5179,"Ġrental":5180,"Ġ27":5181,"cas":5182,"government":5183,"ialist":5184,"Ġinterpr":5185,"Ġielts":5186,"model":5187,"aws":5188,"Ġmusic":5189,"Ġhed":5190,"tery":5191,"gre":5192,"polic":5193,"ude":5194,"Ġselenium":5195,"ament":5196,"Ġcarrier":5197,"Ġgulp":5198,"Ġdisc":5199,"azon":5200,"pract":5201,"assistants":5202,"Ġschedules":5203,"urement":5204,"Ġlaunch":5205,"word":5206,"Ġdeverloper":5207,"vat":5208,"Ġxi":5209,"Ġbiomedical":5210,"Ġarrangements":5211,"Ġxanh":5212,"Ġcluster":5213,"Ġseafood":5214,"Ġtotal":5215,"sf":5216,"Ġbiology":5217,"hu":5218,"Ġnegotiate":5219,"Ġhair":5220,"Ġrelay":5221,"Ġresponse":5222,"dresser":5223,"Ġtur":5224,"Ġestimating":5225,"Ġfeeder":5226,"Ġsaig":5227,"Ġhu":5228,"Ġ18":5229,"science":5230,"Ġdeveloping":5231,"Ġstrate":5232,"physical":5233,"Ġcross":5234,"Ġreceive":5235,"Ġoutsourcing":5236,"leasing":5237,"Ġdynamics":5238,"representatives":5239,"Ġdifferent":5240,"isis":5241,"Ġnewspaper":5242,"repair":5243,"Ġota":5244,"don":5245,"Ġxd":5246,"prem":5247,"Ġcso":5248,"Ġstrategies":5249,"bus":5250,"Ġarm":5251,"Ġfda":5252,"Ġintro":5253,"Ġsitu":5254,"eam":5255,"federal":5256,"Ġdog":5257,"Ġ2016":5258,"vue":5259,"Ġmain":5260,"agnost":5261,"photoshop":5262,"jet":5263,"det":5264,"Ġloai":5265,"Ġchieu":5266,"Ġauthor":5267,"Ġrecruiters":5268,"ni":5269,"Ġpt":5270,"Ġmanagment":5271,"private":5272,"pharmaceutical":5273,"bs":5274,"door":5275,"Ġindividual":5276,"istered":5277,"si":5278,"entertainment":5279,"Ġdepos":5280,"Ġbookkeeper":5281,"Ġwelding":5282,"sea":5283,"Ġcell":5284,"Ġhon":5285,"Ġaccuracy":5286,"Ġ11":5287,"Ġrenew":5288,"advisory":5289,"coc":5290,"Ġhp":5291,"gear":5292,"Ġlimited":5293,"Ġhrd":5294,"Ġtele":5295,"laboratory":5296,"transportation":5297,"bing":5298,"Ġreservation":5299,"Ġequity":5300,"repr":5301,"make":5302,"khai":5303,"agram":5304,"ension":5305,"presale":5306,"db":5307,"Ġbom":5308,"Ġbudgeting":5309,"Ġescalation":5310,"evision":5311,"Ġgrader":5312,"Ġecodial":5313,"ardous":5314,"text":5315,"she":5316,"Ġ50":5317,"kore":5318,"lai":5319,"Ġum":5320,"oodle":5321,"Ġselection":5322,"inal":5323,"Ġcatia":5324,"case":5325,"ycle":5326,"Ġacount":5327,"Ġrefer":5328,"coach":5329,"assembly":5330,"Ġcable":5331,"ished":5332,"solar":5333,"Ġpainting":5334,"ustrator":5335,"Ġcuoc":5336,"Ġbhnt":5337,"position":5338,"script":5339,"Ġsai":5340,"present":5341,"Ġpetro":5342,"theo":5343,"Ġlabel":5344,"motor":5345,"investor":5346,"Ġvoi":5347,"Ġhol":5348,"Ġabuse":5349,"Ġfitter":5350,"Ġliteracy":5351,"Ġkhanh":5352,"Ġcontrolling":5353,"Ġoriented":5354,"child":5355,"Ġrooms":5356,"Ġsaigon":5357,"impl":5358,"sat":5359,"Ġsil":5360,"Ġvray":5361,"Ġintervention":5362,"Ġcutting":5363,"supplier":5364,"Ġnoc":5365,"Ġartic":5366,"Ġtransmission":5367,"Ġ500":5368,"Ġinspections":5369,"radio":5370,"ox":5371,"Ġcollaborator":5372,"Ġcollege":5373,"try":5374,"Ġengen":5375,"Ġ2018":5376,"comm":5377,"after":5378,"erting":5379,"Ġenginee":5380,"roller":5381,"Ġintegrated":5382,"vb":5383,"Ġcoder":5384,"Ġgarments":5385,"compensation":5386,"cil":5387,"Ġasistant":5388,"Ġeurope":5389,"Ġpacific":5390,"Ġduty":5391,"Ġxml":5392,"Ġover":5393,"urrent":5394,"Ġsep":5395,"Ġnghanh":5396,"Ġvpbank":5397,"tick":5398,"Ġimp":5399,"external":5400,"cupational":5401,"Ġnhu":5402,"Ġprofiles":5403,"Ġcryptographer":5404,"lar":5405,"Ġhue":5406,"ther":5407,"promotion":5408,"ilitary":5409,"Ġmanagerment":5410,"eing":5411,"Ġmagazine":5412,"Ġwarranty":5413,"ket":5414,"accout":5415,"Ġprosp":5416,"Ġsuppervisor":5417,"Ġforeman":5418,"Ġ35":5419,"Ġcourt":5420,"Ġmil":5421,"Ġkhac":5422,"Ġloader":5423,"telephone":5424,"Ġresults":5425,"residential":5426,"Ġkorea":5427,"soan":5428,"Ġtalk":5429,"Ġagronomist":5430,"Ġpackages":5431,"boot":5432,"fresh":5433,"Ġstatistics":5434,"integration":5435,"hlet":5436,"tier":5437,"Ġcurrent":5438,"Ġlav":5439,"Ġemerging":5440,"Ġoversea":5441,"migration":5442,"umerical":5443,"level":5444,"Ġconv":5445,"Ġretirement":5446,"blockchain":5447,"fit":5448,"Ġelopment":5449,"film":5450,"ane":5451,"Ġbasis":5452,"trainer":5453,"dec":5454,"Ġliving":5455,"Ġrate":5456,"giai":5457,"Ġfabrication":5458,"asher":5459,"Ġngoc":5460,"principle":5461,"vietnamese":5462,"Ġfinullcial":5463,"Ġunload":5464,"Ġhmi":5465,"Ġ199":5466,"etor":5467,"Ġhdqt":5468,"truct":5469,"Ġappoint":5470,"ewel":5471,"Ġintegrator":5472,"Ġdil":5473,"enture":5474,"Ġgis":5475,"Ġpgd":5476,"Ġstruts":5477,"sign":5478,"Ġsof":5479,"Ġcinema":5480,"Ġmm":5481,"Ġbuong":5482,"prep":5483,"Ġelement":5484,"Ġunderstanding":5485,"etion":5486,"Ġlines":5487,"Ġmechatronic":5488,"Ġvac":5489,"Ġlabs":5490,"growth":5491,"Ġloans":5492,"Ġcompetitor":5493,"Ġmess":5494,"Ġcae":5495,"Ġnuoi":5496,"Ġbookkeeping":5497,"Ġpayments":5498,"Ġtomcat":5499,"Ġtt":5500,"Ġsens":5501,"Ġresident":5502,"Ġflash":5503,"applications":5504,"Ġpartime":5505,"inspector":5506,"Ġdrive":5507,"Ġci":5508,"arant":5509,"Ġflex":5510,"dental":5511,"ga":5512,"Ġblog":5513,"Ġhousekeeping":5514,"Ġstartup":5515,"receiv":5516,"hab":5517,"mold":5518,"nc":5519,"amer":5520,"clai":5521,"box":5522,"repreneur":5523,"toan":5524,"Ġlist":5525,"testing":5526,"build":5527,"revit":5528,"Ġpark":5529,"Ġshell":5530,"Ġphysics":5531,"Ġcang":5532,"Ġconference":5533,"thuy":5534,"elines":5535,"jection":5536,"Ġprinciple":5537,"Ġplac":5538,"Ġacting":5539,"expert":5540,"quantitative":5541,"Ġphia":5542,"Ġapache":5543,"oanh":5544,"Ġbusinesses":5545,"coordin":5546,"Ġchuan":5547,"light":5548,"ildr":5549,"Ġreserv":5550,"Ġelectrochemical":5551,"Ġstalls":5552,"[[":5553,"desktop":5554,"Ġsubject":5555,"Ġguard":5556,"documentation":5557,"Ġquotation":5558,"bd":5559,"moi":5560,"Ġenhan":5561,"treasury":5562,"Ġconcepts":5563,"Ġcleaning":5564,"Ġosha":5565,"implement":5566,"dom":5567,"Ġong":5568,"Ġcio":5569,"Ġoperators":5570,"Ġresponsive":5571,"campaign":5572,"Ġofficial":5573,"Ġmart":5574,"Ġka":5575,"Ġhist":5576,"Ġagen":5577,"Ġheadhunting":5578,"Ġsaw":5579,"Ġillustration":5580,"Ġpilot":5581,"Ġmail":5582,"Ġapplied":5583,"iber":5584,"Ġbuying":5585,"inger":5586,"itude":5587,"ira":5588,"leadership":5589,"Ġjun":5590,"Ġcogn":5591,"Ġatm":5592,"Ġnextcloud":5593,"Ġtrimmer":5594,"telesale":5595,"kn":5596,"pow":5597,"Ġtes":5598,"Ġthap":5599,"adem":5600,"pricing":5601,"Ġautomatic":5602,"Ġether":5603,"Ġlooking":5604,"Ġtechnique":5605,"icture":5606,"Ġadjuster":5607,"Ġdt":5608,"Ġhun":5609,"Ġretention":5610,"Ġconditions":5611,"Ġrfp":5612,"Ġmastercam":5613,"Ġoversight":5614,"Ġae":5615,"architectural":5616,"ĠJ":5617,"erry":5618,"iper":5619,"package":5620,"bim":5621,"Ġactions":5622,"Ġusing":5623,"Ġtwitter":5624,"Ġgop":5625,"bep":5626,"Ġcollector":5627,"Ġpositive":5628,"ildren":5629,"uel":5630,"duction":5631,"Ġcomment":5632,"spring":5633,"buyer":5634,"Ġsx":5635,"Ġfollow":5636,"Ġground":5637,"Ġfulltime":5638,"Ġlogic":5639,"Ġchau":5640,"career":5641,"fast":5642,"saleperson":5643,"Ġbug":5644,"Ġthermal":5645,"Ġlac":5646,"anti":5647,"Ġstaffs":5648,"Ġjsc":5649,"Ġthreat":5650,"Ġdc":5651,"Ġorientation":5652,"cler":5653,"rail":5654,"Ġoffshore":5655,"Ġrong":5656,"programme":5657,"Ġhousekeeper":5658,"ique":5659,"Ġhach":5660,"scient":5661,"economic":5662,"non":5663,"Ġss":5664,"Ġfile":5665,"Ġone":5666,"dan":5667,"Ġword":5668,"architecture":5669,"Ġpolice":5670,"qaqc":5671,"fund":5672,"cry":5673,"networking":5674,"policy":5675,"Ġdevelopereloper":5676,"prot":5677,"Ġamerican":5678,"beauty":5679,"aculture":5680,"Ġdeveloperseloper":5681,"mba":5682,"orist":5683,"robot":5684,"platform":5685,"Ġ40":5686,"Ġexplo":5687,"Ġhairdresser":5688,"Ġamin":5689,"isation":5690,"Ġprogrammereloper":5691,"Ġprogrammerseloper":5692,"Ġdevseloper":5693,"Ġmuon":5694,"Ġpv":5695,"ose":5696,"audio":5697,"ror":5698,"Ġvao":5699,"Ġmananger":5700,"lean":5701,"Ġentertainment":5702,"ocation":5703,"Ġcoding":5704,"Ġreactnative":5705,"ewall":5706,"Ġsolidwork":5707,"producer":5708,"Ġdatacenter":5709,"contact":5710,"Ġbroch":5711,"fmcg":5712,"Ġblack":5713,"Ġcycle":5714,"Ġpipe":5715,"track":5716,"Ġnho":5717,"inar":5718,"chool":5719,"traffic":5720,"abs":5721,"storage":5722,"Ġordinator":5723,"image":5724,"Ġtue":5725,"vehicle":5726,"Ġmedicaid":5727,"Ġsass":5728,"Ġbab":5729,"acting":5730,"Ġrole":5731,"Ġorganizing":5732,"Ġdns":5733,"opt":5734,"ants":5735,"smt":5736,"Ġcourier":5737,"iative":5738,"Ġny":5739,"Ġpoly":5740,"cnc":5741,"quantity":5742,"volunteer":5743,"Eng":5744,"steel":5745,"ectual":5746,"operating":5747,"Ġquest":5748,"hoach":5749,"Ġsoutheast":5750,"Ġpublish":5751,"Ġmoodle":5752,"route":5753,"Ġprogress":5754,"Ġrequired":5755,"pharmacy":5756,"korean":5757,"Ġcatalog":5758,"ton":5759,"Ġpacker":5760,"Ġfinullce":5761,"instructional":5762,"Ġglass":5763,"ening":5764,"Ġluxury":5765,"floor":5766,"zen":5767,"Ġphieu":5768,"izon":5769,"outbound":5770,"hcmc":5771,"Ġmental":5772,"ype":5773,"instrument":5774,"Ġccn":5775,"phere":5776,"Ġarrangement":5777,"Ġdomestic":5778,"Ġdiligence":5779,"aircraft":5780,"Ġ1000":5781,"Ġgenerator":5782,"analytics":5783,"Ġagre":5784,"Ġkeeper":5785,"ben":5786,"ences":5787,"payable":5788,"Ġdist":5789,"Ġrig":5790,"ocard":5791,"Ġjoin":5792,"khach":5793,"Ġcontrib":5794,"gen":5795,"Ġhat":5796,"fab":5797,"eto":5798,"Ġleaders":5799,"Ġboy":5800,"Ġbiological":5801,"money":5802,"amental":5803,"Ġgon":5804,"Ġhuu":5805,"mts":5806,"paper":5807,"department":5808,"Ġticketing":5809,"Ġmeasurement":5810,"chant":5811,"virtual":5812,"Ġsupervior":5813,"Ġinterviews":5814,"Ġapple":5815,"Ġamazon":5816,"ĠL":5817,"Ġdesigners":5818,"practice":5819,"imate":5820,"Ġwebs":5821,"auditing":5822,"monitor":5823,"Ġlibrary":5824,"very":5825,"Ġlaborer":5826,"yle":5827,"Ġbiot":5828,"Ġsalads":5829,"khoa":5830,"acity":5831,"Ġfont":5832,"uary":5833,"ope":5834,"Ġgross":5835,"Ġattitude":5836,"draul":5837,"major":5838,"shopify":5839,"date":5840,"wire":5841,"Ġkieu":5842,"ifi":5843,"fill":5844,"lc":5845,"Ġdn":5846,"super":5847,"Ġdecl":5848,"Ġ01":5849,"men":5850,"well":5851,"asst":5852,"Ġexpress":5853,"Ġbackup":5854,"Ġpromotions":5855,"Ġpsychology":5856,"Ġcommod":5857,"Ġselective":5858,"Ġocean":5859,"bon":5860,"uld":5861,"astics":5862,"organiz":5863,"Ġutility":5864,"Ġadminstrator":5865,"att":5866,"ensed":5867,"Ġrecover":5868,"Ġmov":5869,"Ġwebpack":5870,"Ġaircraft":5871,"ource":5872,"Ġlocation":5873,"Ġthem":5874,"Ġcodes":5875,"Ġdue":5876,"price":5877,"Ġheadhunters":5878,"Ġbachelor":5879,"Ġexpenditure":5880,"Ġbill":5881,"Ġansys":5882,"Ġcsr":5883,"Ġvariance":5884,"Ġmts":5885,"Ġalarm":5886,"ilingual":5887,"Ġmal":5888,"Ġvas":5889,"magento":5890,"div":5891,"gm":5892,"Ġnumerical":5893,"tc":5894,"itve":5895,"Ġconvers":5896,"Ġstake":5897,"drupal":5898,"Ġlatin":5899,"survey":5900,"Ġdoor":5901,"inderg":5902,"cocos":5903,"deb":5904,"dry":5905,"ĠA":5906,"outh":5907,"Ġhunter":5908,"Ġtet":5909,"Ġcafeteria":5910,"istion":5911,"Ġcanada":5912,"Ġcontrollers":5913,"nat":5914,"urses":5915,"dc":5916,"looking":5917,"Ġsun":5918,"ails":5919,"Ġcuoi":5920,"dang":5921,"fare":5922,"Ġpicture":5923,"Ġham":5924,"Ġsho":5925,"Ġgrunt":5926,"Ġparty":5927,"Ġmethods":5928,"pment":5929,"inator":5930,"operator":5931,"cycle":5932,"iatric":5933,"healthcare":5934,"ories":5935,"Ġthit":5936,"ieer":5937,"Ġgrade":5938,"instructor":5939,"Ġwestern":5940,"incent":5941,"Ġintership":5942,"Ġpareto":5943,"Ġtrucks":5944,"huan":5945,"andra":5946,"Ġboards":5947,"continu":5948,"Ġmagazines":5949,"Ġdepartments":5950,"nhap":5951,"Ġrestful":5952,"Ġmall":5953,"appr":5954,"Ġfinan":5955,"Ġblock":5956,"Ġpreventive":5957,"inguished":5958,"ason":5959,"Ġcapa":5960,"dart":5961,"Ġphep":5962,"Ġdiagnost":5963,"Ġchanges":5964,"types":5965,"ensing":5966,"Ġmicroservices":5967,"Ġinstructions":5968,"enk":5969,"Ġmann":5970,"Ġphd":5971,"arten":5972,"Ġdanang":5973,"Ġexperiences":5974,"neer":5975,"ck":5976,"airy":5977,"allet":5978,"lesoft":5979,"03":5980,"css":5981,"Ġfundamental":5982,"self":5983,"Ġtrends":5984,"golang":5985,"dam":5986,"quay":5987,"Ġdeclaration":5988,"dist":5989,"agency":5990,"Ġdeposits":5991,"cell":5992,"nurse":5993,"tinh":5994,"copywriter":5995,"analytical":5996,"Ġopr":5997,"adjun":5998,"Ġcrisis":5999,"Ġspringboot":6000,"adjunct":6001,"my":6002,"Ġsorter":6003,"unities":6004,"Ġautocard":6005,"medium":6006,"piping":6007,"Ġgps":6008,"idence":6009,"Ġconsultation":6010,"angel":6011,"Ġzone":6012,"Ġtecn":6013,"fa":6014,"mart":6015,"sust":6016,"Ġaquisition":6017,"planner":6018,"Ġjquerry":6019,"Ġname":6020,"itioner":6021,"Ġ16":6022,"mis":6023,"roi":6024,"Ġ02":6025,"Ġcandidates":6026,"Ġinterpret":6027,"2500":6028,"Ġasisstant":6029,"automatic":6030,"parts":6031,"Ġappointments":6032,"indergarten":6033,"Ġprotect":6034,"ids":6035,"Ġevaluations":6036,"schedul":6037,"Ġbroadcast":6038,"Ġbody":6039,"Ġacquistion":6040,"alo":6041,"Ġqt":6042,"iesel":6043,"Ġpractitioner":6044,"ademy":6045,"family":6046,"acher":6047,"Ġguarant":6048,"heavy":6049,"Ġbieu":6050,"phcm":6051,"combank":6052,"facilities":6053,"photo":6054,"Ġbiochemical":6055,"sustain":6056,"Ġrender":6057,"plate":6058,"doctor":6059,"ilitation":6060,"Ġopportunities":6061,"Ġadjust":6062,"Ġom":6063,"odoo":6064,"Ġenginer":6065,"Ġvpn":6066,"bh":6067,"kho":6068,"less":6069,"Ġcoordinators":6070,"Ġhyper":6071,"clean":6072,"nghiep":6073,"cfo":6074,"oring":6075,"Ġnf":6076,"Ġsampl":6077,"processing":6078,"trading":6079,"enet":6080,"esl":6081,"Ġnpi":6082,"Ġmaneg":6083,"Ġjoint":6084,"Ġjsf":6085,"fish":6086,"sample":6087,"edin":6088,"strap":6089,"Ġmetrics":6090,"Ġ2008":6091,"noi":6092,"ases":6093,"animal":6094,"Ġdiscip":6095,"gears":6096,"doanh":6097,"Ġ'":6098,"iority":6099,"Ġexect":6100,"Ġobjectives":6101,"Ġnati":6102,"Ġlibrarian":6103,"itrix":6104,"ka":6105,"18":6106,"Ġthpt":6107,"ubber":6108,"bid":6109,"Ġlayer":6110,"usd":6111,"point":6112,"handle":6113,"Ġenge":6114,"problem":6115,"Ġcompar":6116,"urnace":6117,"Ġmultiple":6118,"typescript":6119,"oning":6120,"stance":6121,"Ġphil":6122,"Ġtransformer":6123,"install":6124,"Ġgraduates":6125,"Ġee":6126,"thre":6127,"Ġsecond":6128,"solid":6129,"overseas":6130,"temporary":6131,"Ġ45":6132,"Ġray":6133,"Ġbox":6134,"Ġbrief":6135,"Ġclerance":6136,"Ġtechnic":6137,"Ġrecre":6138,"execut":6139,"Ġcryptography":6140,"city":6141,"Ġcards":6142,"Ġapac":6143,"mit":6144,"wel":6145,"raw":6146,"Ġinnovator":6147,"influencer":6148,"Ġmr":6149,"Ġhazardous":6150,"05":6151,"inner":6152,"enger":6153,"Ġstructures":6154,"Ġaccurate":6155,"hib":6156,"ertical":6157,"Ġposm":6158,"Ġ[[":6159,"Ġdms":6160,"ota":6161,"Ġmiddleware":6162,"Ġcooperative":6163,"dong":6164,"Ġwelcome":6165,"telecommunications":6166,"ewelry":6167,"Ġoffline":6168,"Ġatl":6169,"peop":6170,"Ġcouriers":6171,"onstr":6172,"Ġbql":6173,"Ġconcrete":6174,"Ġanalysts":6175,"resident":6176,"wares":6177,"ĠĠĠĠĠĠĠĠ":6178,"enkins":6179,"bre":6180,"ips":6181,"Ġparttime":6182,"Ġdisco":6183,"Ġswitchgears":6184,"aring":6185,"Ġinitiative":6186,"Ġtphcm":6187,"Ġct":6188,"Ġwood":6189,"85":6190,"cust":6191,"Ġasic":6192,"Ġorganize":6193,"printing":6194,"Ġrn":6195,"Ġpull":6196,"eather":6197,"Ġveterinary":6198,"mil":6199,"icker":6200,"Ġtrust":6201,"aizen":6202,"Ġnegotiations":6203,"found":6204,"Ġgui":6205,"recruiting":6206,"Ġseminar":6207,"sho":6208,"Ġinteraction":6209,"flict":6210,"tri":6211,"Ġspending":6212,"abin":6213,"undergraduate":6214,"multimedia":6215,"ster":6216,"Ġcorp":6217,"Ġadvocacy":6218,"daily":6219,"oph":6220,"estle":6221,"surgical":6222,"sports":6223,"estyle":6224,"Ġmetro":6225,"Ġavail":6226,"83":6227,"rs":6228,"world":6229,"Ġchecking":6230,"Ġexecitve":6231,"Ġasst":6232,"worker":6233,"Ġfiles":6234,"ibr":6235,"small":6236,"Ġcomponents":6237,"Ġlandscape":6238,"draulic":6239,"Ġbackdro":6240,"Ġetabs":6241,"professor":6242,"Ġdish":6243,"Ġfar":6244,"Ġwh":6245,"outside":6246,"Ġevangel":6247,"asset":6248,"Ġcenters":6249,"abap":6250,"Ġtextiles":6251,"Ġdial":6252,"Ġmanagem":6253,"Ġhuyen":6254,"Ġwasher":6255,"Ġapplic":6256,"Ġaquaculture":6257,"habilitation":6258,"cob":6259,"itime":6260,"Ġawar":6261,"Ġintel":6262,"Ġcompletion":6263,"cloth":6264,"Ġpharmacists":6265,"Ġsas":6266,"Ġsdn":6267,"apore":6268,"edic":6269,"izing":6270,"final":6271,"Ġadvocate":6272,"Ġcoatings":6273,"cir":6274,"Ġdevol":6275,"Ġautomobile":6276,"openstack":6277,"wan":6278,"Ġsheet":6279,"receivable":6280,"Ġawareness":6281,"Ġang":6282,"Ġquick":6283,"Ġrefin":6284,"spe":6285,"engro":6286,"Ġtimeline":6287,"gisl":6288,"Ġimpact":6289,"ining":6290,"Ġfirst":6291,"Ġspeialist":6292,"Ġker":6293,"Ġht":6294,"Ġcood":6295,"aer":6296,"Ġpers":6297,"Ġmarketting":6298,"energy":6299,"Ġorganizations":6300,"Ġvang":6301,"Ġterm":6302,"course":6303,"wr":6304,"ecting":6305,"Ġengr":6306,"Ġjack":6307,"Ġspend":6308,"housing":6309,"basic":6310,"mysql":6311,"Ġanalysist":6312,"Ġinteractive":6313,"compet":6314,"Ġsupervising":6315,"scal":6316,"Ġgeologist":6317,"Ġget":6318,"Ġadd":6319,"ortment":6320,"plastic":6321,"boards":6322,"counselor":6323,"Ġdiscovery":6324,"ĠI":6325,"Ġcit":6326,"Ġpd":6327,"Ġps":6328,"ired":6329,"Ġathlet":6330,"Ġdirecting":6331,"ĠLi":6332,"iminal":6333,"Ġfiller":6334,"Ġdrink":6335,"Ġestimates":6336,"functional":6337,"hieu":6338,"materials":6339,"Ġformer":6340,"Ġgmp":6341,"oversea":6342,"respond":6343,"Ġquestions":6344,"gt":6345,"Ġtb":6346,"Ġfi":6347,"redux":6348,"college":6349,"north":6350,"Ġgreen":6351,"Ġcareful":6352,"deep":6353,"Ġbrokerage":6354,"Ġprovid":6355,"acter":6356,"Ġnight":6357,"Ġservers":6358,"Ġfirewall":6359,"Ġtelecommunication":6360,"premium":6361,"Ġtrial":6362,"Ġworkflow":6363,"Ġtc":6364,"Ġwinder":6365,"Ġoptimize":6366,"Ġundergraduate":6367,"hemat":6368,"Ġhipaa":6369,"Ġintroduction":6370,"uture":6371,"Ġworkforce":6372,"Ġilustrator":6373,"Ġsituation":6374,"pers":6375,"Ġrevamping":6376,"dynam":6377,"vn":6378,"emt":6379,"Ġchildren":6380,"Ġsupporting":6381,"ibm":6382,"ivacy":6383,"Ġ2019":6384,"Ġroll":6385,"Ġmanagament":6386,"portfolio":6387,"Ġcolor":6388,"camer":6389,"Ġsingapore":6390,"kers":6391,"ecycle":6392,"ustator":6393,"Ġoutside":6394,"purchaser":6395,"modern":6396,"Ġcoast":6397,"Ġnhe":6398,"oval":6399,"Ġreturn":6400,"Ġwindow":6401,"Ġportal":6402,"Ġroutine":6403,"rical":6404,"vo":6405,"Ġhiring":6406,"Ġtouch":6407,"Ġcontinuity":6408,"Ġbra":6409,"Ġfirms":6410,"Ġideas":6411,"rd":6412,"Ġfx":6413,"Ġintermediate":6414,"Ġledger":6415,"continuous":6416,"biztalk":6417,"dinh":6418,"journal":6419,"geon":6420,"euro":6421,"Ġdefense":6422,"Ġaeon":6423,"ture":6424,"Ġparticip":6425,"Ġguidelines":6426,"Ġcmo":6427,"Ġthro":6428,"Ġstudents":6429,"dlc":6430,"wait":6431,"licensed":6432,"Ġplacement":6433,"engrocer":6434,"Ġdua":6435,"Ġprepare":6436,"Ġpp":6437,"Ġlift":6438,"Ġnc":6439,"umbing":6440,"pattern":6441,"organizational":6442,"lang":6443,"Ġdcs":6444,"Ġni":6445,"Ġnpm":6446,"concept":6447,"sem":6448,"Ġctv":6449,"esth":6450,"helpdesk":6451,"Ġna":6452,"aven":6453,"photographer":6454,"14":6455,"cology":6456,"Ġinfra":6457,"Ġusa":6458,"Ġaer":6459,"Ġcourses":6460,"ogy":6461,"ump":6462,"monger":6463,"Ġjapan":6464,"Ġsuppport":6465,"Ġrecon":6466,"source":6467,"cargo":6468,"implementation":6469,"Ġnow":6470,"que":6471,"leum":6472,"Ġscm":6473,"graphql":6474,"Ġemea":6475,"gar":6476,"Ġpipeline":6477,"Ġdashboard":6478,"music":6479,"Ġpubl":6480,"intell":6481,"sponsor":6482,"nier":6483,"Ġau":6484,"Ġful":6485,"epher":6486,"Ġdeveloperss":6487,"Ġadvices":6488,"Ġprogrammerss":6489,"Ġdevss":6490,"auditor":6491,"Ġmulti":6492,"tender":6493,"Ġcases":6494,"Ġhar":6495,"Ġacademy":6496,"Ġapply":6497,"Ġperform":6498,"Ġairlines":6499,"paint":6500,"Ġany":6501,"Ġchart":6502,"Ġconsul":6503,"Ġphuoc":6504,"Ġbooklet":6505,"Ġinstrumentation":6506,"aho":6507,"not":6508,"vu":6509,"ĠG":6510,"Ġvia":6511,"proced":6512,"Ġorcad":6513,"Ġemployment":6514,"ron":6515,"icen":6516,"Ġexectutive":6517,"Ġdown":6518,"trung":6519,"Ġcontroler":6520,"associates":6521,"innov":6522,"state":6523,"Ġbot":6524,"Ġillustator":6525,"Ġdemonstr":6526,"Ġdie":6527,"Ġndt":6528,"vs":6529,"Ġsupervisory":6530,"aking":6531,"Ġabout":6532,"Ġgenerators":6533,"enroll":6534,"aight":6535,"Ġpath":6536,"Ġeth":6537,"Ġuat":6538,"manufacture":6539,"Ġyouth":6540,"map":6541,"Ġpu":6542,"icon":6543,"minum":6544,"graphy":6545,"concrete":6546,"khoi":6547,"Ġverizon":6548,"glass":6549,"charge":6550,"cobol":6551,"ti":6552,"Ġconc":6553,"Ġhunt":6554,"Ġmigration":6555,"Ġdevelpment":6556,"ays":6557,"Ġintellectual":6558,"Ġfixed":6559,"etter":6560,"Ġprimary":6561,"forward":6562,"resource":6563,"ehs":6564,"Ġtraction":6565,"plc":6566,"Ġfrench":6567,"Ġmolder":6568,"Ġmale":6569,"ads":6570,"Ġjira":6571,"Ġscada":6572,"Ġmodule":6573,"hrm":6574,"Ġseal":6575,"Ġdetection":6576,"Ġbiochemistry":6577,"optical":6578,"nuclear":6579,"Ġrd":6580,"Ġshepher":6581,"Ġdivers":6582,"Ġentrepreneur":6583,"redient":6584,"Ġsee":6585,"Ġjavac":6586,"Ġdancer":6587,"Ġpartnering":6588,"Ġnavis":6589,"three":6590,"Ġdig":6591,"record":6592,"capital":6593,"rest":6594,"Ġsla":6595,"roup":6596,"apper":6597,"Ġdescript":6598,"ĠT":6599,"alty":6600,"access":6601,"nganh":6602,"flask":6603,"waiter":6604,"natural":6605,"365":6606,"ye":6607,"ĠR":6608,"Ġcdl":6609,"Ġmilitary":6610,"farm":6611,"mob":6612,"Ġassortment":6613,"asket":6614,"cybersecurity":6615,"packing":6616,"Ġhistory":6617,"icenow":6618,"iod":6619,"omet":6620,"Ġcomplex":6621,"0001":6622,"Ġllc":6623,"Ġstream":6624,"reet":6625,"personnel":6626,"Ġdashboards":6627,"Ġjuniper":6628,"24":6629,"Ġsqa":6630,"earl":6631,"Ġalgorithms":6632,"Ġdermatology":6633,"xamarin":6634,"itigation":6635,"Ġcomput":6636,"Ġtank":6637,"Ġmarker":6638,"Ġresponsible":6639,"collaboration":6640,"Ġsewer":6641,"fpga":6642,"Ġcass":6643,"Ġapproach":6644,"die":6645,"negot":6646,"Ġproc":6647,"ym":6648,"entry":6649,"Ġfem":6650,"airfreight":6651,"programmers":6652,"mortgage":6653,"Ġthinh":6654,"Ġru":6655,"Ġfeat":6656,"Ġsurgeon":6657,"vcc":6658,"coordinators":6659,"executives":6660,"geant":6661,"staffs":6662,"Ġemployer":6663,"Ġevangelist":6664,"Ġsev":6665,"Ġsled":6666,"Ġkem":6667,"uted":6668,"ensure":6669,"Ġelv":6670,"pipe":6671,"ĠEng":6672,"Ġlte":6673,"Ġrestruct":6674,"ieps":6675,"Ġtape":6676,"Ġrobotics":6677,"dv":6678,"sil":6679,"object":6680,"tele":6681,"Ġhomes":6682,"Ġranking":6683,"Ġlinkedin":6684,"Ġcassandra":6685,"Ġwifi":6686,"Ġattendance":6687,"Ġspray":6688,"Ġbutcher":6689,"powerpoint":6690,"Ġtesol":6691,"bussiness":6692,"orid":6693,"ecision":6694,"Ġinjection":6695,"adm":6696,"Ġsox":6697,"Ġactuary":6698,"intership":6699,"central":6700,"Ġaustralian":6701,"ze":6702,"ocational":6703,"registered":6704,"mol":6705,"tutor":6706,"ivation":6707,"Ġpriority":6708,"Ġfinishing":6709,"screen":6710,"Ġexecutice":6711,"Ġagricultural":6712,"1000":6713,"ves":6714,"Ġtcp":6715,"Ġeffective":6716,"Ġeconomy":6717,"Ġwireframe":6718,"division":6719,"cod":6720,"Ġcritical":6721,"Ġjson":6722,"by":6723,"Ġmi":6724,"Ġsupports":6725,"Ġ3000":6726,"automobile":6727,"news":6728,"marcom":6729,"cross":6730,"mac":6731,"prom":6732,"linary":6733,"cold":6734,"qe":6735,"Ġcup":6736,"itting":6737,"Ġmany":6738,"Ġmaneger":6739,"Ġjenkins":6740,"Ġpremier":6741,"Ġmachining":6742,"Ġingredient":6743,"Ġexplain":6744,"noc":6745,"oir":6746,"antic":6747,"Ġconfer":6748,"directors":6749,"freelances":6750,"undry":6751,"Ġpsychological":6752,"switch":6753,"Ġorganizer":6754,"Ġlogo":6755,"Ġlightning":6756,"bation":6757,"billing":6758,"uise":6759,"Ġchin":6760,"ega":6761,"Ġaministration":6762,"mulesoft":6763,"Ġcasting":6764,"Ġappliance":6765,"Ġtelevision":6766,"ospace":6767,"layout":6768,"Ġexploitation":6769,"fabric":6770,"anish":6771,"Ġconflict":6772,"Ġcapacity":6773,"conn":6774,"Ġchiefs":6775,"supervisorstruong":6776,"Ġlifecycle":6777,"Ġcommodity":6778,"mail":6779,"ured":6780,"ocean":6781,"chien":6782,"usher":6783,"Ġfreelances":6784,"chiefs":6785,"Ġacceptance":6786,"employment":6787,"Ġdynamic":6788,"Ġ1702":6789,"essel":6790,"Ġprivacy":6791,"agricultural":6792,"Ġpuller":6793,"Ġseller":6794,"Ġcloth":6795,"Ġtoy":6796,"Ġsupervisorstruong":6797,"commission":6798,"medic":6799,"Ġinvestigations":6800,"language":6801,"wh":6802,"ociation":6803,"gree":6804,"Ġreading":6805,"Ġagreements":6806,"Ġoperater":6807,"Ġvina":6808,"ifone":6809,"Ġaccessories":6810,"mea":6811,"Ġinstitutional":6812,"Ġside":6813,"Ġcra":6814,"Ġvua":6815,"Ġoccupational":6816,"Ġresponsibility":6817,"Ġlifestyle":6818,"Ġrunner":6819,"admissions":6820,"Ġrendering":6821,"bag":6822,"danh":6823,"mi":6824,"anager":6825,"ecular":6826,"Ġgold":6827,"Ġ365":6828,"Ġappliances":6829,"boat":6830,"Ġpumps":6831,"Ġkernel":6832,"ama":6833,"chair":6834,"forn":6835,"Ġfind":6836,"Ġinvoice":6837,"Ġblood":6838,"Ġmakers":6839,"ĠB":6840,"Ġanalog":6841,"second":6842,"accoutant":6843,"bartender":6844,"coo":6845,"Ġroller":6846,"interactive":6847,"holder":6848,"Ġmachinist":6849,"Ġiron":6850,"Ġprospective":6851,"Ġmanagerheadhunt":6852,"Ġedge":6853,"first":6854,"vinsmart":6855,"aml":6856,"university":6857,"Ġartwork":6858,"Ġdisabilities":6859,"Ġnortheast":6860,"Ġmobifone":6861,"Ġstyle":6862,"Ġingen":6863,"Ġfunctions":6864,"statistical":6865,"Ġvertical":6866,"Ġmaya":6867,"events":6868,"telemarket":6869,"integrated":6870,"Ġuml":6871,"tac":6872,"enical":6873,"aving":6874,"conf":6875,"Ġesp":6876,"Ġassets":6877,"sheet":6878,"Ġmovie":6879,"Ġnavisworks":6880,"Ġsao":6881,"atio":6882,"Ġxin":6883,"Ġforex":6884,"Ġindic":6885,"smb":6886,"broadc":6887,"ii":6888,"Ġbelt":6889,"Ġcalcul":6890,"vendor":6891,"Ġpolisher":6892,"cosm":6893,"Ġproviders":6894,"Ġspl":6895,"bodia":6896,"Ġdevoloper":6897,"Ġfemale":6898,"voice":6899,"Ġquote":6900,"Ġcorrespond":6901,"Ġemc":6902,"Ġprotocols":6903,"Ġethernet":6904,"kitchen":6905,"ailer":6906,"Ġfinalization":6907,"Ġts":6908,"ones":6909,"Ġbrokers":6910,"fillment":6911,"bor":6912,"Ġgit":6913,"Ġchina":6914,"Ġngua":6915,"Ġpmp":6916,"Ġscalability":6917,"mine":6918,"ser":6919,"winform":6920,"Ġcctv":6921,"Ġshel":6922,"ngoai":6923,"viro":6924,"Ġsofware":6925,"Ġgep":6926,"Ġimmigration":6927,"Ġhousekeep":6928,"Ġmaven":6929,"distinguished":6930,"but":6931,"hood":6932,"Ġdeparment":6933,"Ġrouter":6934,"Ġmeat":6935,"clinic":6936,"angularjs":6937,"Ġmethodology":6938,"editorial":6939,"saas":6940,"nu":6941,"nursing":6942,"Ġwheel":6943,"exchange":6944,"Ġstatus":6945,"Ġpatrol":6946,"driver":6947,"ahoo":6948,"01":6949,"Ġgar":6950,"Ġfp":6951,"Ġxuan":6952,"Ġperiod":6953,"Ġ100":6954,"astern":6955,"hris":6956,"mechanic":6957,"Ġtroubleshooting":6958,"boc":6959,"Ġment":6960,"chup":6961,"Ġworkshop":6962,"Ġtechin":6963,"Ġmedicare":6964,"Ġlathe":6965,"ries":6966,"semiconductor":6967,"Ġpur":6968,"Ġfoot":6969,"edge":6970,"ogn":6971,"Ġskin":6972,"Ġairport":6973,"Ġ2017":6974,"Ġcognitive":6975,"dot":6976,"osch":6977,"bc":6978,"link":6979,"Ġlocations":6980,"controller":6981,"skill":6982,"Ġinformatic":6983,"sfmc":6984,"luong":6985,"ped":6986,"tot":6987,"Ġsdlc":6988,"Ġkaizen":6989,"ety":6990,"asic":6991,"Ġtechcombank":6992,"nuxt":6993,"rist":6994,"rsm":6995,"Ġfico":6996,"Ġindia":6997,"expl":6998,"ensive":6999,"Ġcertification":7000,"Ġ60":7001,"Ġcharacter":7002,"Ġfishmonger":7003,"cung":7004,"liqu":7005,"tien":7006,"Ġtn":7007,"Ġmd":7008,"stone":7009,"Ġnec":7010,"Ġcoop":7011,"Ġservicer":7012,"ording":7013,"arden":7014,"dealer":7015,"Ġcalculation":7016,"Ġpolymer":7017,"monitoring":7018,"viroment":7019,"Ġrange":7020,"Ġitil":7021,"Ġtroi":7022,"Ġoncology":7023,"brse":7024,"bine":7025,"uttle":7026,"primary":7027,"Ġdean":7028,"Ġblu":7029,"Ġpractices":7030,"chemistry":7031,"assembler":7032,"games":7033,"Ġrenewable":7034,"textile":7035,"main":7036,"tap":7037,"Ġsails":7038,"Ġflows":7039,"ku":7040,"etl":7041,"Ġcoat":7042,"erged":7043,"bott":7044,"apparel":7045,"assistance":7046,"ashing":7047,"mech":7048,"ecrical":7049,"actuarial":7050,"Ġsyn":7051,"var":7052,"acker":7053,"Ġscale":7054,"ticket":7055,"oh":7056,"Ġped":7057,"Ġbosch":7058,"qual":7059,"affair":7060,"Ġpharma":7061,"underwriting":7062,"Ġcambodia":7063,"hospitality":7064,"cd":7065,"esc":7066,"Ġyahoo":7067,"Ġdegree":7068,"eff":7069,"och":7070,"Ġconsol":7071,"Ġlegisl":7072,"Ġhedge":7073,"Ġindicators":7074,"cty":7075,"Ġtiem":7076,"email":7077,"ilever":7078,"Ġanalist":7079,"Ġdesg":7080,"Ġmangement":7081,"Ġpeoplesoft":7082,"Ġ14001":7083,"innovation":7084,"ble":7085,"bone":7086,"Ġub":7087,"eme":7088,"Ġindustries":7089,"draw":7090,"Ġlicensing":7091,"Ġruou":7092,"libr":7093,"Ġdrug":7094,"enant":7095,"ally":7096,"Ġdriving":7097,"Ġmicroservice":7098,"Ġhousehold":7099,"devsys":7100,"ĠYuan":7101,"voip":7102,"NE":7103,"Ġtek":7104,"Ġrelated":7105,"Ġtemp":7106,"Ġreferral":7107,"Ġthrough":7108,"eal":7109,"hone":7110,"Ġengg":7111,"Ġviol":7112,"Ġmatlab":7113,"Ġinstruments":7114,"Ġsac":7115,"Ġsqu":7116,"ineering":7117,"otype":7118,"industry":7119,"Ġappraiser":7120,"campus":7121,"pearl":7122,"valuation":7123,"Ġvs":7124,"start":7125,"stitch":7126,"elopment":7127,"umni":7128,"Ġcashflow":7129,"Ġremoval":7130,"Ġregistration":7131,"xe":7132,"Ġcb":7133,"Ġpaid":7134,"Ġtray":7135,"Ġwom":7136,"Ġconservation":7137,"Ġsigns":7138,"Ġphysiology":7139,"superintendent":7140,"veter":7141,"Ġol":7142,"Ġscr":7143,"Ġnuclear":7144,"Ġcompress":7145,"aphics":7146,"Ġteams":7147,"Ġvehic":7148,"Ġtrucking":7149,"Ġmath":7150,"hoan":7151,"mill":7152,"grad":7153,"affiliate":7154,"ourney":7155,"analy":7156,"Ġbeverages":7157,"Ġspecil":7158,"200":7159,"elevator":7160,"Ġwed":7161,"aincal":7162,"pgd":7163,"Ġzalo":7164,"Ġguidance":7165,"Ġinformatics":7166,"scala":7167,"Ġflorist":7168,"interv":7169,"section":7170,"anking":7171,"Ġlua":7172,"ites":7173,"isn":7174,"edict":7175,"Ġgrad":7176,"Ġprofic":7177,"Ġmaritime":7178,"fix":7179,"view":7180,"Ġproof":7181,"Ġbiotech":7182,"debt":7183,"Ġtbyt":7184,"Ġcitrix":7185,"ece":7186,"ecard":7187,"ultry":7188,"marketer":7189,"mcp":7190,"Ġcsdl":7191,"sme":7192,"Ġmanagerurgent":7193,"leet":7194,"Ġbrands":7195,"Ġluan":7196,"Ġreceiving":7197,"Ġsubstance":7198,"Ġbrochure":7199,"pass":7200,"Ġieps":7201,"atson":7202,"oration":7203,"evaluation":7204,"Ġdraft":7205,"Ġaccording":7206,"cul":7207,"Ġcer":7208,"Ġfa":7209,"Ġpresenting":7210,"distributor":7211,"Ġphysicians":7212,"Ġcommander":7213,"color":7214,"Ġpoints":7215,"ĠX":7216,"Ġcop":7217,"books":7218,"hybrid":7219,"Ġpreferred":7220,"coffee":7221,"utant":7222,"nvkd":7223,"window":7224,"firmware":7225,"Ġcoodinator":7226,"pis":7227,"esis":7228,"Ġmarkeing":7229,"thuyet":7230,"aw":7231,"lift":7232,"rn":7233,"ww":7234,"yard":7235,"Ġseas":7236,"Ġrac":7237,"Ġelectrics":7238,"teamleader":7239,"ouch":7240,"Ġremittances":7241,"animation":7242,"Ġvehicles":7243,"welding":7244,"esh":7245,"Ġanz":7246,"omm":7247,"workers":7248,"tranet":7249,"petro":7250,"15":7251,"ĠĈ":7252,"Ġprud":7253,"Ġregular":7254,"reservation":7255,"Ġ2014":7256,"Ġradiology":7257,"06":7258,"wall":7259,"Ġpce":7260,"Ġnumber":7261,"Ġheat":7262,"intech":7263,"Ġmanufactory":7264,"Ġlaz":7265,"Ġelecrical":7266,"note":7267,"pd":7268,"vm":7269,"Ġdur":7270,"Ġdevelopemt":7271,"Ġdrier":7272,"Ġ03":7273,"truck":7274,"Ġfram":7275,"Ġmakerting":7276,"Ġterminal":7277,"heng":7278,"ĠW":7279,"erator":7280,"sty":7281,"Ġprices":7282,"Ġboat":7283,"spa":7284,"Ġsuperviser":7285,"Ġlavarel":7286,"Ġoprator":7287,"1800":7288,"Ġconferences":7289,"lock":7290,"alt":7291,"Ġbanner":7292,"pha":7293,"scholar":7294,"agriculture":7295,"Ġaustralia":7296,"Ġacountant":7297,"cosmetic":7298,"cular":7299,"fc":7300,"Ġkam":7301,"osystem":7302,"Ġstrong":7303,"Ġsouthern":7304,"machin":7305,"Ġgerber":7306,"Ġmannager":7307,"hair":7308,"sand":7309,"Ġthen":7310,"utility":7311,"Ġjunit":7312,"conv":7313,"ierge":7314,"Ġcars":7315,"boarding":7316,"Ġsustainability":7317,"organization":7318,"Ġliterature":7319,"crypto":7320,"cai":7321,"penter":7322,"Ġne":7323,"Ġmana":7324,"Ġfurnace":7325,"Ġstitch":7326,"iewing":7327,"Ġdesinger":7328,"Ġdiretor":7329,"golf":7330,"Ġach":7331,"programming":7332,"holders":7333,"bit":7334,"bach":7335,"Ġgs":7336,"erse":7337,"Ġsatis":7338,"Ġscss":7339,"Ġunilever":7340,"Ġexperts":7341,"Ġdelta":7342,"Ġinstitutions":7343,"aqu":7344,"Ġdell":7345,"Ġhbase":7346,"Ġoffer":7347,"Ġstaffing":7348,"Ġbio":7349,"Ġdeliver":7350,"Ġsupervis":7351,"study":7352,"reporting":7353,"psychologist":7354,"ren":7355,"Ġtmcp":7356,"Ġvai":7357,"acc":7358,"Ġchall":7359,"Ġlaptop":7360,"pham":7361,"Ġupsell":7362,"Ġlabour":7363,"Ġprotective":7364,"Ġgreengrocer":7365,"Ġpi":7366,"illa":7367,"Ġworkplace":7368,"Ġstakeholders":7369,"Ġopratore":7370,"ielts":7371,"Ġswing":7372,"Ġengeneer":7373,"Ġinvo":7374,"securities":7375,"pharmacist":7376,"Ġhedging":7377,"enetration":7378,"Ġfarmer":7379,"bell":7380,"hp":7381,"lat":7382,"ties":7383,"Ġpicker":7384,"echnology":7385,"Ġ2500":7386,"Ġlangu":7387,"Ġallocation":7388,"commercialization":7389,"Ġarrange":7390,"Ġtickets":7391,"ken":7392,"oment":7393,"pls":7394,"space":7395,"curriculum":7396,"Ġsettings":7397,"Ġreserve":7398,"fan":7399,"Ġsense":7400,"Ġext":7401,"excel":7402,"Ġprudential":7403,"Ġsix":7404,"artist":7405,"Ġchiu":7406,"Ġalu":7407,"Ġcommis":7408,"Ġarticle":7409,"bul":7410,"Ġneuro":7411,"plic":7412,"Ġmagager":7413,"people":7414,"Ġdiversity":7415,"library":7416,"Ġmg":7417,"Ġjud":7418,"aviation":7419,"neral":7420,"azure":7421,"Ġif":7422,"Ġtours":7423,"heat":7424,"Ġappraisals":7425,"Ġmeasure":7426,"svice":7427,"Ġtile":7428,"emark":7429,"Ġgcp":7430,"cho":7431,"asales":7432,"Ġnga":7433,"exp":7434,"Ġnorthern":7435,"Ġuk":7436,"guide":7437,"hydro":7438,"Ġarticles":7439,"laravel":7440,"welder":7441,"fintech":7442,"sound":7443,"asistant":7444,"Ġcruise":7445,"Ġmepf":7446,"Ġetap":7447,"Ġpetty":7448,"sustainable":7449,"essary":7450,"ifier":7451,"commod":7452,"Ġequiment":7453,"landscape":7454,"fd":7455,"vas":7456,"onal":7457,"ofounder":7458,"vuejs":7459,"claim":7460,"Ġdialux":7461,"edictive":7462,"17":7463,"sof":7464,"tw":7465,"option":7466,"Ġavi":7467,"Ġhub":7468,"Ġtuoi":7469,"ellite":7470,"Ġprofessionals":7471,"bean":7472,"Ġpump":7473,"Ġloy":7474,"igniter":7475,"artificial":7476,"Ġshopee":7477,"Ġdry":7478,"Ġmechaincal":7479,"Ġcoverage":7480,"making":7481,"dbc":7482,"cut":7483,"ek":7484,"annual":7485,"Ġmeter":7486,"aries":7487,"osc":7488,"Ġtower":7489,"Ġbookmaker":7490,"coaching":7491,"eic":7492,"table":7493,"Ġria":7494,"ceed":7495,"Ġebs":7496,"Ġadap":7497,"Ġfinone":7498,"Ġstraight":7499,"Ġmisa":7500,"Ġofficier":7501,"trac":7502,"Ġbroadcasting":7503,"Ġstatistic":7504,"counter":7505,"Ġsergeant":7506,"green":7507,"ran":7508,"Ġnov":7509,"Ġjig":7510,"Ġadministrate":7511,"Ġmachenical":7512,"mathematics":7513,"Ġassisting":7514,"Ġbehaviour":7515,"dispat":7516,"dir":7517,"maintain":7518,"sing":7519,"Ġtl":7520,"airport":7521,"Ġadvance":7522,"Ġmerchant":7523,"Ġcouncil":7524,"Ġups":7525,"logic":7526,"Ġassignment":7527,"Ġloyalty":7528,"alm":7529,"ebanking":7530,"Ġcapabilities":7531,"troubleshoot":7532,"crew":7533,"Ġdisciplinary":7534,"Ġingredients":7535,"Ġlazada":7536,"ming":7537,"Ġpep":7538,"ablish":7539,"phau":7540,"Ġmotorcycle":7541,"procedures":7542,"oon":7543,"Ġreac":7544,"drive":7545,"visa":7546,"lawyer":7547,"11":7548,"how":7549,"ny":7550,"Ġrang":7551,"Ġcrane":7552,"geod":7553,"Ġbattery":7554,"transfer":7555,"Ġmalays":7556,"file":7557,"vmware":7558,"steam":7559,"chot":7560,"spare":7561,"Ġrepairs":7562,"Ġtranning":7563,"Ġrecreational":7564,"Ġsav":7565,"Ġsever":7566,"Ġkindergarten":7567,"Ġbtl":7568,"Ġaia":7569,"Ġband":7570,"Ġwebsphere":7571,"bert":7572,"rigation":7573,"Ġbong":7574,"Ġsaler":7575,"asoom":7576,"Ġmolecular":7577,"snr":7578,"Ġreturns":7579,"Ġaviation":7580,"27":7581,"rection":7582,"youth":7583,"esment":7584,"markete":7585,"Ġtelasales":7586,"bilingual":7587,"fs":7588,"safe":7589,"svp":7590,"Ġich":7591,"Ġdise":7592,"mental":7593,"Ġstress":7594,"boiler":7595,"Ġantique":7596,"behav":7597,"Ġtvgs":7598,"Ġavailability":7599,"Ġwatch":7600,"Ġother":7601,"creditation":7602,"buon":7603,"complaint":7604,"body":7605,"Ġelementary":7606,"waitress":7607,"hat":7608,"jax":7609,"unication":7610,"adband":7611,"Ġear":7612,"Ġwide":7613,"Ġnhuan":7614,"Ġswot":7615,"Ġdamage":7616,"Ġaccel":7617,"Ġgaming":7618,"Ġgtm":7619,"physician":7620,"Ġcarton":7621,"bidding":7622,"hong":7623,"mant":7624,"erc":7625,"Ġpor":7626,"Ġkpis":7627,"express":7628,"Ġdrivers":7629,"Ġdiagram":7630,"Ġsilicon":7631,"geodetic":7632,"arter":7633,"echnical":7634,"Ġpreschool":7635,"Ġroy":7636,"multi":7637,"Ġsenious":7638,"Ġrewards":7639,"claims":7640,"mix":7641,"Ġkha":7642,"Ġshopkeeper":7643,"faction":7644,"Ġdefin":7645,"reporter":7646,"Ġcampus":7647,"Ġadjustment":7648,"unified":7649,"iven":7650,"Ġassit":7651,"Ġservicing":7652,"engine":7653,"Ġcompose":7654,"Ġgenetic":7655,"clerk":7656,"scientific":7657,"hinh":7658,"wholesale":7659,"waste":7660,"Ġedi":7661,"Ġcosts":7662,"recre":7663,"Ġreviewer":7664,"Ġpetrochemical":7665,"Ġmessaging":7666,"bever":7667,"luxury":7668,"Ġist":7669,"Ġscan":7670,"pastry":7671,"Ġspecilist":7672,"hai":7673,"sion":7674,"ociated":7675,"Ġdispatch":7676,"knowledge":7677,"Ġbackdrop":7678,"Ġdurable":7679,"arr":7680,"Ġconstruct":7681,"Ġdeveloppers":7682,"sole":7683,"police":7684,"Ġgerman":7685,"fitness":7686,"scientist":7687,"mp":7688,"Ġcis":7689,"arer":7690,"Ġfiber":7691,"actor":7692,"Ġplaning":7693,"Ġcriminal":7694,"graphics":7695,"embed":7696,"Ġregistered":7697,"Ġshoots":7698,"quyet":7699,"Ġjoining":7700,"hematical":7701,"hard":7702,"iologist":7703,"lass":7704,"nav":7705,"amic":7706,"Ġyard":7707,"Ġcontracting":7708,"early":7709,"khu":7710,"Ġsewing":7711,"ince":7712,"arct":7713,"arts":7714,"Ġdrilling":7715,"Ġincub":7716,"Ġlatam":7717,"Ġplayer":7718,"Ġfulfillment":7719,"tec":7720,"Ġppe":7721,"oral":7722,"Ġgun":7723,"epres":7724,"trang":7725,"Ġprogramer":7726,"Ġtelesmarkete":7727,"Ġinstagram":7728,"intermediate":7729,"pmo":7730,"Ġacca":7731,"classroom":7732,"attend":7733,"bachelor":7734,"Ġnx":7735,"Ġrule":7736,"Ġgaphics":7737,"Ġnhi":7738,"anchise":7739,"Ġzoning":7740,"Ġgraduated":7741,"americ":7742,"incentive":7743,"appra":7744,"ci":7745,"Ġcuong":7746,"Ġjdbc":7747,"Ġngineering":7748,"Ġscre":7749,"Ġecosystem":7750,"bike":7751,"Ġnyc":7752,"Ġconversion":7753,"cery":7754,"mang":7755,"chromatography":7756,"Ġparcel":7757,"Ġsupermarket":7758,"surface":7759,"Ġcontribute":7760,"Ġreacjs":7761,"Ġdefinition":7762,"good":7763,"lem":7764,"Ġuy":7765,"Ġball":7766,"isational":7767,"iln":7768,"ailure":7769,"incal":7770,"earning":7771,"communic":7772,"veyor":7773,"presentation":7774,"shoe":7775,"Ġdescriptions":7776,"Ġsupervisior":7777,"cable":7778,"meat":7779,"take":7780,"Ġspecialized":7781,"coming":7782,"setup":7783,"Ġccnp":7784,"stylist":7785,"buc":7786,"oa":7787,"ulner":7788,"Ġrehabilitation":7789,"raising":7790,"component":7791,"Ġinstructors":7792,"Ġmsb":7793,"Ġliaise":7794,"Ġarmy":7795,"boy":7796,"fur":7797,"iary":7798,"mr":7799,"Ġmes":7800,"estry":7801,"ises":7802,"Ġspare":7803,"Ġplastics":7804,"okia":7805,"Ġvisit":7806,"drafter":7807,"Ġcharter":7808,"behavior":7809,"eer":7810,"nis":7811,"uum":7812,"Ġtun":7813,"Ġnas":7814,"Ġfe":7815,"Ġfdi":7816,"tronic":7817,"lease":7818,"Ġsupev":7819,"Ġapartment":7820,"Ġpowder":7821,"Ġcounts":7822,"Ġsheets":7823,"ticketing":7824,"coordinate":7825,"ophys":7826,"hus":7827,"anc":7828,"Ġgather":7829,"Ġchep":7830,"Ġrot":7831,"ighting":7832,"current":7833,"Ġ2011":7834,"Ġloat":7835,"Ġtrials":7836,"def":7837,"mvc":7838,"tram":7839,"Ġadminist":7840,"barista":7841,"Ġguarantee":7842,"za":7843,"Ġsop":7844,"hanoi":7845,"iden":7846,"thoi":7847,"Ġspecialty":7848,"Ġautos":7849,"Ġsourcer":7850,"Ġdirecter":7851,"pcb":7852,"Ġassessor":7853,"booking":7854,"Ġbootstrap":7855,"Ġnfv":7856,"Ġsecondary":7857,"enrollment":7858,"promotional":7859,"3000":7860,"Ġcordinator":7861,"Ġvide":7862,"Ġventure":7863,"Ġhave":7864,"Ġprobation":7865,"Ġenviroment":7866,"ieut":7867,"Ġmemb":7868,"Ġemployed":7869,"Ġroadshow":7870,"Ġshoe":7871,"Ġatlantic":7872,"eve":7873,"Ġtimely":7874,"Ġmtv":7875,"Ġmaps":7876,"ochina":7877,"analyze":7878,"nical":7879,"Ġdairy":7880,"Ġletter":7881,"Ġsander":7882,"Ġdocker":7883,"Ġmanufacturers":7884,"Ġhydro":7885,"Ġmalaysia":7886,"dd":7887,"sim":7888,"sre":7889,"zer":7890,"Ġvcrm":7891,"Ġinfos":7892,"Ġsuperintendents":7893,"Ġcomparative":7894,"Ġsatisfaction":7895,"haz":7896,"rot":7897,"Ġnhay":7898,"Ġinvesment":7899,"housekeeping":7900,"Ġmechanicals":7901,"offshore":7902,"Ġframeworks":7903,"Ġ700":7904,"tur":7905,"ath":7906,"Ġshort":7907,"oker":7908,"television":7909,"Ġsubcontractor":7910,"Ġgateway":7911,"experiment":7912,"Ġinstitute":7913,"Ġbqlda":7914,"camera":7915,"ulnerability":7916,"49":7917,"cao":7918,"ultant":7919,"Ġmedication":7920,"Ġmangager":7921,"Ġproperties":7922,"Ġtmdt":7923,"diesel":7924,"him":7925,"npi":7926,"qb":7927,"tank":7928,"Ġipt":7929,"Ġsiem":7930,"Ġsize":7931,"Ġincl":7932,"grapher":7933,"luu":7934,"Ġexpatr":7935,"Ġcustod":7936,"Ġlavavel":7937,"Ġcompetitors":7938,"Ġccna":7939,"laser":7940,"Ġquery":7941,"Ġ24":7942,"Ġaudits":7943,"Ġbatch":7944,"Ġreadiness":7945,"Ġmembership":7946,"iff":7947,"oem":7948,"erter":7949,"arn":7950,"Ġhtt":7951,"Ġchoi":7952,"igner":7953,"Ġbugs":7954,"Ġlg":7955,"ette":7956,"Ġher":7957,"Ġqms":7958,"Ġcool":7959,"Ġshuttle":7960,"Ġoutdoor":7961,"khao":7962,"Ġgoland":7963,"Ġentries":7964,"Ġpresser":7965,"ĠShi":7966,"ussian":7967,"Ġdisplays":7968,"benchmark":7969,"Ġsailsjs":7970,"cot":7971,"Ġsience":7972,"Ġpdm":7973,"Ġwear":7974,"Ġlaraver":7975,"poly":7976,"disaster":7977,"Ġ1200":7978,"Ġvendors":7979,"beverage":7980,"epresence":7981,"rop":7982,"ionics":7983,"Ġbed":7984,"Ġproceed":7985,"oung":7986,"estim":7987,"Ġems":7988,"dba":7989,"mentor":7990,"Ġjewelry":7991,"conference":7992,"prepare":7993,"Ġlock":7994,"element":7995,"estimate":7996,"economics":7997,"run":7998,"escal":7999,"Ġratio":8000,"Ġfol":8001,"Ġfuel":8002,"Ġeastern":8003,"Ġnhon":8004,"Ġbrad":8005,"draf":8006,"Ġlotte":8007,"21":8008,"60":8009,"eware":8010,"wc":8011,"Ġpallet":8012,"Ġflatform":8013,"Ġuiux":8014,"Ġalm":8015,"Ġpanels":8016,"Ġshared":8017,"Ġconnected":8018,"Ġengineeer":8019,"Ġdiagnostic":8020,"Ġjavacore":8021,"total":8022,"ieutenant":8023,"Ġfu":8024,"Ġwir":8025,"forensic":8026,"ption":8027,"Ġdrafer":8028,"Ġ05":8029,"cosmet":8030,"competitive":8031,"Ġtoyota":8032,"Ġstitcher":8033,"quyen":8034,"sid":8035,"sport":8036,"ven":8037,"Ġbts":8038,"paralegal":8039,"Ġsensor":8040,"domestic":8041,"Ġcse":8042,"occupational":8043,"edger":8044,"Ġaccreditation":8045,"Ġplace":8046,"Ġrearct":8047,"Ġevery":8048,"Ġthermo":8049,"Ġcodeigniter":8050,"ĠJi":8051,"Ġlanguages":8052,"feed":8053,"watch":8054,"Ġgao":8055,"asia":8056,"trusion":8057,"proof":8058,"Ġsamples":8059,"liquid":8060,"loss":8061,"mass":8062,"Ġtuy":8063,"Ġweather":8064,"Ġadtech":8065,"Ġdriven":8066,"Ġnaval":8067,"Ġinterpretation":8068,"Ġaerospace":8069,"long":8070,"Ġpenetration":8071,"Ġbpm":8072,"ches":8073,"edd":8074,"leather":8075,"umatic":8076,"Ġposter":8077,"Ġpeony":8078,"Ġtemplate":8079,"battery":8080,"Ġfabricator":8081,"Ġseniour":8082,"founding":8083,"Ġespecial":8084,"cument":8085,"ects":8086,"apers":8087,"ola":8088,"ignment":8089,"cluster":8090,"Ġinterviewing":8091,"Ġlegislation":8092,"Ġcabin":8093,"Ġpit":8094,"star":8095,"epr":8096,"ulator":8097,"oga":8098,"Ġadvertiser":8099,"Ġoutage":8100,"interpersonal":8101,"laborer":8102,"Ġreader":8103,"Ġtalkshow":8104,"journalist":8105,"eum":8106,"pub":8107,"Ġvessel":8108,"Ġcombat":8109,"porter":8110,"Ġpowerbi":8111,"robotics":8112,"Ġfinancal":8113,"installation":8114,"Ġnecessary":8115,"Ġaluminum":8116,"Ġexpatriate":8117,"pqa":8118,"Ġgang":8119,"igator":8120,"Ġdeveloperelopers":8121,"Ġdeveloperselopers":8122,"Ġprogrammerelopers":8123,"Ġrotation":8124,"Ġprogrammerselopers":8125,"Ġestablish":8126,"Ġdevselopers":8127,"find":8128,"mechanics":8129,"release":8130,"Ġviolence":8131,"wd":8132,"omes":8133,"chong":8134,"ivest":8135,"Ġnhieu":8136,"Ġhaiphong":8137,"ception":8138,"Ġofficers":8139,"hibition":8140,"Ġsprayer":8141,"Ġwomen":8142,"Ġdm":8143,"Ġcement":8144,"algorith":8145,"ora":8146,"ipp":8147,"aya":8148,"thac":8149,"Ġimpart":8150,"Ġcollab":8151,"ibration":8152,"equity":8153,"weaver":8154,"wn":8155,"osiate":8156,"electrician":8157,"Ġmould":8158,"Ġkeyword":8159,"hsse":8160,"Ġliquidate":8161,"Ġexperiments":8162,"Ġresume":8163,"uber":8164,"Ġstories":8165,"mechatr":8166,"Ġistqb":8167,"Ġautosar":8168,"Ġmom":8169,"agent":8170,"Ġhtv":8171,"unrant":8172,"perl":8173,"allery":8174,"dates":8175,"estaunrant":8176,"Ġhygiene":8177,"Ġeuropean":8178,"13":8179,"hadoop":8180,"icial":8181,"story":8182,"Ġnash":8183,"issu":8184,"Ġspc":8185,"alliance":8186,"1200":8187,"Ġfairs":8188,"Ġproceedings":8189,"live":8190,"Ġmig":8191,"Ġtrademark":8192,"block":8193,"individual":8194,"Ġmssql":8195,"dem":8196,"je":8197,"rup":8198,"scr":8199,"selling":8200,"tich":8201,"wave":8202,"Ġsess":8203,"Ġconsum":8204,"osis":8205,"Ġplaner":8206,"ubric":8207,"webmaster":8208,"srs":8209,"Ġportion":8210,"value":8211,"Ġwarfare":8212,"interview":8213,"Ġbet":8214,"Ġtrips":8215,"Ġngai":8216,"odal":8217,"Ġclasoom":8218,"Ġboiler":8219,"Ġforms":8220,"Ġindochina":8221,"Ġmakete":8222,"scm":8223,"easurer":8224,"Ġstatistician":8225,"Ġpublisher":8226,"Ġdiagnostics":8227,"dynamics":8228,"hoi":8229,"Ġvt":8230,"Ġvital":8231,"Ġliability":8232,"Ġyour":8233,"Ġcorebanking":8234,"Ġmechanism":8235,"ewater":8236,"iversal":8237,"Ġadmisn":8238,"court":8239,"detail":8240,"menu":8241,"lesson":8242,"ĠD":8243,"itics":8244,"Ġast":8245,"Ġspanish":8246,"Ġmemory":8247,"exc":8248,"suite":8249,"postgresql":8250,"Ġess":8251,"Ġbur":8252,"Ġmanh":8253,"Ġfuture":8254,"Ġvba":8255,"shows":8256,"homologation":8257,"Ġcomposing":8258,"Ġchildhood":8259,"Ġshelves":8260,"Ġmanaager":8261,"bill":8262,"tan":8263,"Ġgym":8264,"appro":8265,"utic":8266,"merchant":8267,"Ġwebex":8268,"Ġbidv":8269,"produce":8270,"asketball":8271,"rubber":8272,"wpf":8273,"Ġprod":8274,"Ġkhat":8275,"ppc":8276,"Ġplus":8277,"Ġrecap":8278,"astewater":8279,"ithub":8280,"Ġcashiering":8281,"Ġbigdata":8282,"haul":8283,"signal":8284,"Ġrigger":8285,"worldwide":8286,"har":8287,"title":8288,"epl":8289,"Ġconsutant":8290,"Ġrequisition":8291,"Ġtransition":8292,"math":8293,"ktv":8294,"Ġpanel":8295,"Ġacquired":8296,"hostess":8297,"objective":8298,"ham":8299,"huy":8300,"Ġsons":8301,"etization":8302,"terior":8303,"Ġreply":8304,"managed":8305,"Ġrepresentation":8306,"Ġbeat":8307,"Ġ2020":8308,"neumatic":8309,"Ġlaunches":8310,"Ġengeen":8311,"dairy":8312,"anmar":8313,"Ġservicenow":8314,"Ġdetention":8315,"Ġfabricate":8316,"Ġbaby":8317,"ivestock":8318,"Ġadmisnistration":8319,"Ġcx":8320,"Ġbiz":8321,"Ġpropos":8322,"Ġeg":8323,"iast":8324,"assurance":8325,"Ġpublicist":8326,"Ġupdate":8327,"Ġlifesc":8328,"Ġmainframe":8329,"hach":8330,"iforn":8331,"tire":8332,"western":8333,"Ġnokia":8334,"Ġwatson":8335,"phd":8336,"Ġminer":8337,"informatics":8338,"ourneyman":8339,"ifornia":8340,"Ġce":8341,"Ġhiep":8342,"ivot":8343,"actical":8344,"Ġpredictive":8345,"imodal":8346,"Ġtex":8347,"Ġcollecting":8348,"ibbean":8349,"Ġfloors":8350,"Ġmah":8351,"oomla":8352,"surgery":8353,"Ġbradn":8354,"cart":8355,"fuel":8356,"pan":8357,"ĠF":8358,"Ġspecialistt":8359,"incident":8360,"Ġnamecard":8361,"berry":8362,"Ġregener":8363,"faces":8364,"shopping":8365,"rectional":8366,"Ġrunning":8367,"ciliation":8368,"circuit":8369,"sout":8370,"tube":8371,"Ġtitle":8372,"Ġwal":8373,"orts":8374,"Ġspecification":8375,"hydraulic":8376,"Ġpatients":8377,"Ġforecasting":8378,"himinh":8379,"drug":8380,"Ġia":8381,"jsp":8382,"Ġ22000":8383,"contr":8384,"club":8385,"Ġpatent":8386,"casino":8387,"Ġconverged":8388,"flex":8389,"horeca":8390,"kol":8391,"tob":8392,"Ġttt":8393,"apache":8394,"igar":8395,"ĠSan":8396,"Ġmapping":8397,"Ġhazards":8398,"respons":8399,"Ġturbine":8400,"Ġnhuom":8401,"incentives":8402,"Ġqtkd":8403,"speech":8404,"Ġneuroscience":8405,"lor":8406,"Ġpool":8407,"iong":8408,"emaker":8409,"grain":8410,"ibank":8411,"interim":8412,"Ġclasses":8413,"apple":8414,"tive":8415,"Ġtd":8416,"Ġvap":8417,"Ġsand":8418,"Ġsoa":8419,"Ġonboarding":8420,"ĠSun":8421,"create":8422,"Ġmaxim":8423,"Ġmamager":8424,"Ġcasino":8425,"Ġconnection":8426,"painter":8427,"sam":8428,"acco":8429,"apist":8430,"Ġmagn":8431,"Ġreceipt":8432,"Ġmedicinal":8433,"Ġbrochures":8434,"cosmetics":8435,"meas":8436,"onsite":8437,"stit":8438,"stage":8439,"unk":8440,"Ġgeo":8441,"Ġway":8442,"Ġplumbing":8443,"Ġcustomes":8444,"Ġstripper":8445,"Ġvietnamworks":8446,"Ġadvertise":8447,"Ġarc":8448,"Ġhydraulic":8449,"Ġspeech":8450,"recruit":8451,"testers":8452,"Ġrefinery":8453,"Ġroyal":8454,"400":8455,"csr":8456,"military":8457,"iton":8458,"ounter":8459,"Ġsanh":8460,"Ġmechantronic":8461,"Ġcashiers":8462,"efl":8463,"Ġcommon":8464,"Ġenginneer":8465,"Ġtechnologists":8466,"Ġmaintainer":8467,"barrel":8468,"Ġaquatic":8469,"Ġconducting":8470,"Ġconnectivity":8471,"Ġpublishing":8472,"Ġshepherding":8473,"tts":8474,"Ġdream":8475,"Ġvie":8476,"Ġneg":8477,"Ġassociation":8478,"Ġcomplete":8479,"Ġaids":8480,"Ġreferr":8481,"Ġenhancement":8482,"husiast":8483,"elementary":8484,"Ġmv":8485,"Ġengn":8486,"Ġcapcity":8487,"Ġsearching":8488,"****":8489,"Ġthanks":8490,"Ġpetroleum":8491,"Ġelemental":8492,"Ġfeatures":8493,"Ġlad":8494,"Ġks":8495,"Ġpreparer":8496,"Ġrecording":8497,"ĠChi":8498,"Ġbabel":8499,"mov":8500,"arger":8501,"Ġkep":8502,"adult":8503,"refrigeration":8504,"Ġcrime":8505,"Ġtechnicians":8506,"ographic":8507,"Ġintegrations":8508,"Ġcaribbean":8509,"Ġkeynote":8510,"Ġtimes":8511,"Ġ4500":8512,"Ġguaranteed":8513,"telemarketing":8514,"gp":8515,"kenh":8516,"rication":8517,"toi":8518,"Ġdead":8519,"Ġmock":8520,"Ġvng":8521,"Ġbb":8522,"Ġrestaunrant":8523,"chuong":8524,"Ġwee":8525,"igher":8526,"engagement":8527,"Ġdistributed":8528,"plane":8529,"Ġgreeting":8530,"Ġsawyer":8531,"Ġquickbooks":8532,"Ġconcierge":8533,"Ġregenerative":8534,"bio":8535,"Ġqui":8536,"Ġstreet":8537,"Ġcreating":8538,"Ġcontruction":8539,"gv":8540,"linh":8541,"attor":8542,"Ġpestle":8543,"Ġajax":8544,"omy":8545,"Ġmechand":8546,"black":8547,"Ġconditioner":8548,"telecommunication":8549,"Ġmgmt":8550,"19":8551,"dent":8552,"eload":8553,"Ġnex":8554,"Ġhao":8555,"Ġadult":8556,"Ġcoe":8557,"Ġdevelope":8558,"analog":8559,"Ġ800":8560,"Ġ9000":8561,"promo":8562,"Ġsecure":8563,"coal":8564,"Ġperception":8565,"Ġorganisational":8566,"devop":8567,"nalist":8568,"broadcast":8569,"ER":8570,"bakery":8571,"Ġtat":8572,"Ġanalysics":8573,"Ġrecogn":8574,"customers":8575,"Ġmyanmar":8576,"Ġblue":8577,"studio":8578,"Ġfunds":8579,"dmax":8580,"ĠYi":8581,"Ġinvoices":8582,"Ġvideos":8583,"fg":8584,"fall":8585,"enge":8586,"Ġpick":8587,"Ġmpls":8588,"Ġgp":8589,"third":8590,"ologic":8591,"spec":8592,"Ġsms":8593,"Ġhotels":8594,"compos":8595,"Ġprovision":8596,"coordinating":8597,"clerical":8598,"16":8599,"9001":8600,"eking":8601,"fpt":8602,"goi":8603,"look":8604,"memb":8605,"rust":8606,"sang":8607,"Ġkids":8608,"Ġmanagner":8609,"Ġgdn":8610,"Ġshopper":8611,"Ġdriller":8612,"Ġinstructing":8613,"deployment":8614,"Ġqualification":8615,"Ġmaintaining":8616,"Ġ27001":8617,"Ġcontributor":8618,"configuration":8619,"Ġinformatica":8620,"ommend":8621,"Ġreferrals":8622,"kv":8623,"keting":8624,"kotlin":8625,"pot":8626,"Ġrol":8627,"Ġdf":8628,"Ġvent":8629,"abet":8630,"Ġpowerb":8631,"profit":8632,"metadata":8633,"collections":8634,"apprent":8635,"Ġprocce":8636,"veterinary":8637,"sir":8638,"Ġmanagger":8639,"ematics":8640,"aba":8641,"Ġreference":8642,"Ġyou":8643,"Ġlinq":8644,"Ġpeer":8645,"Ġerector":8646,"display":8647,"Ġgameshow":8648,"Ġshipments":8649,"Ġtalkshows":8650,"decor":8651,"Ġroles":8652,"dock":8653,"jewelry":8654,"Ġul":8655,"Ġsar":8656,"Ġmb":8657,"tration":8658,"Ġclip":8659,"Ġalumni":8660,"erger":8661,"Ġentitle":8662,"Ġfabrications":8663,"supervision":8664,"pesialist":8665,"Ġmanegar":8666,"Ġlitigation":8667,"Ġproactive":8668,"Ġandorid":8669,"Ġplate":8670,"Ġforest":8671,"Ġcalifornia":8672,"attorney":8673,"abetes":8674,"949":8675,"orer":8676,"Ġven":8677,"Ġvers":8678,"Ġkcn":8679,"Ġborder":8680,"Ġhochiminh":8681,"duce":8682,"Ġretails":8683,"luent":8684,"ĠSpesialist":8685,"Ġevaluating":8686,"settlement":8687,"riod":8688,"economist":8689,"Ġsevice":8690,"membership":8691,"south":8692,"target":8693,"words":8694,"itech":8695,"itures":8696,"optim":8697,"Ġwip":8698,"Ġacsc":8699,"forest":8700,"ardot":8701,"Ġintergr":8702,"contracts":8703,"Ġsouthwest":8704,"ĠMan":8705,"multiple":8706,"Ġsoftwares":8707,"Ġcooperating":8708,"connect":8709,"lien":8710,"pul":8711,"inding":8712,"income":8713,"aton":8714,"Ġtrip":8715,"Ġfighting":8716,"adger":8717,"ights":8718,"Ġaudience":8719,"Ġiphone":8720,"faculty":8721,"manufacturer":8722,"Ġslove":8723,"Ġmillion":8724,"Ġethereum":8725,"algorithm":8726,"appropriate":8727,"ault":8728,"bra":8729,"ita":8730,"opark":8731,"etting":8732,"Ġgear":8733,"proposal":8734,"Ġbackbone":8735,"projects":8736,"editing":8737,"Ġecopark":8738,"Ġmeanager":8739,"Ġmultimodal":8740,"Ġnotes":8741,"applying":8742,"ĠAnalist":8743,"Ġ45001":8744,"cvcc":8745,"roird":8746,"Ġmanarger":8747,"thue":8748,"Ġspeclist":8749,"Ġvinhomes":8750,"'t":8751,"uard":8752,"Ġmor":8753,"ilization":8754,"rology":8755,"prevent":8756,"Ġmonetization":8757,"applied":8758,"transmission":8759,"schools":8760,"Ġturner":8761,"Ġcoatche":8762,"fanpage":8763,"Ġespecialist":8764,"04":8765,"inees":8766,"Ġgithub":8767,"Ġjan":8768,"Ġandroi":8769,"Ġoffices":8770,"orklift":8771,"products":8772,"ruit":8773,"Ġcontractors":8774,"Ġtelephony":8775,"handling":8776,"Ġwellness":8777,"Ġmahager":8778,"night":8779,"eco":8780,"Ġboss":8781,"prod":8782,"assess":8783,"traction":8784,"Ġcrash":8785,"luence":8786,"Ġmarkting":8787,"Ġfirefighte":8788,"Ġescalations":8789,"Ġsquad":8790,"wed":8791,"eroom":8792,"Ġtag":8793,"asma":8794,"Ġtube":8795,"Ġsatety":8796,"ernior":8797,"Ġbroadband":8798,"Ġscreening":8799,"ĠZhu":8800,"Ġunloading":8801,"Ġmanegers":8802,"14001":8803,"fly":8804,"kindergarten":8805,"Ġmust":8806,"Ġfailure":8807,"Ġoficer":8808,"trip":8809,"Ġprecision":8810,"Ġcorrection":8811,"Ġefforts":8812,"Ġfilter":8813,"surveillance":8814,"Ġhonda":8815,"Ġshoes":8816,"Ġperformances":8817,"publish":8818,"vocational":8819,"Ġmanerger":8820,"istics":8821,"imp":8822,"Ġsrm":8823,"Ġobj":8824,"Ġspecific":8825,"cardi":8826,"instit":8827,"Ġconversation":8828,"forwarding":8829,"Ġcomputers":8830,"eprint":8831,"uff":8832,"Ġmilling":8833,"antique":8834,"Ġgiup":8835,"Ġash":8836,"Ġanalis":8837,"Ġtoeic":8838,"Ġlaundry":8839,"Ġbooks":8840,"Ġoptimisation":8841,"facade":8842,"managew":8843,"Ġrenov":8844,"Ġtechnican":8845,"aion":8846,"sas":8847,"Ġpop":8848,"Ġwhol":8849,"Ġgrid":8850,"Ġtongue":8851,"Ġobjects":8852,"Ġmuch":8853,"ildlife":8854,"photography":8855,"Ġmrp":8856,"dispatcher":8857,"promoter":8858,"ANE":8859,"GER":8860,"Ġdiet":8861,"Ġnor":8862,"ounge":8863,"Ġacb":8864,"Ġiam":8865,"berg":8866,"Ġenthusiast":8867,"ccie":8868,"Ġstores":8869,"Ġunited":8870,"Ġmenager":8871,"27001":8872,"americas":8873,"Ġsessions":8874,"Ġlifesciences":8875,"Ġtttm":8876,"ANEGER":8877,"fruit":8878,"hien":8879,"lot":8880,"md":8881,"mkt":8882,"wom":8883,"Ġfo":8884,"operate":8885,"ounior":8886,"grade":8887,"Ġoral":8888,"Ġemr":8889,"Ġsqlserver":8890,"Ġcanon":8891,"biomedical":8892,"Ġderiv":8893,"ways":8894,"license":8895,"renew":8896,"nutrition":8897,"Ġlingu":8898,"Ġann":8899,"Ġans":8900,"Ġanroid":8901,"Ġwashing":8902,"Ġkhung":8903,"Ġjust":8904,"Ġleather":8905,"Ġindirect":8906,"Ġindoor":8907,"Ġfacing":8908,"Ġagents":8909,"disc":8910,"partnerships":8911,"Ġaxure":8912,"Ġsnap":8913,"intelligence":8914,"39":8915,"485":8916,"50":8917,"cop":8918,"nation":8919,"enator":8920,"Ġtvc":8921,"acount":8922,"Ġbing":8923,"Ġmanadger":8924,"Ġprolem":8925,"ivec":8926,"quir":8927,"Ġplm":8928,"Ġsolder":8929,"cription":8930,"Ġpacket":8931,"season":8932,"Ġfieldworkers":8933,"Ġsprint":8934,"Ġ50001":8935,"Ġzend":8936,"Ġbehavioral":8937,"Ġefficient":8938,"collaborator":8939,"maketing":8940,"Ġassignments":8941,"Ġstakeholder":8942,"Ġlieutenant":8943,"Ġthay":8944,"unct":8945,"isure":8946,"Ġsecret":8947,"ishment":8948,"Ġemotional":8949,"Ġfoods":8950,"Ġvincom":8951,"Ġhsbc":8952,"Ġseeking":8953,"ĠManeger":8954,"bed":8955,"bay":8956,"lte":8957,"publ":8958,"Ġpapers":8959,"Ġving":8960,"Ġaix":8961,"Ġando":8962,"Ġdeals":8963,"Ġforming":8964,"regulation":8965,"Ġpubic":8966,"Ġpuplic":8967,"threejs":8968,"Ġmagneger":8969,"mw":8970,"rm":8971,"tures":8972,"Ġmanner":8973,"asonic":8974,"Ġtaiwan":8975,"plumbing":8976,"Ġappium":8977,"Ġmoneg":8978,"expense":8979,"device":8980,"preschool":8981,"batch":8982,"based":8983,"Ġlistening":8984,"Ġ16949":8985,"Ġcustodian":8986,"issue":8987,"Ġmonegor":8988,"fts":8989,"seller":8990,"entrepreneur":8991,"evalu":8992,"Ġtron":8993,"Ġcoap":8994,"orthop":8995,"airline":8996,"phalt":8997,"Ġvisits":8998,"eguard":8999,"Ġpharmaceuticals":9000,"Ġraise":9001,"Ġsubsid":9002,"Ġsdk":9003,"Ġ13485":9004,"benef":9005,"Ġparticipants":9006,"coder":9007,"Ġcorrespondence":9008,"binh":9009,"down":9010,"rig":9011,"Ġlounge":9012,"Ġmanpower":9013,"Ġprojet":9014,"Ġfn":9015,"ystal":9016,"quency":9017,"Ġrese":9018,"Ġscout":9019,"intel":9020,"tractor":9021,"Ġmangger":9022,"banquet":9023,"bancassurance":9024,"ĠMANEGER":9025,"8583":9026,"Ġpublications":9027,"Ġbooklets":9028,"Ġmission":9029,"grader":9030,"Ġhours":9031,"Ġmerch":9032,"verification":9033,"captain":9034,"Ġdetailer":9035,"poultry":9036,"custormer":9037,"Ġincubation":9038,"Ġsyst":9039,"Ġnest":9040,"mentoring":9041,"Ġanalystic":9042,"Ġdepot":9043,"asters":9044,"allurg":9045,"Ġrobert":9046,"ateral":9047,"Ġblender":9048,"Ġsearcher":9049,"Ġsignon":9050,"Ġelearning":9051,"Ġdetails":9052,"lecture":9053,"Ġinterpreters":9054,"Ġcomparison":9055,"notar":9056,"petroleum":9057,"Ġrecognition":9058,"cafeteria":9059,"ecast":9060,"etical":9061,"Ġmanagertop":9062,"Ġdatab":9063,"critical":9064,"Ġrepres":9065,"dermat":9066,"geer":9067,"retouch":9068,"Ġbiotechnology":9069,"ls":9070,"rx":9071,"Ġexerc":9072,"icsson":9073,"Ġunion":9074,"ngon":9075,"Ġmeneger":9076,"Ġ20000":9077,"inspection":9078,"informatic":9079,"Ġ170":9080,"Ġ270001":9081,"Ġ17025":9082,"IN":9083,"cabin":9084,"dy":9085,"nity":9086,"Ġafr":9087,"Ġepc":9088,"Ġstain":9089,"Ġplat":9090,"iential":9091,"inciples":9092,"Ġcheckout":9093,"aza":9094,"Ġweigher":9095,"Ġpassenger":9096,"Ġvingroup":9097,"Ġcfa":9098,"Ġmus":9099,"Ġnedd":9100,"amond":9101,"Ġintranet":9102,"Ġwho":9103,"immigration":9104,"Ġflutters":9105,"Ġtourist":9106,"Ġbuildings":9107,"ngo":9108,"cskh":9109,"cntt":9110,"Ġmatters":9111,"supervise":9112,"railroad":9113,"Ġmanneger":9114,"ĠRen":9115,"fixed":9116,"injection":9117,"Ġdak":9118,"Ġpte":9119,"Ġmangeer":9120,"Ġgach":9121,"Ġassociated":9122,"Ġleed":9123,"gio":9124,"netes":9125,"Ġorig":9126,"Ġdecorator":9127,"pmg":9128,"meeting":9129,"Ġucs":9130,"Ġlotus":9131,"premier":9132,"Ġrestructuring":9133,"064":9134,"ubernetes":9135,"apprentice":9136,"bab":9137,"kpi":9138,"anban":9139,"Ġqac":9140,"Ġresidence":9141,"Ġvietin":9142,"hrd":9143,"Ġcarpenter":9144,"patent":9145,"bow":9146,"meter":9147,"Ġdy":9148,"term":9149,"Ġadroid":9150,"trust":9151,"Ġprinciples":9152,"query":9153,"Ġgrab":9154,"Ġcapri":9155,"akeph":9156,"author":9157,"onomy":9158,"Ġbath":9159,"ledger":9160,"sketch":9161,"vince":9162,"akephp":9163,"catering":9164,"oe":9165,"Ġpwc":9166,"Ġneat":9167,"ined":9168,"Ġjo":9169,"trong":9170,"tree":9171,"Ġcollect":9172,"finishing":9173,"Ġdisput":9174,"Ġposts":9175,"Ġdistributing":9176,"animator":9177,"Ġseasonal":9178,"Ġchallenge":9179,"erations":9180,"Ġsous":9181,"Ġsuport":9182,"Ġendpoint":9183,"Ġwarehousing":9184,"Ġtalents":9185,"Ġmenedger":9186,"infast":9187,"clear":9188,"Ġinterviewer":9189,"Ġguides":9190,"machinery":9191,"Ġsiemens":9192,"cms":9193,"fe":9194,"tam":9195,"Ġvr":9196,"icitation":9197,"Ġnay":9198,"Ġbest":9199,"Ġansw":9200,"istic":9201,"ilog":9202,"Ġdocs":9203,"manship":9204,"Ġtelepresence":9205,"Ġliner":9206,"Ġabbott":9207,"ensics":9208,"nhiep":9209,"Ġoutsource":9210,"Ġrmit":9211,"Ġparent":9212,"Ġmeneg":9213,"Ġ85":9214,"Ġgaap":9215,"bookkeeper":9216,"Ġwww":9217,"accouting":9218,"behavioral":9219,"escalation":9220,"Ġfolder":9221,"liquidity":9222,"Ġ17065":9223,"Ġstainless":9224,"cofounder":9225,"kk":9226,"mand":9227,"ually":9228,"Ġmice":9229,"Ġvalu":9230,"Ġtreasurer":9231,"Ġprime":9232,"Ġdoccument":9233,"projet":9234,"phoi":9235,"onomous":9236,"Ġstates":9237,"method":9238,"naer":9239,"Ġflexible":9240,"Ġrecreation":9241,"cse":9242,"fiber":9243,"gener":9244,"vl":9245,"Ġvilla":9246,"Ġnote":9247,"Ġhi":9248,"Ġthird":9249,"Ġmanagere":9250,"Ġandriod":9251,"imb":9252,"ographer":9253,"Ġbrows":9254,"Ġobjectivec":9255,"Ġ09":9256,"Ġlogict":9257,"Ġsolaris":9258,"Ġgerneral":9259,"Ġauthority":9260,"Ġversion":9261,"..":9262,"sico":9263,"Ġcant":9264,"Ġlubric":9265,"ionic":9266,"Ġbob":9267,"Ġfis":9268,"Ġxang":9269,"other":9270,"Ġtheater":9271,"Ġyoga":9272,"Ġcnb":9273,"thuat":9274,"Ġmathematical":9275,"subject":9276,"Ġbellboy":9277,"icipal":9278,"stitute":9279,"lie":9280,"next":9281,"Ġmut":9282,"Ġvuong":9283,"Ġfaa":9284,"Ġfmea":9285,"french":9286,"Ġnonlife":9287,"Ġ14064":9288,"Ġ27000":9289,"Ġ45000":9290,"ĠIng":9291,"Ġ17020":9292,"secondary":9293,"arrange":9294,"Ġ8583":9295,"ghi":9296,"lity":9297,"mgr":9298,"ring":9299,"Ġgcb":9300,"Ġxer":9301,"andy":9302,"iano":9303,"sewing":9304,"Ġinteriors":9305,"Ġidentities":9306,"Ġpublication":9307,"pediatric":9308,"iam":9309,"pit":9310,"ses":9311,"Ġsde":9312,"Ġvulnerability":9313,"icist":9314,"seed":9315,"spark":9316,"Ġcreat":9317,"Ġeffiency":9318,"controll":9319,"party":9320,"Ġownership":9321,"label":9322,"Ġoptic":9323,"Ġcaseload":9324,"Ġexpenditures":9325,"Ġfinancing":9326,"Ġethics":9327,"Ġfootball":9328,"bom":9329,"py":9330,"Ġage":9331,"Ġpent":9332,"ican":9333,"Ġhw":9334,"Ġgarden":9335,"Ġfine":9336,"Ġdeploy":9337,"datacenter":9338,"Ġgrower":9339,"brick":9340,"Ġobserver":9341,"flat":9342,"copyright":9343,"Ġsdet":9344,"modeling":9345,"Ġingenier":9346,"various":9347,"ein":9348,"stall":9349,"Ġmannaer":9350,"Ġrubber":9351,"ombank":9352,"osh":9353,"precision":9354,"Ġcompute":9355,"phet":9356,"Ġtelco":9357,"drill":9358,"Ġstyling":9359,"taxation":9360,"Ġfixer":9361,"Ġpersu":9362,"devsysop":9363,"Ġcooling":9364,"Ġafrica":9365,"Ġvietinbank":9366,"gin":9367,"Ġdedic":9368,"roof":9369,"Ġthcs":9370,"Ġphr":9371,"Ġwo":9372,"Ġexterior":9373,"iratory":9374,"webs":9375,"Ġdisp":9376,"Ġsuccessful":9377,"Ġministry":9378,"Ġmixed":9379,"Ġpsd":9380,"Devel":9381,"best":9382,"Ġmega":9383,"Ġboth":9384,"Ġfusion":9385,"Ġjoomla":9386,"activation":9387,"Ġtheory":9388,"Ġinterest":9389,"amping":9390,"Ġexpect":9391,"Ġholding":9392,"Ġclothing":9393,"Ġtekla":9394,"Ġdedicated":9395,"cinema":9396,"tb":9397,"wool":9398,"Ġdsp":9399,"Ġmos":9400,"Ġvery":9401,"Ġbilingual":9402,"Ġpermit":9403,"Ġairline":9404,"Ġlocalization":9405,"region":9406,"institution":9407,"Ġandoird":9408,"cpa":9409,"django":9410,"Ġpul":9411,"avp":9412,"Ġreevaluation":9413,"expat":9414,"Ġheadcount":9415,"cuits":9416,"postal":9417,"schedule":9418,"dest":9419,"Ġcvcc":9420,"ipc":9421,"Ġadh":9422,"Ġandroird":9423,"Ġassis":9424,"trim":9425,"Ġleading":9426,"Ġdates":9427,"Ġwebapp":9428,"Ġtests":9429,"Ġswe":9430,"Ġbonded":9431,"javasript":9432,"commodity":9433,"Ġdisease":9434,"hazardous":9435,"Ġhttp":9436,"Ġtexas":9437,"nature":9438,"yout":9439,"Ġssrs":9440,"Ġsuppy":9441,"Ġsher":9442,"cover":9443,"exa":9444,"Ġfrequency":9445,"contin":9446,"earer":9447,"secured":9448,"visiting":9449,"Ġwrapper":9450,"Ġprinters":9451,"Ġssis":9452,"doctoral":9453,"Ġshepherd":9454,"pick":9455,"spl":9456,"Ġcpt":9457,"Ġmiss":9458,"Ġvocational":9459,"ematic":9460,"Ġfed":9461,"Ġchip":9462,"ils":9463,"ilizer":9464,"Ġjet":9465,"Ġplug":9466,"Ġreverse":9467,"shipment":9468,"ooth":9469,"Ġbackdrops":9470,"athlet":9471,"Ġmate":9472,"street":9473,"Ġkpmg":9474,"adwords":9475,"Ġitsm":9476,"illustrator":9477,"trouble":9478,"Ġtechical":9479,"Ġhostel":9480,"Ġsituations":9481,"Ġreconciliation":9482,"belt":9483,"gest":9484,"Ġhanger":9485,"Ġexhibition":9486,"Ġresarch":9487,"Ġmanuals":9488,"Ġ04":9489,"Ġevaluator":9490,"Ġbreak":9491,"Ġseriv":9492,"Ġkeeping":9493,"traditional":9494,"lenishment":9495,"Ġsacombank":9496,"Ġproficient":9497,"passenger":9498,"cf":9499,"cpr":9500,"li":9501,"pective":9502,"ana":9503,"itary":9504,"Ġgom":9505,"Ġfob":9506,"Ġfleet":9507,"Ġengineerurgent":9508,"ively":9509,"antry":9510,"iron":9511,"reh":9512,"Ġforensics":9513,"laundry":9514,"warranty":9515,"Ġvarious":9516,"cigar":9517,"Ġmater":9518,"Ġnien":9519,"emerging":9520,"Ġdevepl":9521,"Ġadminitr":9522,"workforce":9523,"Ġblow":9524,"Ġadjunct":9525,"balance":9526,"hist":9527,"lumber":9528,"select":9529,"Ġtire":9530,"Ġbasketball":9531,"itho":9532,"eball":9533,"pressure":9534,"Ġabm":9535,"Ġfounding":9536,"translation":9537,"Ġrobotic":9538,"Ġcmm":9539,"startup":9540,"Ġpepsico":9541,"Ġburner":9542,"Ġmenegar":9543,"Ġphrases":9544,"Ġless":9545,"Ġlens":9546,"isa":9547,"trader":9548,"Ġscor":9549,"Ġediter":9550,"Ġ22":9551,"banker":9552,"ensor":9553,"Ġindustrials":9554,"Ġcivilian":9555,"Ġimplementing":9556,"holst":9557,"Ġidentify":9558,"physics":9559,"receiving":9560,"spray":9561,"thermal":9562,"scheduling":9563,"Ġhyperledger":9564,"milk":9565,"ometry":9566,"Ġsnapchat":9567,"07":9568,"Ġfigma":9569,"Ġque":9570,"Ġadp":9571,"Ġrecommend":9572,"large":9573,"seasonal":9574,"liter":9575,"Ġsom":9576,"enting":9577,"Ġgsm":9578,"Ġchiller":9579,"essional":9580,"Ġhousing":9581,"pper":9582,"acking":9583,"ott":9584,"Ġinterim":9585,"Ġchamp":9586,"Ġobserv":9587,"Ġissuance":9588,"biological":9589,"Ġsustaining":9590,"Ġjudge":9591,"pal":9592,"vt":9593,"Ġlach":9594,"Ġey":9595,"Ġwill":9596,"eader":9597,"Ġcoord":9598,"ims":9599,"ainage":9600,"ospat":9601,"Ġfinish":9602,"Ġshi":9603,"Ġalco":9604,"Ġmidwest":9605,"ĠĠĠ":9606,"different":9607,"Ġcdma":9608,"Ġxdcb":9609,"Ġcraft":9610,"mechatronics":9611,"evaluate":9612,"ospatial":9613,"furnace":9614,"Ġsist":9615,"Ġmsc":9616,"acquisition":9617,"Ġktt":9618,"Ġbaker":9619,"Ġsccm":9620,"Ġrock":9621,"Ġspeakers":9622,"Ġweaver":9623,"Ġexcellent":9624,"Ġhippa":9625,"hosting":9626,"Ġsnow":9627,"solidworks":9628,"Ġperspective":9629,"cameraman":9630,"Ġexplaining":9631,"Ġvsip":9632,"polymer":9633,"youtube":9634,"bel":9635,"iator":9636,"Ġld":9637,"Ġnum":9638,"Ġprophet":9639,"Ġphun":9640,"Ġminim":9641,"Ġcircuits":9642,"political":9643,"showroom":9644,"Ġofficials":9645,"holstery":9646,"lao":9647,"Ġdos":9648,"Ġdiesel":9649,"oretical":9650,"arth":9651,"proper":9652,"aphone":9653,"Ġorches":9654,"Ġbench":9655,"correctional":9656,"Ġauditors":9657,"positive":9658,"Ġclose":9659,"saw":9660,"satellite":9661,"Ġcalculations":9662,"Ġgathering":9663,"dod":9664,"nau":9665,"pod":9666,"thang":9667,"erising":9668,"Ġtch":9669,"Ġseed":9670,"Ġck":9671,"Ġtractor":9672,"Ġwiden":9673,"assis":9674,"Ġscen":9675,"Ġtimekeeper":9676,"supervisory":9677,"Ġprototype":9678,"Ġsmartphone":9679,"Ġshowmanship":9680,"javascrip":9681,"Ġblogger":9682,"Ġavailable":9683,"Ġifrs":9684,"follow":9685,"suc":9686,"yect":9687,"inor":9688,"Ġthach":9689,"Ġgau":9690,"adword":9691,"Ġgift":9692,"teration":9693,"Ġhow":9694,"Ġcomb":9695,"quick":9696,"Ġspot":9697,"staffing":9698,"Ġtooling":9699,"mongodb":9700,"Ġearly":9701,"candid":9702,"fusion":9703,"lac":9704,"inational":9705,"Ġsoi":9706,"Ġrussian":9707,"omotive":9708,"ole":9709,"idas":9710,"reserv":9711,"Ġedtech":9712,"Ġbuis":9713,"clos":9714,"oucher":9715,"investments":9716,"nghiem":9717,"Ġwelfare":9718,"remitt":9719,"Ġ***":9720,"Ġavaya":9721,"Ġresorts":9722,"Ġrouters":9723,"Ġoprerations":9724,"Ġpremiere":9725,"dms":9726,"gment":9727,"ners":9728,"nlp":9729,"Ġital":9730,"engr":9731,"iction":9732,"Ġassosiate":9733,"indirect":9734,"symfony":9735,"Ġbudgets":9736,"Ġelicitation":9737,"Ġ4000":9738,"Ġvnpt":9739,"Ġericsson":9740,"diagnost":9741,"hospice":9742,"esthes":9743,"Ġstreaming":9744,"admistrator":9745,"cotton":9746,"rental":9747,"wet":9748,"zone":9749,"Ġturn":9750,"Ġsung":9751,"Ġpardot":9752,"Ġbms":9753,"ige":9754,"Ġresouc":9755,"servicenow":9756,"nghe":9757,"Ġhigher":9758,"Ġconfidential":9759,"Ġrenewals":9760,"ĠGuan":9761,"coding":9762,"Ġsynth":9763,"mantec":9764,"Ġdatabases":9765,"bench":9766,"pervisor":9767,"pqc":9768,"xc":9769,"zz":9770,"Ġoss":9771,"rock":9772,"aco":9773,"Ġrates":9774,"isional":9775,"Ġconveyor":9776,"mination":9777,"criminal":9778,"afka":9779,"Ġtpm":9780,"Ġelopers":9781,"traunt":9782,"Ġirrigation":9783,"reader":9784,"Ġagreement":9785,"bulk":9786,"ati":9787,"Ġkiln":9788,"Ġbit":9789,"Ġtrailer":9790,"Ġfort":9791,"ofi":9792,"ocial":9793,"iger":9794,"Ġsteam":9795,"Ġgiu":9796,"Ġaci":9797,"oty":9798,"otechnical":9799,"rehabilitation":9800,"crisis":9801,"ureau":9802,"manent":9803,"Ġsoccer":9804,"ength":9805,"Ġperf":9806,"Ġpolitical":9807,"ursement":9808,"Ġcolle":9809,"ught":9810,"Ġtwo":9811,"Ġnegotiable":9812,"reading":9813,"peoplesoft":9814,"Ġfeature":9815,"Ġinclusion":9816,"Ġproposals":9817,"Ġexpectations":9818,"Ġchampion":9819,"mont":9820,"sellor":9821,"eries":9822,"Ġtal":9823,"Ġdw":9824,"eper":9825,"Ġkeo":9826,"Ġtechno":9827,"Ġfranchise":9828,"Ġinsulation":9829,"Ġohs":9830,"oven":9831,"conduct":9832,"ocket":9833,"rooms":9834,"Ġvinpearl":9835,"counsellor":9836,"framework":9837,"receive":9838,"Ġdiscuss":9839,"affairs":9840,"Ġdiagrams":9841,"Ġfuj":9842,"diet":9843,"eor":9844,"mv":9845,"Ġpast":9846,"Ġmfg":9847,"icat":9848,"Ġbul":9849,"ival":9850,"terminal":9851,"iding":9852,"Ġplaza":9853,"Ġshin":9854,"hous":9855,"comput":9856,"secrectary":9857,"Ġcardi":9858,"Ġmarkerting":9859,"Ġfixtures":9860,"junio":9861,"ĠWu":9862,"buss":9863,"chanh":9864,"culation":9865,"Ġvtc":9866,"Ġmanip":9867,"Ġinj":9868,"ipl":9869,"Ġnghia":9870,"Ġgrand":9871,"resume":9872,"linder":9873,"viec":9874,"Ġmarke":9875,"Ġcrop":9876,"Ġathletes":9877,"destination":9878,"cio":9879,"ez":9880,"Ġpn":9881,"aral":9882,"acid":9883,"Ġking":9884,"Ġtree":9885,"Ġgan":9886,"adap":9887,"Ġepa":9888,"umen":9889,"Ġroof":9890,"Ġabove":9891,"Ġcalibration":9892,"highway":9893,"Ġegineer":9894,"binder":9895,"gner":9896,"kcs":9897,"lip":9898,"lif":9899,"Ġkubernetes":9900,"tering":9901,"Ġcontin":9902,"salary":9903,"phi":9904,"seafood":9905,"Ġcontents":9906,"backup":9907,"Ġbdm":9908,"earing":9909,"tools":9910,"Ġcoverer":9911,"sustainability":9912,"Ġsampling":9913,"devsysops":9914,"&#":9915,"loud":9916,"no":9917,"sit":9918,"ebase":9919,"raft":9920,"Ġforestry":9921,"useum":9922,"Ġautomated":9923,"Ġchez":9924,"Ġbeer":9925,"underwriter":9926,"Ġraising":9927,"Ġsubmission":9928,"lands":9929,"loading":9930,"superviser":9931,"Ġparticipant":9932,"preventive":9933,"Ġderivatives":9934,"rxswift":9935,"Ġlessons":9936,"Ġduyen":9937,"alyst":9938,"itian":9939,"Ġasian":9940,"Ġhope":9941,"Ġnamed":9942,"Ġhandover":9943,"Ġsettle":9944,"bpo":9945,"Ġdecorative":9946,"Ġterms":9947,"Ġjournalism":9948,"skin":9949,"Ġpathologist":9950,"mobility":9951,"molding":9952,"Ġmanipulation":9953,"dh":9954,"fleet":9955,"hog":9956,"nication":9957,"tal":9958,"Ġold":9959,"Ġdate":9960,"Ġporter":9961,"Ġmnc":9962,"amazon":9963,"urence":9964,"Ġadidas":9965,"istrative":9966,"izza":9967,"Ġcorps":9968,"Ġisp":9969,"drilling":9970,"Ġassistent":9971,"employer":9972,"Ġpaints":9973,"Ġdistinguished":9974,"Ġproficiency":9975,"Ġiptv":9976,"east":9977,"hiring":9978,"ten":9979,"oli":9980,"Ġjl":9981,"ppet":9982,"architects":9983,"perform":9984,"ibaba":9985,"Ġactors":9986,"saps":9987,"Ġdiscipline":9988,"medicaid":9989,"Ġframes":9990,"Ġsupevisor":9991,"institutional":9992,"dye":9993,"iant":9994,"nic":9995,"rix":9996,"Ġmad":9997,"stream":9998,"Ġkafka":9999,"Ġrating":10000,"Ġfc":10001,"Ġeai":10002,"Ġjd":10003,"Ġtea":10004,"pload":10005,"Ġskype":10006,"Ġchatt":10007,"Ġquynh":10008,"Ġmodification":10009,"Ġisv":10010,"Ġalexa":10011,"Ġenginering":10012,"Ġ2006":10013,"Ġdefined":10014,"Ġnsx":10015,"Ġphilipp":10016,"Ġathletic":10017,"Ġassitance":10018,"Ġnumbers":10019,"nent":10020,"tbp":10021,"uk":10022,"uit":10023,"ycl":10024,"iend":10025,"Ġthis":10026,"Ġconvince":10027,"Ġhaul":10028,"enses":10029,"timber":10030,"relation":10031,"Ġviral":10032,"tourism":10033,"Ġchapter":10034,"restful":10035,"commissioning":10036,"nes":10037,"oqc":10038,"pn":10039,"sqa":10040,"itar":10041,"Ġengneer":10042,"Ġsalon":10043,"igibility":10044,"county":10045,"oted":10046,"istrar":10047,"Ġrelev":10048,"Ġgrind":10049,"Ġpreservation":10050,"Ġvietjet":10051,"Ġcollateral":10052,"Ġusability":10053,"shell":10054,"Ġbrake":10055,"Ġnike":10056,"rotary":10057,"fib":10058,"foot":10059,"fisher":10060,"loper":10061,"ĠĊ":10062,"Ġsaf":10063,"Ġpivot":10064,"Ġwine":10065,"Ġoffering":10066,"osha":10067,"osocial":10068,"itex":10069,"compress":10070,"share":10071,"Ġsubstation":10072,"Ġfunding":10073,"sche":10074,"review":10075,"Ġexperimental":10076,"Ġdhcp":10077,"Ġtenant":10078,"Ġveterans":10079,"Ġmilk":10080,"receivables":10081,"lighting":10082,"potential":10083,"Ġdeck":10084,"Ġcul":10085,"esk":10086,"Ġwi":10087,"otc":10088,"plating":10089,"Ġsoap":10090,"Ġrestraunt":10091,"Ġleard":10092,"Ġyoung":10093,"Ġinspect":10094,"bridal":10095,"ursery":10096,"Ġmacro":10097,"effective":10098,"Ġheadcounts":10099,"Ġdeveploment":10100,"hive":10101,"Ġseat":10102,"Ġkanban":10103,"Ġnut":10104,"Ġrb":10105,"Ġgallery":10106,"ersh":10107,"Ġdress":10108,"Ġcounselling":10109,"Ġchanger":10110,"Ġorganisation":10111,"lett":10112,"middleware":10113,"instein":10114,"motorcycle":10115,"dancer":10116,"Ġcommodities":10117,"Ġentrepreneurship":10118,"dotnet":10119,"Ġcompressor":10120,"hoang":10121,"recreation":10122,"Ġcissp":10123,"Ġjustice":10124,"giver":10125,"paid":10126,"wheel":10127,"Ġdim":10128,"Ġdiss":10129,"steward":10130,"Ġaward":10131,"Ġshar":10132,"Ġanalyse":10133,"brush":10134,"Ġusda":10135,"Ġdiagn":10136,"contraction":10137,"Ġoptics":10138,"Ġwrit":10139,"sfe":10140,"tracking":10141,"sofware":10142,"attendant":10143,"tobacco":10144,"mandarin":10145,"600":10146,"800":10147,"hent":10148,"mm":10149,"Ġdna":10150,"rof":10151,"Ġnestle":10152,"Ġink":10153,"Ġwall":10154,"Ġasean":10155,"assisstant":10156,"iety":10157,"recon":10158,"Ġdisposal":10159,"kha":10160,"going":10161,"Ġscholarship":10162,"peer":10163,"validation":10164,"shopdrawing":10165,"Ġenginnering":10166,"dermatologist":10167,"success":10168,"git":10169,"hers":10170,"low":10171,"arations":10172,"Ġincharge":10173,"Ġadoption":10174,"ullet":10175,"izen":10176,"Ġswim":10177,"Ġfields":10178,"blood":10179,"Ġexped":10180,"draft":10181,"videographer":10182,"Ġvinaphone":10183,"inkler":10184,"Ġroadmap":10185,"Ġhazmat":10186,"uchia":10187,"protect":10188,"apprais":10189,"Ġchartered":10190,"Developer":10191,"Su":10192,"iqc":10193,"jounior":10194,"last":10195,"ted":10196,"vy":10197,"Ġkar":10198,"Ġbev":10199,"Ġeinstein":10200,"uyet":10201,"treme":10202,"Ġplasma":10203,"progress":10204,"Ġnetapp":10205,"Ġdepart":10206,"Ġooh":10207,"Ġsurfaces":10208,"Ġtaxi":10209,"Ġclassification":10210,"Ġsponsors":10211,"Ġlivebank":10212,"Ġumts":10213,"Ġdesginer":10214,"Ġmvvm":10215,"cast":10216,"due":10217,"fi":10218,"fda":10219,"oitte":10220,"tile":10221,"enal":10222,"Ġsort":10223,"Ġkent":10224,"aggio":10225,"Ġbct":10226,"Ġbinder":10227,"Ġhua":10228,"Ġfm":10229,"Ġcoater":10230,"quent":10231,"salads":10232,"Ġvib":10233,"outdoor":10234,"Ġpromote":10235,"erglass":10236,"designing":10237,"csa":10238,"Ġmakeup":10239,"learn":10240,"rfp":10241,"therapist":10242,"fitting":10243,"Ġreservations":10244,"Ġweek":10245,"Ġrenovation":10246,"Ġannoun":10247,"cue":10248,"fware":10249,"tops":10250,"Ġlook":10251,"agogy":10252,"Ġthail":10253,"asisstant":10254,"Ġacro":10255,"Ġrelocation":10256,"cool":10257,"Ġcapture":10258,"shops":10259,"Ġqlcl":10260,"Ġsurveying":10261,"Ġorganiztion":10262,"Ġflower":10263,"Ġlogical":10264,"riage":10265,"domain":10266,"Ġthailand":10267,"sun":10268,"Ġtcs":10269,"Ġds":10270,"Ġcin":10271,"Ġcakephp":10272,"Ġpy":10273,"Ġmainten":10274,"Ġsaleman":10275,"Ġ23":10276,"Ġoh":10277,"Ġtranslate":10278,"ktinf":10279,"selenium":10280,"Ġmarektinf":10281,"ĠHong":10282,"Ġadminstration":10283,"statistics":10284,"Ġintroduce":10285,"Ġceramic":10286,"Ġconsumption":10287,"Ġventures":10288,"geb":10289,"nance":10290,"Ġtchat":10291,"Ġpile":10292,"Ġlob":10293,"Ġhacker":10294,"Ġfisher":10295,"asphalt":10296,"irt":10297,"avionics":10298,"plastics":10299,"qlda":10300,"Ġ28":10301,"marketplace":10302,"Ġhuynh":10303,"pose":10304,"Ġdebug":10305,"carbon":10306,"Ġdetailed":10307,"Ġbreed":10308,"Ġfocused":10309,"northern":10310,"modeler":10311,"scheduler":10312,"butcher":10313,"baby":10314,"rt":10315,"tail":10316,"veneer":10317,"ini":10318,"Ġcurrency":10319,"Ġpal":10320,"uncher":10321,"ascular":10322,"ovascular":10323,"convers":10324,"Ġbuffer":10325,"banes":10326,"Ġusually":10327,"Ġgeophys":10328,"vacuum":10329,"biot":10330,"Ġmongo":10331,"agronomist":10332,"Ġhistor":10333,"Ġcitibank":10334,"dynamic":10335,"intellectual":10336,"negotiation":10337,"Ġwirer":10338,"remittance":10339,"tieu":10340,"Ġdipper":10341,"ionist":10342,"Ġbad":10343,"uck":10344,"Ġincoming":10345,"children":10346,"oftop":10347,"Ġspir":10348,"printer":10349,"Ġmaketting":10350,"shot":10351,"syn":10352,"Ġhighway":10353,"Ġdijango":10354,"Ġfactors":10355,"Ġminor":10356,"Ġcounty":10357,"Ġwebsites":10358,"Ġengraver":10359,"negotiate":10360,"Ġporsche":10361,"Ġorchestration":10362,"qtrr":10363,"sla":10364,"Ġcord":10365,"Ġpot":10366,"rout":10367,"ague":10368,"Ġbt":10369,"Ġbel":10370,"Ġrman":10371,"Ġforklift":10372,"Ġduoi":10373,"Ġconsultor":10374,"ighter":10375,"Ġtransf":10376,"Ġsurve":10377,"outreach":10378,"recruiment":10379,"Ġclinician":10380,"Ġcampuchia":10381,"Ġtruoc":10382,"Ġsupplied":10383,"Ġmotivation":10384,"Ġcooking":10385,"parking":10386,"Ġcomposite":10387,"brew":10388,"Ġacceleration":10389,"Ġfnb":10390,"Ġsurveys":10391,"iev":10392,"onese":10393,"oratory":10394,"arator":10395,"Ġthich":10396,"Ġgiong":10397,"edi":10398,"crp":10399,"Ġvui":10400,"saler":10401,"Ġfrance":10402,"Ġupdates":10403,"Ġgeology":10404,"teachers":10405,"Ġmobilize":10406,"Ġdhl":10407,"Ġtargets":10408,"instrumentation":10409,"Ġpathology":10410,"orida":10411,"gold":10412,"zoning":10413,"ĠE":10414,"Ġfert":10415,"Ġhana":10416,"aining":10417,"lebot":10418,"Ġpackard":10419,"seeking":10420,"Ġok":10421,"Ġbioin":10422,"geodes":10423,"encing":10424,"typ":10425,"ccn":10426,"Ġothers":10427,"newspaper":10428,"Ġcola":10429,"decision":10430,"grades":10431,"storyteller":10432,"Ġbioinform":10433,"livestock":10434,"weather":10435,"ĠK":10436,"ĠO":10437,"Ġdsm":10438,"Ġdhs":10439,"ori":10440,"eler":10441,"Ġavp":10442,"Ġhor":10443,"add":10444,"ternance":10445,"andora":10446,"Ġcompreh":10447,"Ġcocoa":10448,"records":10449,"Ġrfi":10450,"Ġvinmart":10451,"module":10452,"Ġloading":10453,"Ġpbx":10454,"wei":10455,"Ġmuu":10456,"casual":10457,"Ġenhance":10458,"fundraising":10459,"Ġcomputational":10460,"screenwriter":10461,"switchboard":10462,"mes":10463,"turn":10464,"enas":10465,"rome":10466,"Ġbureau":10467,"Ġrung":10468,"istent":10469,"isc":10470,"chor":10471,"endo":10472,"Ġteamwork":10473,"Ġcream":10474,"grocery":10475,"chemist":10476,"Ġpatterns":10477,"gym":10478,"Ġseries":10479,"ĠZhi":10480,"Ġpaperwork":10481,"Ġcognos":10482,"surveyor":10483,"writter":10484,"Ġwedding":10485,"ĠXi":10486,"candidate":10487,"cac":10488,"eur":10489,"tig":10490,"Ġtab":10491,"Ġtables":10492,"Ġvinfast":10493,"rosion":10494,"acna":10495,"agon":10496,"omer":10497,"Ġwash":10498,"treatment":10499,"Ġhearing":10500,"Ġsatff":10501,"airplane":10502,"Ġgraphical":10503,"Ġrooftop":10504,"Ġorg":10505,"afer":10506,"ova":10507,"florist":10508,"interest":10509,"Ġpremise":10510,"Ġprovince":10511,"Ġcleaners":10512,"Ġzal":10513,"Ġmixing":10514,"developing":10515,"Ġadjustments":10516,"naval":10517,"iplom":10518,"Ġtransfers":10519,"700":10520,"boss":10521,"casting":10522,"fluent":10523,"lens":10524,"wlett":10525,"ato":10526,"Ġlak":10527,"row":10528,"Ġaf":10529,"Ġhq":10530,"cedes":10531,"thalm":10532,"Ġtoys":10533,"Ġhewlett":10534,"eout":10535,"Ġelectri":10536,"enser":10537,"aluminum":10538,"Ġhomeroom":10539,"Ġrxjava":10540,"Ġfundraising":10541,"Ġembeded":10542,"motions":10543,"Ġhardlines":10544,"Ġunloader":10545,"Ġapplicable":10546,"ĠBen":10547,"Ġconsolidation":10548,"excutive":10549,"Ġnexus":10550,"Ġmutual":10551,"fine":10552,"hmi":10553,"ja":10554,"tao":10555,"Ġmason":10556,"Ġsusp":10557,"Ġofic":10558,"Ġexim":10559,"Ġleisure":10560,"Ġsatellite":10561,"Ġcompiler":10562,"Ġtheoretical":10563,"productivity":10564,"leading":10565,"housekeeper":10566,"Ġpolitics":10567,"Ġdeloitte":10568,"depart":10569,"flash":10570,"Ġsignals":10571,"Ġvalley":10572,"Ġconceptual":10573,"builder":10574,"bookmaker":10575,"Ġweight":10576,"Ġkolin":10577,"funeral":10578,"command":10579,"movie":10580,"kok":10581,"Ġtaker":10582,"Ġtactical":10583,"Ġcach":10584,"atm":10585,"atal":10586,"Ġmel":10587,"emc":10588,"Ġsuit":10589,"Ġwlan":10590,"yster":10591,"Ġassoc":10592,"otation":10593,"implant":10594,"Ġreality":10595,"illery":10596,"Ġcoordinater":10597,"Ġbacklog":10598,"spanish":10599,"Ġmercedes":10600,"Ġheads":10601,"Ġcarol":10602,"corn":10603,"Ġdiabetes":10604,"shopkeeper":10605,"Ġrecorder":10606,"Ġnavigation":10607,"Ġicd":10608,"acialist":10609,"vinpearl":10610,"leyball":10611,"textiles":10612,"Ġpuppet":10613,"Ġaquaticulture":10614,"bestos":10615,"bee":10616,"duty":10617,"juridical":10618,"jira":10619,"jquery":10620,"vel":10621,"Ġpic":10622,"Ġpneumatic":10623,"Ġmn":10624,"Ġmas":10625,"Ġkid":10626,"Ġsuse":10627,"iebel":10628,"quarter":10629,"endar":10630,"Ġfries":10631,"Ġiis":10632,"tek":10633,"finish":10634,"clay":10635,"lind":10636,"Ġalibaba":10637,"websphere":10638,"Ġfriesland":10639,"reduc":10640,"sx":10641,"ineken":10642,"Ġengag":10643,"Ġcot":10644,"osa":10645,"Ġ3500":10646,"Ġcaregiver":10647,"Ġblower":10648,"Ġ2021":10649,"Ġaltern":10650,"iatant":10651,"Ġpci":10652,"compliances":10653,"Ġkols":10654,"ĠHope":10655,"Ġpoultry":10656,"Ġ1800":10657,"robotic":10658,"forwarder":10659,"recreational":10660,"drafting":10661,"measurement":10662,"Ġshinhan":10663,"geodesy":10664,"kts":10665,"etry":10666,"ura":10667,"Ġeeo":10668,"igr":10669,"Ġstaf":10670,"Ġclb":10671,"Ġforum":10672,"Ġeditors":10673,"Ġentity":10674,"Ġlayouts":10675,"Ġmultinational":10676,"Ġ06":10677,"Ġvpdd":10678,"Ġchairperson":10679,"drop":10680,"Ġgrounds":10681,"sponsorship":10682,"chairman":10683,"Ġblueprint":10684,"Ġnashtech":10685,"bds":10686,"vnd":10687,"inng":10688,"Ġtor":10689,"Ġdance":10690,"Ġhus":10691,"Ġrider":10692,"ivoli":10693,"Ġgiat":10694,"Ġcoal":10695,"Ġoutlook":10696,"Ġwaterfall":10697,"Ġcommissioner":10698,"Ġfluid":10699,"oomberg":10700,"Ġconcultant":10701,"broadcaster":10702,"nuxtjs":10703,"simulation":10704,"citrix":10705,"hl":10706,"rip":10707,"xin":10708,"Ġpunch":10709,"emat":10710,"isit":10711,"Ġcheng":10712,"Ġacute":10713,"Ġservic":10714,"bris":10715,"luggage":10716,"Ġassembl":10717,"contracting":10718,"reliability":10719,"labour":10720,"analytic":10721,"Ġcurator":10722,"collaborative":10723,"Ġblackboard":10724,"Ġhtts":10725,"Ġconsulent":10726,"Ġextension":10727,"contrib":10728,"Ġinjury":10729,"gun":10730,"iable":10731,"joint":10732,"inning":10733,"eli":10734,"opter":10735,"Ġhud":10736,"Ġgra":10737,"Ġextraction":10738,"irrigation":10739,"Ġasss":10740,"Ġarchitectures":10741,"Ġinsur":10742,"ources":10743,"Ġrover":10744,"Ġindones":10745,"Ġdrainage":10746,"ostat":10747,"Ġgovernmental":10748,"Ġhomeowner":10749,"Ġcpu":10750,"Ġtechinical":10751,"experimental":10752,"Ġmechandiser":10753,"dial":10754,"ius":10755,"rate":10756,"rua":10757,"tape":10758,"wash":10759,"Ġ\\":10760,"Ġdining":10761,"Ġcip":10762,"Ġpad":10763,"acom":10764,"Ġnj":10765,"olution":10766,"auma":10767,"Ġtoefl":10768,"Ġfinancials":10769,"Ġtype":10770,"Ġlabels":10771,"Ġthought":10772,"ceramic":10773,"Ġengines":10774,"Ġpumper":10775,"magnet":10776,"Ġvacuum":10777,"Ġmalware":10778,"Ġmanagemnent":10779,"Ġcorrespondent":10780,"Ġpedagogy":10781,"discip":10782,"benefits":10783,"litigation":10784,"vfx":10785,"Ġpin":10786,"itan":10787,"Ġhab":10788,"Ġrt":10789,"Ġgy":10790,"apons":10791,"Ġhoai":10792,"plac":10793,"Ġwebform":10794,"Ġyii":10795,"Ġyarn":10796,"Ġinfluence":10797,"Ġattacher":10798,"Ġcoca":10799,"Ġcake":10800,"Ġspeacialist":10801,"carrier":10802,"Ġtexture":10803,"pipeline":10804,"Ġomni":10805,"Ġconsuliting":10806,"estimator":10807,"1300":10808,"Ġwipro":10809,"diagnostic":10810,"lipse":10811,"dp":10812,"hau":10813,"iing":10814,"nong":10815,"vessel":10816,"arage":10817,"Ġgh":10818,"Ġchr":10819,"oda":10820,"reight":10821,"Ġshov":10822,"Ġsurpervisor":10823,"blu":10824,"Ġelastic":10825,"senoir":10826,"Ġcompetency":10827,"campina":10828,"collaborate":10829,"localization":10830,"Ġpassion":10831,"Ġconvention":10832,"fornation":10833,"Ġmockup":10834,"assessment":10835,"Ġdiagnosis":10836,"rofessional":10837,"Ġbioinformatics":10838,"Ġfrieslandcampina":10839,"fm":10840,"mall":10841,"Ġtaking":10842,"Ġdd":10843,"aler":10844,"icum":10845,"Ġana":10846,"Ġwb":10847,"ipher":10848,"prove":10849,"salad":10850,"Ġboo":10851,"afreight":10852,"Ġprogrammatic":10853,"finull":10854,"Ġmicrostation":10855,"Ġthoa":10856,"Ġcasual":10857,"Ġmassage":10858,"sysadmin":10859,"Ġholder":10860,"Ġbills":10861,"aerospace":10862,"Ġnasa":10863,"Ġengnieer":10864,"Ġkentico":10865,"30":10866,"hen":10867,"pump":10868,"wine":10869,"Ġdut":10870,"alarm":10871,"Ġvc":10872,"icad":10873,"icator":10874,"Ġbsc":10875,"opay":10876,"universal":10877,"Ġebay":10878,"Ġsanitation":10879,"Ġconsultand":10880,"Ġgrocery":10881,"Ġorganic":10882,"deverl":10883,"Ġreceiver":10884,"Ġcath":10885,"Ġaftersales":10886,"capacity":10887,"Ġepic":10888,"fabrication":10889,"Ġnestjs":10890,"computational":10891,"Ġbevarage":10892,"bin":10893,"fu":10894,"hbase":10895,"lene":10896,"max":10897,"shr":10898,"Ġpush":10899,"orate":10900,"accur":10901,"Ġhas":10902,"Ġprogam":10903,"asion":10904,"iee":10905,"Ġspss":10906,"Ġexecutiveurgent":10907,"Ġplating":10908,"Ġclimate":10909,"Ġphotographic":10910,"scale":10911,"Ġbangkok":10912,"Ġvalves":10913,"carpenter":10914,"cassandra":10915,"Ġthink":10916,"Ġsewage":10917,"oxley":10918,"Ġformerly":10919,"Ġanswer":10920,"gate":10921,"Ġcib":10922,"Ġmiller":10923,"Ġlast":10924,"acion":10925,"Ġkong":10926,"Ġnin":10927,"Ġhut":10928,"ainers":10929,"forming":10930,"gioi":10931,"conunt":10932,"Ġinfection":10933,"Ġsmd":10934,"Ġidentification":10935,"snb":10936,"statistic":10937,"cleaning":10938,"Ġpdf":10939,"bur":10940,"bearer":10941,"nec":10942,"vip":10943,"inquent":10944,"Ġcultural":10945,"ara":10946,"Ġnco":10947,"entative":10948,"Ġbich":10949,"Ġreb":10950,"chuc":10951,"ucture":10952,"Ġju":10953,"mers":10954,"imax":10955,"Ġoffset":10956,"Ġfriend":10957,"Ġleat":10958,"Ġcompaign":10959,"Ġimages":10960,"Ġopener":10961,"ovo":10962,"exam":10963,"Ġisa":10964,"Ġpermanent":10965,"Ġsmacna":10966,"Ġfirebase":10967,"Ġpsychosocial":10968,"hole":10969,"Ġforeigner":10970,"documentary":10971,"ĠMarket":10972,"Ġtecnical":10973,"Ġengeener":10974,"Ġengeering":10975,"esthetic":10976,"silk":10977,"scrap":10978,"Ġdyer":10979,"Ġmounter":10980,"aprofessional":10981,"Ġek":10982,"Ġste":10983,"Ġster":10984,"Ġstem":10985,"iday":10986,"mining":10987,"orders":10988,"priet":10989,"Ġinverter":10990,"anse":10991,"Ġlining":10992,"Ġapis":10993,"Ġusaid":10994,"indle":10995,"insulation":10996,"Ġverilog":10997,"risks":10998,"Ġradar":10999,"hyper":11000,"organic":11001,"soap":11002,"weight":11003,"hcns":11004,"telephonist":11005,"Ġchalleng":11006,"bellman":11007,"panel":11008,"bioinformatics":11009,"brake":11010,"Ġresouces":11011,"Ġacrobat":11012,"gps":11013,"ll":11014,"tom":11015,"xy":11016,"onaut":11017,"Ġdeter":11018,"icious":11019,"emnt":11020,"Ġmanagerr":11021,"adian":11022,"Ġdeveloperurgent":11023,"Ġjag":11024,"hoat":11025,"hour":11026,"Ġdoe":11027,"sperson":11028,"solder":11029,"Ġplants":11030,"Ġbreaker":11031,"Ġirs":11032,"Ġ1300":11033,"Ġnationwide":11034,"policies":11035,"Ġdescription":11036,"Ġrotational":11037,"currently":11038,"Ġdreamweaver":11039,"Ġprovisioning":11040,"Ġjlpt":11041,"Marketing":11042,"bis":11043,"geo":11044,"nosql":11045,"pur":11046,"pad":11047,"washing":11048,"Ġtme":11049,"ecops":11050,"icle":11051,"Ġtry":11052,"Ġoffcer":11053,"intro":11054,"named":11055,"computing":11056,"Ġexpeditor":11057,"Ġexpenses":11058,"matlab":11059,"Ġguests":11060,"Ġcatalyst":11061,"maritime":11062,"amilk":11063,"sox":11064,"ĠChan":11065,"Ġdeposit":11066,"Ġrenewal":11067,"Ġwhite":11068,"Ġladder":11069,"cau":11070,"cutter":11071,"huyen":11072,"pin":11073,"pyspark":11074,"sde":11075,"vent":11076,"Ġcast":11077,"alumni":11078,"Ġvill":11079,"icultural":11080,"Ġhay":11081,"Ġwms":11082,"tream":11083,"intosh":11084,"finacial":11085,"idea":11086,"path":11087,"controls":11088,"directer":11089,"Ġids":11090,"Engineer":11091,"Ġtckt":11092,"cutting":11093,"Ġinfosys":11094,"renewable":11095,"Ġansible":11096,"sketchup":11097,"Ġhusband":11098,"bb":11099,"boi":11100,"dog":11101,"gh":11102,"journeyman":11103,"Ġtdv":11104,"Ġsvp":11105,"atomy":11106,"Ġmore":11107,"Ġkms":11108,"etooth":11109,"igent":11110,"Ġwastewater":11111,"ides":11112,"mergers":11113,"Ġxk":11114,"otfware":11115,"Ġdevelopping":11116,"prosp":11117,"Ġstrength":11118,"lining":11119,"indoor":11120,"techlead":11121,"Ġcentric":11122,"Ġmarking":11123,"headhunter":11124,"Ġ**":11125,"Ġhardline":11126,"Ġestablishment":11127,"Ġsarbanes":11128,"appraisal":11129,"accurate":11130,"Ġjaguar":11131,"cg":11132,"deck":11133,"jig":11134,"sep":11135,"task":11136,"wastewater":11137,"Ġ(":11138,"Ġpvc":11139,"Ġlau":11140,"Ġkit":11141,"Ġengener":11142,"chip":11143,"essels":11144,"Ġbancas":11145,"uml":11146,"ills":11147,"Ġsupervisors":11148,"Ġadverising":11149,"Ġsociology":11150,"Ġtrades":11151,"exter":11152,"Ġtrainees":11153,"Ġusers":11154,"medication":11155,"specialty":11156,"presenter":11157,"Ġcommunicate":11158,"infra":11159,"Ġ08":11160,"Ġtiki":11161,"diamond":11162,"Ġlanding":11163,"Ġrequests":11164,"supervising":11165,"traning":11166,"Ġsnr":11167,"protective":11168,"ohns":11169,"scholarly":11170,"Manager":11171,"aisor":11172,"pccc":11173,"veg":11174,"yarn":11175,"Ġenterpr":11176,"Ġcaster":11177,"Ġneu":11178,"Ġhiv":11179,"ching":11180,"Ġedm":11181,"Ġflorida":11182,"Ġdevsecops":11183,"Ġtanks":11184,"franchise":11185,"Ġmicrowave":11186,"Ġclinics":11187,"rick":11188,"folios":11189,"Ġmini":11190,"eneers":11191,"microbiology":11192,"Ġnavigator":11193,"firefigh":11194,"basel":11195,"Ġacounting":11196,"Ġharvey":11197,"Ġtechinician":11198,"twitter":11199,"veget":11200,"sigma":11201,"xml":11202,"Ġlos":11203,"Ġbuss":11204,"itsm":11205,"etrics":11206,"Ġhen":11207,"untu":11208,"Ġft":11209,"apartment":11210,"Ġinto":11211,"ilation":11212,"Ġspan":11213,"Ġcontainers":11214,"Ġhear":11215,"Ġautonomous":11216,"perf":11217,"Ġmoderator":11218,"conc":11219,"Ġbaseball":11220,"offer":11221,"Ġredis":11222,"cassurence":11223,"Ġingeneer":11224,"organize":11225,"Ġavionics":11226,"photographic":11227,"Ġapplicator":11228,"culinary":11229,"machinist":11230,"benchmarke":11231,"Ġbrowser":11232,"08":11233,"een":11234,"mud":11235,"qp":11236,"sernior":11237,"uo":11238,"year":11239,"info":11240,"Ġsunt":11241,"Ġnavy":11242,"Ġbash":11243,"ophy":11244,"Ġrush":11245,"Ġqm":11246,"ipe":11247,"Ġjest":11248,"Ġnhot":11249,"Ġaccountability":11250,"Ġoffbearer":11251,"osophy":11252,"Ġtailor":11253,"ply":11254,"Ġinserter":11255,"Ġworkload":11256,"Ġtechincal":11257,"Ġpersonality":11258,"Ġsony":11259,"Ġarchicad":11260,"traveling":11261,"Ġnegotiating":11262,"Ġbpo":11263,"informatica":11264,"Ġalcohol":11265,"departie":11266,"bob":11267,"cation":11268,"lad":11269,"rpa":11270,"Ġelect":11271,"Ġcofounder":11272,"Ġpizza":11273,"icient":11274,"icycle":11275,"elsen":11276,"Ġengeneers":11277,"igious":11278,"Ġextern":11279,"actional":11280,"Ġkyc":11281,"imistration":11282,"Ġrecep":11283,"Ġbrush":11284,"Ġuniversal":11285,"Ġsupervaisor":11286,"suppervisor":11287,"specialized":11288,"holster":11289,"Ġregistrar":11290,"bottle":11291,"Ġtemper":11292,"guard":11293,"Ġnavision":11294,"ftware":11295,"Ġgreat":11296,"Ġfontend":11297,"wellness":11298,"Ġdemonstrator":11299,"Ġgarage":11300,"mainframe":11301,"Ġanalisty":11302,"hairdresser":11303,"communicator":11304,"clearance":11305,"ohnson":11306,"ae":11307,"cdl":11308,"fb":11309,"kaizen":11310,"kiln":11311,"mor":11312,"vert":11313,"Ġcel":11314,"Ġpts":11315,"ario":11316,"Ġanchor":11317,"Ġengland":11318,"Ġinfornation":11319,"Ġjourneyman":11320,"grinder":11321,"ainment":11322,"osure":11323,"forestry":11324,"Ġheater":11325,"netty":11326,"Ġlake":11327,"ivestream":11328,"scada":11329,"transition":11330,"Ġimplementations":11331,"Ġportfolios":11332,"ĠShe":11333,"Ġenginieer":11334,"Ġinnovative":11335,"Ġarchitech":11336,"Ġ600":11337,"Ġvinamilk":11338,"Ġtopica":11339,"Ġidp":11340,"greengrocer":11341,"scription":11342,"Ġenhancing":11343,"virtualization":11344,"woman":11345,"continental":11346,"Ġpnj":11347,"Ġzalopay":11348,"100":11349,"xcode":11350,"zil":11351,"Ġsvn":11352,"arial":11353,"Ġnop":11354,"Ġbw":11355,"Ġquat":11356,"Ġweld":11357,"gradu":11358,"Ġrein":11359,"Ġauthent":11360,"technologist":11361,"household":11362,"Ġdonor":11363,"Ġrepairman":11364,"Ġtraveling":11365,"Ġbonuses":11366,"goal":11367,"Ġknow":11368,"Ġuv":11369,"Ġnorthwest":11370,"calcul":11371,"Ġcompetition":11372,"bookkeeping":11373,"apeutic":11374,"waiting":11375,"slot":11376,"magaz":11377,"ĠHi":11378,"counseling":11379,"therapeutic":11380,"Ġcarefulness":11381,"tableau":11382,"bucket":11383,"otyping":11384,"25":11385,"rer":11386,"win":11387,"Ġview":11388,"Ġniss":11389,"Ġmanul":11390,"emination":11391,"aming":11392,"Ġrtl":11393,"Ġgot":11394,"Ġford":11395,"Ġprim":11396,"Ġanalyste":11397,"crib":11398,"Ġdoors":11399,"Ġabc":11400,"hunt":11401,"Ġpsychiat":11402,"Ġamount":11403,"Ġlocated":11404,"Ġlaos":11405,"Ġassistan":11406,"Ġlogging":11407,"Ġtopics":11408,"distributed":11409,"trucking":11410,"presenters":11411,"commis":11412,"Ġsevices":11413,"draftsman":11414,"Ġcontinue":11415,"Ġsuntory":11416,"hide":11417,"nas":11418,"Ġsir":11419,"Ġdxc":11420,"Ġcmc":11421,"arc":11422,"Ġnt":11423,"Ġnao":11424,"Ġbol":11425,"Ġbui":11426,"Ġbender":11427,"Ġgong":11428,"Ġhour":11429,"Ġtoad":11430,"Ġheart":11431,"Ġdepend":11432,"Ġgram":11433,"Ġcommunities":11434,"ella":11435,"Ġ300":11436,"Ġ26":11437,"coil":11438,"Ġyork":11439,"ienced":11440,"incare":11441,"Ġpharmac":11442,"boo":11443,"complex":11444,"Ġpaas":11445,"ĠSheng":11446,"microservice":11447,"Ġcvs":11448,"Ġsilver":11449,"Ġengenning":11450,"Ġ1995":11451,"cryptocurrency":11452,"Ġtecnich":11453,"white":11454,"ĠBu":11455,"button":11456,"explo":11457,"bottom":11458,"publisher":11459,"Ġdyeing":11460,"aes":11461,"fis":11462,"fitter":11463,"haccp":11464,"wok":11465,"alist":11466,"Ġbor":11467,"ether":11468,"etric":11469,"aps":11470,"uru":11471,"aire":11472,"Ġebusiness":11473,"Ġstone":11474,"Ġxl":11475,"upto":11476,"Ġwebservice":11477,"rese":11478,"ello":11479,"Ġims":11480,"Ġresearching":11481,"pty":11482,"Ġsymantec":11483,"blog":11484,"administrators":11485,"Ġeligibility":11486,"Ġremover":11487,"Ġengenner":11488,"Ġvacc":11489,"powder":11490,"converged":11491,"diretor":11492,"Ġinfosec":11493,"Ġtags":11494,"Ġanalisys":11495,"hon":11496,"hub":11497,"imer":11498,"ieve":11499,"need":11500,"Ġice":11501,"ats":11502,"Ġthesis":11503,"Ġriv":11504,"une":11505,"Ġchrist":11506,"Ġwool":11507,"iphone":11508,"Ġoperarations":11509,"quotation":11510,"spot":11511,"Ġretailer":11512,"Ġindustrialization":11513,"official":11514,"corp":11515,"corpor":11516,"Ġspeed":11517,"Ġbigc":11518,"vpn":11519,"substance":11520,"Ġloom":11521,"radiology":11522,"respiratory":11523,"gmp":11524,"Ġsupevior":11525,"southeast":11526,"athletic":11527,"Ġoficcer":11528,"reduce":11529,"Ġengagements":11530,"dining":11531,"tcp":11532,"Ġ%":11533,"ennier":11534,"Ġcfd":11535,"icopter":11536,"stem":11537,"Ġlump":11538,"Ġbv":11539,"Ġproposition":11540,"Ġenig":11541,"operative":11542,"Ġinquir":11543,"ieme":11544,"abil":11545,"plaster":11546,"straight":11547,"Ġshaper":11548,"Ġreplenishment":11549,"Ġformat":11550,"roidery":11551,"Ġadvisors":11552,"adminstr":11553,"lets":11554,"Ġhosted":11555,"Ġdebit":11556,"Ġteradata":11557,"Ġrfq":11558,"Ġfreshier":11559,"Ġmeasures":11560,"filter":11561,"Ġaxon":11562,"promotions":11563,"Ġmanagemnet":11564,"qualitative":11565,"Ġfae":11566,"southern":11567,"Ġiaas":11568,"Ġsubsidiary":11569,"Ġphilippines":11570,"Ġbctc":11571,"deverloper":11572,"Ġmanulife":11573,"dcs":11574,"from":11575,"nail":11576,"sort":11577,"venture":11578,"Ġine":11579,"Ġtak":11580,"Ġcgv":11581,"ecer":11582,"Ġbm":11583,"Ġak":11584,"apoteker":11585,"Ġsubpo":11586,"Ġofff":11587,"iliary":11588,"Ġnhuong":11589,"improv":11590,"legisl":11591,"endant":11592,"crystal":11593,"ifrs":11594,"Ġvault":11595,"Ġbout":11596,"identity":11597,"Ġdrum":11598,"shipper":11599,"eeer":11600,"Ġabb":11601,"Ġcancer":11602,"Ġcarp":11603,"Ġesb":11604,"verbal":11605,"Ġcharger":11606,"Ġbalan":11607,"Ġfacilitation":11608,"Ġfarmworker":11609,"Ġreceiveable":11610,"Ġblocker":11611,"Ġbriefing":11612,"ĠGong":11613,"silver":11614,"Ġstraightener":11615,"responsible":11616,"Ġtaiwanese":11617,"Ġbuisiness":11618,"ycling":11619,"routine":11620,"ĠEN":11621,"Ġsubpoenas":11622,"cvc":11623,"font":11624,"squ":11625,"vertical":11626,"xi":11627,"Ġdk":11628,"Ġvong":11629,"Ġnit":11630,"amin":11631,"Ġanay":11632,"asive":11633,"grid":11634,"avor":11635,"otives":11636,"qua":11637,"Ġaccountancy":11638,"rew":11639,"umper":11640,"obd":11641,"Ġshot":11642,"Ġrescue":11643,"Ġleaf":11644,"Ġcheif":11645,"Ġeco":11646,"Ġabilities":11647,"Ġdiscount":11648,"solve":11649,"Ġsignage":11650,"launch":11651,"collect":11652,"Ġhospice":11653,"Ġtopik":11654,"Ġingineer":11655,"advertisement":11656,"soat":11657,"decoration":11658,"Ġblackberry":11659,"bonus":11660,"Ġcitizen":11661,"Ġdemonstrations":11662,"Ġfedex":11663,"Ġwriters":11664,"vegetable":11665,"fmea":11666,"htt":11667,"mas":11668,"vision":11669,"Ġenter":11670,"Ġtsc":11671,"Ġnpp":11672,"etaker":11673,"Ġfest":11674,"Ġexpr":11675,"Ġcomun":11676,"ustic":11677,"Ġdesigh":11678,"queting":11679,"refin":11680,"Ġcommunnication":11681,"comb":11682,"Ġyield":11683,"Ġshops":11684,"Ġlamp":11685,"Ġ110":11686,"Ġhandic":11687,"Ġalteration":11688,"Ġordering":11689,"appliance":11690,"Ġpositioning":11691,"cheif":11692,"Ġpanasonic":11693,"Ġengeenier":11694,"Ġlubricant":11695,"gebra":11696,"29":11697,"Chuyen":11698,"neg":11699,"pilot":11700,"wage":11701,"wse":11702,"input":11703,"Ġsex":11704,"Ġpmc":11705,"eces":11706,"amper":11707,"Ġrights":11708,"Ġgal":11709,"Ġqueries":11710,"Ġje":11711,"Ġskus":11712,"Ġtrainning":11713,"Ġcrusher":11714,"construct":11715,"output":11716,"Ġdisigner":11717,"Ġposing":11718,"Ġsells":11719,"Ġpracticum":11720,"Ġsubstitute":11721,"Ġicu":11722,"buying":11723,"Ġadditional":11724,"Ġsealer":11725,"mobil":11726,"medicare":11727,"Ġscrap":11728,"ĠAnalisty":11729,"orthopedic":11730,"stalls":11731,"Ġassisant":11732,"fiberglass":11733,"pulp":11734,"atibility":11735,"orient":11736,"Ġvm":11737,"Ġrau":11738,"Ġanger":11739,"Ġqhse":11740,"Ġwcf":11741,"Ġjohnson":11742,"activity":11743,"abic":11744,"Ġits":11745,"coating":11746,"Ġagility":11747,"finan":11748,"Ġtourguide":11749,"Ġrepairing":11750,"Ġrailway":11751,"Ġchefdepartie":11752,"invoice":11753,"profile":11754,"hodont":11755,"guid":11756,"Ġicpc":11757,"ĠYu":11758,"Ġutilization":11759,"tooling":11760,"Ġnegotiator":11761,"Ġexploit":11762,"Ġsplitter":11763,"Ġsplunk":11764,"********":11765,"Ġdeadlines":11766,"Ġjanitor":11767,"vlxd":11768,"Ġtchc":11769,"houseman":11770,"talion":11771,"Ġboutique":11772,"candy":11773,"iq":11774,"iy":11775,"tow":11776,"Ġnw":11777,"Ġboun":11778,"Ġaug":11779,"Ġengineerer":11780,"igos":11781,"Ġcomunication":11782,"abling":11783,"update":11784,"Ġio":11785,"Ġcorel":11786,"Ġstacker":11787,"Ġintercontinental":11788,"smith":11789,"Ġlabview":11790,"Ġhybris":11791,"Ġremed":11792,"investig":11793,"grounds":11794,"Ġselector":11795,"soa":11796,"copywriting":11797,"Ġnutritionist":11798,"prototype":11799,"borne":11800,"Ġubnd":11801,"goods":11802,"notarize":11803,"Ġdispute":11804,"Ġminimum":11805,"finullcial":11806,"'m":11807,"ah":11808,"dns":11809,"kit":11810,"lt":11811,"lus":11812,"mess":11813,"pest":11814,"vest":11815,"Ġtms":11816,"Ġpix":11817,"Ġmfc":11818,"Ġvita":11819,"Ġnail":11820,"opper":11821,"Ġaka":11822,"Ġfilling":11823,"Ġftp":11824,"istance":11825,"Ġsalaries":11826,"essori":11827,"epic":11828,"Ġthua":11829,"Ġleg":11830,"Ġmedior":11831,"Ġbooth":11832,"iana":11833,"phuong":11834,"Ġprofession":11835,"Ġguitar":11836,"Ġpersonalization":11837,"Ġdiver":11838,"Ġmultit":11839,"Ġparam":11840,"Ġenginere":11841,"Ġprovin":11842,"Ġformulation":11843,"riott":11844,"Ġquotes":11845,"psychology":11846,"preparation":11847,"ĠEngeneer":11848,"Ġsquare":11849,"carton":11850,"Ġmissile":11851,"Ġsuspicious":11852,"Ġshovel":11853,"ipheral":11854,"bage":11855,"pool":11856,"rich":11857,"tag":11858,"Ġsieng":11859,"escent":11860,"Ġnutr":11861,"Ġtrash":11862,"Ġthon":11863,"Ġthing":11864,"Ġrat":11865,"Ġgov":11866,"Ġfighter":11867,"chua":11868,"oline":11869,"Ġwallet":11870,"proc":11871,"Ġrepeat":11872,"Ġinsieme":11873,"answer":11874,"Ġanalyts":11875,"Ġoutgoing":11876,"Ġtranslating":11877,"swe":11878,"Ġpersons":11879,"piaggio":11880,"videography":11881,"Ġacccount":11882,"Ġcloseout":11883,"Ġingeneur":11884,"Ġenginneri":11885,"Ġready":11886,"Ġpatternmaker":11887,"crop":11888,"ĠChang":11889,"Ġnielsen":11890,"painting":11891,"Ġjavacript":11892,"Ġrestructure":11893,"Ġcraf":11894,"Ġingennier":11895,"Ġhuawei":11896,"cfa":11897,"hull":11898,"hose":11899,"jewel":11900,"kin":11901,"ple":11902,"pneumatic":11903,"ski":11904,"ena":11905,"Ġsops":11906,"Ġcordin":11907,"Ġpega":11908,"Ġvessels":11909,"Ġlunch":11910,"Ġepe":11911,"Ġeinng":11912,"Ġconductor":11913,"Ġstamping":11914,"terra":11915,"ily":11916,"Ġjing":11917,"Ġhous":11918,"requ":11919,"rease":11920,"Ġframer":11921,"Ġonl":11922,"Ġsky":11923,"Ġworked":11924,"Ġbuff":11925,"Ġvisitor":11926,"ixir":11927,"Ġbloomberg":11928,"blow":11929,"Ġmeet":11930,"Ġoda":11931,"techincal":11932,"Ġexcut":11933,"Ġesc":11934,"Ġtechnological":11935,"Ġvolleyball":11936,"Ġdefective":11937,"Ġterra":11938,"shopper":11939,"carpet":11940,"Ġlogs":11941,"cae":11942,"Ġprospecting":11943,"aneer":11944,"Ġ1997":11945,"Ġappointment":11946,"Ġlisten":11947,"foundry":11948,"Ġtuning":11949,"methods":11950,"Ġmaternity":11951,"Ġeximbank":11952,"Ġenigineer":11953,"Ġeinnger":11954,"hearing":11955,"pace":11956,"teting":11957,"wildlife":11958,"inical":11959,"Ġsqe":11960,"Ġdsl":11961,"Ġmile":11962,"Ġmdm":11963,"Ġveb":11964,"Ġrice":11965,"Ġengeg":11966,"Ġchia":11967,"Ġkhuc":11968,"Ġjw":11969,"Ġdesiger":11970,"Ġprm":11971,"forecast":11972,"Ġanalysation":11973,"Ġsociety":11974,"aketing":11975,"retention":11976,"mla":11977,"Ġchanel":11978,"Ġcna":11979,"Ġmetallurg":11980,"Ġcounselors":11981,"couting":11982,"Ġenginier":11983,"verter":11984,"Ġlicensed":11985,"Ġcloser":11986,"Ġcalendar":11987,"Ġsimul":11988,"uarance":11989,"lawn":11990,"Ġoptions":11991,"crow":11992,"korea":11993,"oxy":11994,"Ġresidents":11995,"explos":11996,"Ġdesgin":11997,"wedding":11998,"Ġsharp":11999,"Ġengegneer":12000,"aas":12001,"nie":12002,"tie":12003,"uf":12004,"enna":12005,"Ġvoucher":12006,"iculture":12007,"Ġlever":12008,"evs":12009,"Ġhall":12010,"Ġrnd":12011,"Ġenganeer":12012,"Ġsugar":12013,"Ġwildlife":12014,"Ġstuff":12015,"ountain":12016,"Ġdesigne":12017,"priority":12018,"Ġstrip":12019,"resort":12020,"combat":12021,"Ġgrow":12022,"Ġperformer":12023,"Ġinfo":12024,"issance":12025,"Ġcopywritter":12026,"particip":12027,"swim":12028,"Ġengineener":12029,"Ġtutoring":12030,"monary":12031,"warp":12032,"stocker":12033,"cbkt":12034,"Ġinterpretor":12035,"Ġncaa":12036,"Ġgolden":12037,"aquaculture":12038,"Ġscreens":12039,"ancies":12040,"Ġcoordenator":12041,"Ġassemblies":12042,"firefighter":12043,"34":12044,"Phong":12045,"uat":12046,"Ġmex":12047,"orm":12048,"Ġgard":12049,"Ġphones":12050,"chuan":12051,"Ġeign":12052,"idem":12053,"tras":12054,"quin":12055,"thau":12056,"Ġlaptops":12057,"plat":12058,"ologies":12059,"Ġtranscription":12060,"Ġcsm":12061,"curr":12062,"Ġmeal":12063,"undai":12064,"ctor":12065,"heating":12066,"processor":12067,"Ġdetect":12068,"Ġpractical":12069,"nequin":12070,"Ġfluids":12071,"printed":12072,"radi":12073,"Ġcomposer":12074,"Ġsegmentation":12075,"accident":12076,"Ġsynthesis":12077,"Ġbulk":12078,"Ġasssistant":12079,"Ġeigneeer":12080,"Nhan":12081,"cultural":12082,"jan":12083,"qm":12084,"ris":12085,"atsu":12086,"Ġmich":12087,"Ġmri":12088,"Ġmds":12089,"sth":12090,"Ġlcd":12091,"etcher":12092,"Ġmanagent":12093,"Ġaus":12094,"Ġrh":12095,"Ġprop":12096,"Ġxach":12097,"Ġprograming":12098,"Ġplater":12099,"prs":12100,"Ġconsultantcy":12101,"Ġreactor":12102,"Ġsym":12103,"Ġmarriott":12104,"Ġcyt":12105,"Ġshiftsup":12106,"Ġinstallations":12107,"Ġfoundry":12108,"Ġcameras":12109,"firewall":12110,"Ġmeasuring":12111,"Ġguideline":12112,"Ġengenieer":12113,"linkedin":12114,"psychologists":12115,"ĠFan":12116,"ĠIngeneer":12117,"Ġadhes":12118,"Ġsheriff":12119,"ershell":12120,"Ġengenering":12121,"magazine":12122,"bss":12123,"foc":12124,"gui":12125,"pv":12126,"tactical":12127,"uitment":12128,"vage":12129,"Ġtng":12130,"atior":12131,"Ġmits":12132,"Ġvins":12133,"static":12134,"hank":12135,"operability":12136,"Ġdeveloment":12137,"Ġtum":12138,"thai":12139,"fore":12140,"ended":12141,"Ġweblogic":12142,"Ġleast":12143,"Ġreput":12144,"Ġende":12145,"Ġbackpack":12146,"Ġgrc":12147,"ourer":12148,"identify":12149,"Ġcomputerization":12150,"flower":12151,"ktok":12152,"Ġupload":12153,"Ġboarding":12154,"cmo":12155,"Ġgtgt":12156,"disability":12157,"juniper":12158,"gaming":12159,"Ġsensitive":12160,"Ġhammer":12161,"Ġbrazil":12162,"journalism":12163,"ĠEngennier":12164,"Ġnovell":12165,"Ġmerchad":12166,"Ġbobcat":12167,"isitcs":12168,"exterity":12169,"Ġgrammar":12170,"cogn":12171,"dish":12172,"jack":12173,"mainten":12174,"Ġog":12175,"Ġsab":12176,"Ġmud":12177,"Ġkdt":12178,"Ġnd":12179,"Ġbgp":12180,"Ġhull":12181,"Ġthuyen":12182,"Ġphon":12183,"omation":12184,"Ġextra":12185,"Ġserving":12186,"oto":12187,"leed":12188,"Ġfruit":12189,"Ġcrim":12190,"Ġapm":12191,"outsourcing":12192,"outpatient":12193,"autodesk":12194,"Ġsprinkler":12195,"letter":12196,"Ġevidence":12197,"Ġ5000":12198,"newscaster":12199,"pmp":12200,"Ġvinac":12201,"logical":12202,"Ġtennis":12203,"break":12204,"Ġrolls":12205,"Ġconsole":12206,"Ġcementer":12207,"Ġreseacher":12208,"INNE":12209,"Ġgauger":12210,"cake":12211,"ford":12212,"fob":12213,"fishing":12214,"ike":12215,"pig":12216,"sd":12217,"Ġsip":12218,"Ġlum":12219,"Ġlivestock":12220,"emea":12221,"Ġrational":12222,"Ġrpa":12223,"Ġmanagerial":12224,"checker":12225,"thread":12226,"Ġplumber":12227,"Ġdatas":12228,"Ġsanitary":12229,"abroad":12230,"obiles":12231,"Ġconsultative":12232,"Ġfragr":12233,"Ġsecur":12234,"Ġgrant":12235,"Ġoeration":12236,"Ġcontracted":12237,"Ġeclipse":12238,"Ġcarry":12239,"interpr":12240,"Ġpatcher":12241,"Ġregister":12242,"peony":12243,"Ġenginery":12244,"Ġshowcase":12245,"Ġcatcher":12246,"Ġradios":12247,"substation":12248,"Ġfellowship":12249,"Ġstarter":12250,"Ġseparator":12251,"Ġmovement":12252,"divisional":12253,"ealand":12254,"latin":12255,"Ġbeta":12256,"Ġlinguist":12257,"Ġxero":12258,"Ġpentest":12259,"Ġholdings":12260,"Ġckeditor":12261,"Ġculinary":12262,"cics":12263,"casing":12264,"lo":12265,"russian":12266,"Ġtts":12267,"Ġsv":12268,"elite":12269,"Ġbam":12270,"evp":12271,"Ġanc":12272,"asy":12273,"usual":12274,"Ġofser":12275,"Ġaco":12276,"reer":12277,"Ġ360":12278,"comes":12279,"geospatial":12280,"Ġrubymine":12281,"khong":12282,"Ġhyundai":12283,"careful":12284,"Ġshiftleader":12285,"advance":12286,"Ġfanuc":12287,"Ġtiktok":12288,"neon":12289,"Ġqualcomm":12290,"callcenter":12291,"ĠZhe":12292,"Ġengenier":12293,"drywall":12294,"Ġcompressors":12295,"Ġserivce":12296,"Ġindonesia":12297,"Ġcordineter":12298,"Tr":12299,"den":12300,"dise":12301,"qms":12302,"uduct":12303,"vid":12304,"Ġpen":12305,"Ġmover":12306,"Ġlcl":12307,"eth":12308,"Ġramp":12309,"Ġpropriet":12310,"usability":12311,"Ġji":12312,"Ġnhoi":12313,"Ġplaster":12314,"Ġatr":12315,"Ġattr":12316,"Ġheineken":12317,"Ġimmun":12318,"segment":12319,"Ġbuoi":12320,"egate":12321,"secure":12322,"cancer":12323,"mathematical":12324,"automated":12325,"Ġpreparing":12326,"Ġknit":12327,"Ġdetector":12328,"Ġfitting":12329,"oversight":12330,"horse":12331,"Ġgreater":12332,"elta":12333,"layer":12334,"Ġptkd":12335,"Ġoverhaul":12336,"Ġmessage":12337,"Ġdemonstration":12338,"cryptography":12339,"rupt":12340,"synth":12341,"2200":12342,"AR":12343,"bse":12344,"dler":12345,"litho":12346,"neuro":12347,"pu":12348,"rap":12349,"tower":12350,"ues":12351,"Ġordin":12352,"Ġtops":12353,"Ġdft":12354,"Ġmcu":12355,"arity":12356,"Ġlpg":12357,"Ġltl":12358,"Ġbsa":12359,"umb":12360,"Ġitm":12361,"exhib":12362,"axis":12363,"oster":12364,"background":12365,"Ġdisability":12366,"cso":12367,"drum":12368,"provider":12369,"Ġdrawer":12370,"Ġzealand":12371,"pso":12372,"Ġmotors":12373,"built":12374,"Ġcircle":12375,"Ġhotline":12376,"Ġvacancies":12377,"misa":12378,"Ġengeenir":12379,"Ġmusical":12380,"Ġorigination":12381,"controlling":12382,"onautical":12383,"09":12384,"35":12385,"ET":12386,"cafe":12387,"gift":12388,"ju":12389,"near":12390,"pill":12391,"pandora":12392,"inking":12393,"Ġtact":12394,"Ġccs":12395,"Ġpusher":12396,"Ġmk":12397,"Ġmender":12398,"Ġhpe":12399,"Ġpros":12400,"Ġenign":12401,"oler":12402,"Ġofiser":12403,"Ġanalista":12404,"Ġcoil":12405,"Ġassiatant":12406,"Ġxung":12407,"Ġdevelopemnt":12408,"regular":12409,"Ġsecured":12410,"geophys":12411,"Ġlineman":12412,"servation":12413,"container":12414,"ergence":12415,"Ġunixlinux":12416,"supporting":12417,"player":12418,"sanitation":12419,"employees":12420,"soil":12421,"Ġoiler":12422,"stocks":12423,"Ġutilities":12424,"Ġpdms":12425,"Ġrestructures":12426,"Ġcabinet":12427,"splunk":12428,"Ġadminitrator":12429,"Ri":12430,"eh":12431,"kam":12432,"mary":12433,"ohs":12434,"pic":12435,"rat":12436,"washer":12437,"anite":12438,"Ġdid":12439,"Ġpak":12440,"routing":12441,"Ġniem":12442,"itat":12443,"itish":12444,"Ġhold":12445,"uce":12446,"Ġxbox":12447,"avice":12448,"coat":12449,"sewer":12450,"toeic":12451,"Ġbuoc":12452,"Ġtanker":12453,"offline":12454,"Ġmeteor":12455,"transit":12456,"ireline":12457,"Ġnatice":12458,"Ġsaws":12459,"Ġ2009":12460,"Ġconfidence":12461,"avera":12462,"Ġindependently":12463,"ĠYe":12464,"Ġmessenger":12465,"Ġquestion":12466,"cleaner":12467,"Ġnfpa":12468,"Ġangineer":12469,"Ġadditive":12470,"Ġgrading":12471,"commodation":12472,"benchmarking":12473,"Ġintergration":12474,"Ġsoldering":12475,"Ġohsas":12476,"Ġdresser":12477,"Ġninja":12478,"KET":12479,"dig":12480,"moodle":12481,"nut":12482,"nus":12483,"numerical":12484,"pement":12485,"tic":12486,"tar":12487,"erate":12488,"indesign":12489,"Ġdoss":12490,"Ġlvs":12491,"Ġksnb":12492,"eland":12493,"itives":12494,"Ġfall":12495,"Ġserve":12496,"Ġoffecer":12497,"reat":12498,"reference":12499,"Ġclipper":12500,"Ġsoil":12501,"hou":12502,"Ġbiostat":12503,"Ġvietnamobile":12504,"msc":12505,"Ġgeotechnical":12506,"dean":12507,"Ġhighly":12508,"Ġbuyers":12509,"Ġoptimizer":12510,"Ġott":12511,"metallurg":12512,"Ġtransformational":12513,"ĠMy":12514,"hygien":12515,"sheep":12516,"jekt":12517,"Ġanalisy":12518,"ING":12519,"Ġitalian":12520,"Ġroofer":12521,"Ġfertilizer":12522,"ARKET":12523,"ARKETING":12524,"cctv":12525,"cube":12526,"iform":12527,"jc":12528,"oke":12529,"rting":12530,"Ġlivestream":12531,"etive":12532,"isting":12533,"Ġengnier":12534,"apps":12535,"Ġinp":12536,"aile":12537,"orthodont":12538,"stract":12539,"Ġworkshops":12540,"Ġtelem":12541,"condition":12542,"here":12543,"Ġcaller":12544,"planing":12545,"Ġenginreer":12546,"Ġliquidation":12547,"Ġdvd":12548,"Ġtopic":12549,"Ġweapons":12550,"***":12551,"centr":12552,"Ġbutler":12553,"atchery":12554,"Ġengennier":12555,"Ġnatievs":12556,"reduxjs":12557,"connection":12558,"cdma":12559,"dentist":12560,"Ġingeniere":12561,"cmc":12562,"filling":12563,"ko":12564,"masters":12565,"tub":12566,"Ġtfs":12567,"Ġssp":12568,"Ġmro":12569,"Ġmcsa":12570,"esol":12571,"Ġlpn":12572,"rod":12573,"Ġbss":12574,"itng":12575,"Ġhep":12576,"Ġhcl":12577,"Ġfax":12578,"Ġebanking":12579,"Ġeye":12580,"epment":12581,"Ġmarketin":12582,"ervice":12583,"Ġdesigns":12584,"endiser":12585,"associated":12586,"Ġparties":12587,"Ġimprove":12588,"Ġrough":12589,"seism":12590,"Ġmodules":12591,"conveyor":12592,"Ġdrama":12593,"Ġexperiential":12594,"Ġoutpatient":12595,"Ġmicros":12596,"supporter":12597,"cylinder":12598,"planer":12599,"Ġnortel":12600,"Ġparad":12601,"Ġparaprofessional":12602,"Ġvnexpress":12603,"facilit":12604,"Ġfuniture":12605,"loader":12606,"Ġcrowd":12607,"traveler":12608,"snow":12609,"Ġmcse":12610,"donor":12611,"Ġsilicat":12612,"prepress":12613,"amaha":12614,"buck":12615,"Ġdeadline":12616,"montage":12617,"Ġnissan":12618,"Ġanayl":12619,"ained":12620,"dance":12621,"otr":12622,"piano":12623,"sle":12624,"vung":12625,"Ġsernior":12626,"Ġmine":12627,"esional":12628,"icom":12629,"ised":12630,"apy":12631,"anta":12632,"Ġconverter":12633,"Ġlync":12634,"estate":12635,"Ġadmins":12636,"Ġadminit":12637,"plug":12638,"Ġsooo":12639,"Ġvuon":12640,"saleadmin":12641,"Ġtheat":12642,"Ġusage":12643,"Ġcarbon":12644,"Ġecomm":12645,"keepe":12646,"Ġengineear":12647,"bug":12648,"Ġmineral":12649,"collar":12650,"Ġnavigos":12651,"Ġbootcamp":12652,"assistent":12653,"ometric":12654,"Ġgeography":12655,"Ġlogictics":12656,"esthesia":12657,"Ġcarolina":12658,"concierge":12659,"Ġenigneer":12660,"86":12661,"Pro":12662,"gect":12663,"hort":12664,"jenkins":12665,"mut":12666,"mai":12667,"toll":12668,"vending":12669,"inarian":12670,"Ġtast":12671,"Ġcus":12672,"atld":12673,"Ġmarin":12674,"amtion":12675,"ome":12676,"ucion":12677,"Ġwm":12678,"Ġacumen":12679,"Ġacconunt":12680,"prop":12681,"foreman":12682,"upsell":12683,"upholstery":12684,"Ġofficeer":12685,"Ġcomplain":12686,"ollo":12687,"Ġautomotives":12688,"arms":12689,"Ġaps":12690,"Ġestimated":12691,"Ġabs":12692,"Ġfirer":12693,"Ġguan":12694,"adeus":12695,"Ġarg":12696,"Ġknitter":12697,"iatrics":12698,"Ġpara":12699,"Ġinnovations":12700,"Ġvlsi":12701,"Ġlogger":12702,"extension":12703,"deliver":12704,"Ġexploratory":12705,"Ġexamination":12706,"psychiatric":12707,"Ġauthorization":12708,"Ġriggers":12709,"foundation":12710,"Ġbluetooth":12711,"Ġadaptation":12712,"holsterer":12713,"Ġauthentication":12714,"Ġbouns":12715,"iar":12716,"lending":12717,"Ġionic":12718,"Ġpitch":12719,"Ġmask":12720,"Ġlms":12721,"emotional":12722,"Ġapr":12723,"Ġhh":12724,"amel":12725,"Ġgay":12726,"Ġguru":12727,"Ġinox":12728,"Ġsals":12729,"arkting":12730,"pport":12731,"ava":12732,"Ġdesiner":12733,"crime":12734,"Ġleave":12735,"Ġaccountants":12736,"Ġbrain":12737,"Ġtheu":12738,"Ġimc":12739,"aki":12740,"Ġalignment":12741,"techical":12742,"Ġemboss":12743,"patrol":12744,"Ġelixir":12745,"Ġvinas":12746,"Ġcalibr":12747,"Ġlifeguard":12748,"radiation":12749,"Ġruns":12750,"tructive":12751,"Ġjoiner":12752,"Ġboxes":12753,"sampl":12754,"Ġnegineer":12755,"Ġcantonese":12756,"Ġghep":12757,"Ġenginereer":12758,"57":12759,"jin":12760,"nior":12761,"name":12762,"past":12763,"wifi":12764,"Ġpig":12765,"Ġpfc":12766,"ecl":12767,"icate":12768,"Ġamc":12769,"Ġhacking":12770,"unes":12771,"Ġanatomy":12772,"Ġglu":12773,"aix":12774,"Ġjp":12775,"Ġasa":12776,"Ġcod":12777,"orthot":12778,"Ġservi":12779,"Ġshear":12780,"Ġresil":12781,"Ġsole":12782,"Ġcompatibility":12783,"Ġbiologist":12784,"Ġluon":12785,"Ġproducing":12786,"recover":12787,"Ġhands":12788,"Ġpose":12789,"Ġips":12790,"workshop":12791,"fox":12792,"Ġlane":12793,"itten":12794,"translate":12795,"capa":12796,"postdoctoral":12797,"Ġirb":12798,"courier":12799,"licensing":12800,"repairer":12801,"Ġangeneer":12802,"Ġrefining":12803,"Ġcoodenator":12804,"Ġinfrast":12805,"Ġanylist":12806,"cardiac":12807,"Ġreseach":12808,"Ġcombination":12809,"trasound":12810,"mare":12811,"ĉĉ":12812,"incoming":12813,"enieer":12814,"Ġpuncher":12815,"hanical":12816,"elet":12817,"Ġnear":12818,"Ġdevloper":12819,"Ġrich":12820,"urt":12821,"ocal":12822,"asearch":12823,"Ġassur":12824,"Ġdum":12825,"forex":12826,"Ġreinsurance":12827,"Ġarchitectual":12828,"Ġtrom":12829,"netcore":12830,"overy":12831,"recovery":12832,"Ġsuch":12833,"Ġusaf":12834,"Ġaspects":12835,"Ġpowershell":12836,"invo":12837,"Ġregistry":12838,"Ġ07":12839,"Ġmotif":12840,"Ġsoftwar":12841,"psychological":12842,"Ġmainternance":12843,"ĠĠĠĠĠĠĠĠĠĠĠĠĠĠĠĠ":12844,"expansion":12845,"Ġadministation":12846,"Ġrecommendations":12847,"Ġcraftsman":12848,"Ġmexico":12849,"cant":12850,"iaries":12851,"riv":12852,"schem":12853,"wife":12854,"Ġtos":12855,"Ġcj":12856,"Ġcun":12857,"Ġcdt":12858,"Ġpiano":12859,"Ġmaz":12860,"Ġliv":12861,"Ġkin":12862,"oping":12863,"Ġtrauma":12864,"Ġgpa":12865,"apping":12866,"chao":12867,"Ġaccont":12868,"Ġdeveloppement":12869,"umi":12870,"Ġfinding":12871,"Ġleak":12872,"Ġyuan":12873,"Ġvietcombank":12874,"Ġtelematics":12875,"housekeep":12876,"Ġdelinquent":12877,"Ġimporting":12878,"Ġtechinal":12879,"Ġcanadian":12880,"scopy":12881,"Ġbonnus":12882,"Ġseam":12883,"marker":12884,"Ġenginnear":12885,"valve":12886,"beautician":12887,"microservices":12888,"frigerator":12889,"catalog":12890,"Ġfixture":12891,"bigdata":12892,"Ġcurrently":12893,"shoes":12894,"Ġhtkk":12895,"telemarketer":12896,"Ġofferings":12897,"Ġscreener":12898,"literacy":12899,"Ġprovinces":12900,"cements":12901,"jd":12902,"nan":12903,"tau":12904,"town":12905,"Ġsiebel":12906,"Ġcvc":12907,"Ġmit":12908,"Ġmort":12909,"ecare":12910,"iciency":12911,"Ġliem":12912,"Ġlider":12913,"acer":12914,"Ġbow":12915,"itp":12916,"Ġams":12917,"Ġanth":12918,"apac":12919,"Ġinco":12920,"antt":12921,"asbestos":12922,"trend":12923,"Ġleadel":12924,"Ġprograme":12925,"probation":12926,"plm":12927,"crane":12928,"hipaa":12929,"Ġrod":12930,"afee":12931,"Ġbios":12932,"Ġemt":12933,"conflict":12934,"Ġwinding":12935,"sugar":12936,"Ġaba":12937,"Ġdisorders":12938,"blue":12939,"shuttle":12940,"deploy":12941,"Ġcaretaker":12942,"transformation":12943,"ccna":12944,"deli":12945,"Ġciti":12946,"ĠEnginner":12947,"Ġwatches":12948,"magnetic":12949,"fiscal":12950,"Ġinedrive":12951,"Ġvitae":12952,"hygiene":12953,"bang":12954,"dft":12955,"future":12956,"rib":12957,"range":12958,"sse":12959,"tun":12960,"uil":12961,"Ġult":12962,"erie":12963,"oner":12964,"Ġdess":12965,"ornam":12966,"Ġkhang":12967,"Ġhl":12968,"Ġgall":12969,"Ġward":12970,"minary":12971,"rologist":12972,"Ġinsulator":12973,"uiux":12974,"Ġcomptele":12975,"ishi":12976,"Ġcran":12977,"Ġunsecured":12978,"Ġindian":12979,"retirement":12980,"Ġinfot":12981,"Ġsqlite":12982,"sms":12983,"Ġcadd":12984,"Ġlenovo":12985,"Ġdefect":12986,"setting":12987,"pole":12988,"northeast":12989,"Ġinterpreting":12990,"Ġholiday":12991,"welfare":12992,"procedure":12993,"Ġseek":12994,"aquatic":12995,"Ġinvoicing":12996,"Ġengniring":12997,"Ġplatoon":12998,"Ġcreativity":12999,"Ġalternative":13000,"placement":13001,"legislative":13002,"Ġescort":13003,"Ġterraform":13004,"3500":13005,"bursement":13006,"filler":13007,"mus":13008,"rise":13009,"sv":13010,"tant":13011,"Ġcand":13012,"Ġmui":13013,"Ġvh":13014,"icide":13015,"acus":13016,"elter":13017,"ago":13018,"Ġbuc":13019,"itil":13020,"Ġhit":13021,"Ġinfr":13022,"Ġebank":13023,"Ġjnc":13024,"avo":13025,"trailer":13026,"Ġdock":13027,"Ġscene":13028,"Ġbritish":13029,"Ġopens":13030,"Ġveget":13031,"Ġschematic":13032,"Ġchiet":13033,"Ġattention":13034,"Ġbrowse":13035,"correction":13036,"Ġenginear":13037,"Ġpowerplant":13038,"Ġorganized":13039,"tdd":13040,"Ġmacintosh":13041,"Ġarchit":13042,"ĠMay":13043,"Ġingener":13044,"Ġibs":13045,"Ġrestapi":13046,"Ġhole":13047,"Ġoverall":13048,"ĠEnglish":13049,"Ġironer":13050,"Ġdeliverer":13051,"Ġscanning":13052,"Ġapartments":13053,"ĠIngenieer":13054,"Ġceleb":13055,"improvement":13056,"bicycle":13057,"diversity":13058,"gic":13059,"museum":13060,"ogram":13061,"tk":13062,"Ġics":13063,"Ġour":13064,"aly":13065,"Ġnursery":13066,"Ġbis":13067,"Ġchic":13068,"irm":13069,"imaging":13070,"archivist":13071,"leard":13072,"osph":13073,"workflow":13074,"Ġfinace":13075,"Ġnetsuite":13076,"Ġitem":13077,"quanlity":13078,"assit":13079,"assoc":13080,"Ġforces":13081,"Ġcrystal":13082,"extrusion":13083,"return":13084,"ptologic":13085,"type":13086,"programer":13087,"Ġposs":13088,"Ġmarqueting":13089,"Ġspreader":13090,"Ġraiser":13091,"europe":13092,"dispense":13093,"locomotive":13094,"Ġreservoir":13095,"speaking":13096,"Ġadditives":13097,"Ġsplicer":13098,"Ġfeet":13099,"Ġdisputes":13100,"ulletin":13101,"thalmic":13102,"Ġexcutives":13103,"GINNE":13104,"bead":13105,"din":13106,"tm":13107,"vulnerability":13108,"zing":13109,"Ġtivoli":13110,"Ġsut":13111,"Ġdexterity":13112,"ecs":13113,"role":13114,"Ġaux":13115,"uscript":13116,"Ġcous":13117,"Ġbanners":13118,"Ġaccountan":13119,"leg":13120,"Ġrefund":13121,"Ġsupperv":13122,"Ġnetweaver":13123,"Ġappear":13124,"astro":13125,"Ġupgrades":13126,"areplus":13127,"Ġtendering":13128,"scan":13129,"bpm":13130,"Ġprepress":13131,"Ġanalyzer":13132,"Ġfoundations":13133,"educator":13134,"Ġmacbook":13135,"Ġadmimistration":13136,"chiu":13137,"completion":13138,"Ġslot":13139,"double":13140,"radar":13141,"Ġtreater":13142,"Ġmapreduce":13143,"makerting":13144,"Ġengenir":13145,"molder":13146,"Ġdraftsperson":13147,"mixing":13148,"communicatoin":13149,"estimation":13150,"Ġnegociation":13151,"Ġmorning":13152,"Ġwholesales":13153,"notarized":13154,"Ġdispenser":13155,"tbyt":13156,"bindery":13157,"Ġdissemination":13158,"Ġbreeder":13159,"biotechnology":13160,"Ġhusbandry":13161,"Ġmitsub":13162,"olerance":13163,"Ġdossier":13164,"GINNER":13165,"88":13166,"bet":13167,"jud":13168,"rag":13169,"upl":13170,"Ġig":13171,"enance":13172,"Ġtob":13173,"Ġdp":13174,"Ġpinterest":13175,"Ġmaint":13176,"icated":13177,"Ġnms":13178,"Ġbk":13179,"itro":13180,"ember":13181,"Ġthy":13182,"ams":13183,"Ġfid":13184,"Ġface":13185,"olv":13186,"Ġexchan":13187,"Ġjourney":13188,"Ġprin":13189,"imex":13190,"Ġplsql":13191,"Ġrepos":13192,"ategic":13193,"Ġcrit":13194,"Ġagend":13195,"Ġemotion":13196,"aka":13197,"Ġmathemat":13198,"ooter":13199,"cpu":13200,"Ġsequ":13201,"german":13202,"Ġowned":13203,"cuu":13204,"Ġaccenture":13205,"Ġcpq":13206,"Ġformul":13207,"Ġcovering":13208,"ĠHe":13209,"Ġdigger":13210,"Ġtunnel":13211,"Ġxerox":13212,"Ġpersuasion":13213,"Ġscenes":13214,"Ġmarkeint":13215,"Ġrelevant":13216,"typist":13217,"eliminary":13218,"Ġsexual":13219,"Ġreputation":13220,"Ġinpector":13221,"biz":13222,"feat":13223,"loom":13224,"milling":13225,"tab":13226,"watson":13227,"Ġinh":13228,"erik":13229,"Ġtcb":13230,"Ġtacker":13231,"esor":13232,"acute":13233,"Ġbaster":13234,"Ġbmw":13235,"ito":13236,"Ġthor":13237,"Ġfmla":13238,"Ġconcurrently":13239,"Ġwimax":13240,"Ġasles":13241,"Ġassault":13242,"Ġcomer":13243,"Ġxuyen":13244,"Ġprec":13245,"Ġdump":13246,"Ġitunes":13247,"Ġskincare":13248,"Ġsocket":13249,"Ġindep":13250,"Ġschematics":13251,"okes":13252,"conservation":13253,"Ġcollator":13254,"Ġupgrade":13255,"brim":13256,"brain":13257,"Ġdelphi":13258,"Ġcarver":13259,"patissier":13260,"azier":13261,"broadband":13262,"ushion":13263,"Ġsharefile":13264,"Ġ1994":13265,"Ġ1996":13266,"Ġphilosophy":13267,"Ġprepared":13268,"silicon":13269,"lathe":13270,"Ġichi":13271,"mixer":13272,"Ġwalmart":13273,"cigarette":13274,"Ġhauler":13275,"Ġdimension":13276,"Ġcomprehension":13277,"Ġreinforcement":13278,"ĠENGINNER":13279,"22":13280,"gep":13281,"lia":13282,"mate":13283,"ough":13284,"sky":13285,"xecutive":13286,"young":13287,"Ġdj":13288,"Ġpcs":13289,"icd":13290,"Ġburse":13291,"Ġhack":13292,"Ġengieer":13293,"Ġdevelepment":13294,"anted":13295,"Ġcould":13296,"Ġbander":13297,"activ":13298,"Ġprior":13299,"thao":13300,"Ġclash":13301,"raiser":13302,"assosiate":13303,"seam":13304,"Ġapplica":13305,"Ġartillery":13306,"incing":13307,"Ġinteroperability":13308,"ampoo":13309,"Ġprototyping":13310,"Ġdetective":13311,"Ġfiling":13312,"Ġsubsea":13313,"Ġinvestigative":13314,"Ġlogisitcs":13315,"Ġpipelines":13316,"marble":13317,"Ġgenaral":13318,"photoshoot":13319,"Ġtheme":13320,"Ġtechnicial":13321,"Ġrolling":13322,"Ġdiverse":13323,"Ġubuntu":13324,"Ġolym":13325,"demo":13326,"Ġmarktings":13327,"Ġpopulation":13328,"Ġcreatively":13329,"zzo":13330,"Ġboostrap":13331,"Ġpsychiatrist":13332,"Ġamounts":13333,"Ġdksh":13334,"focus":13335,"4000":13336,"dia":13337,"four":13338,"fdi":13339,"ged":13340,"mock":13341,"rush":13342,"surance":13343,"vay":13344,"wort":13345,"wax":13346,"Ġtog":13347,"Ġseg":13348,"Ġdtdd":13349,"ecan":13350,"Ġlod":13351,"Ġahu":13352,"Ġtreat":13353,"Ġhum":13354,"union":13355,"Ġgsa":13356,"Ġfro":13357,"Ġfea":13358,"ockey":13359,"Ġea":13360,"teradata":13361,"Ġmarketingurgent":13362,"Ġasc":13363,"Ġcoup":13364,"trieu":13365,"actuary":13366,"estics":13367,"ogen":13368,"aux":13369,"uding":13370,"Ġov":13371,"Ġoven":13372,"ollution":13373,"Ġintake":13374,"Ġoutfitting":13375,"Ġoutcomes":13376,"applic":13377,"Ġcommision":13378,"Ġelements":13379,"Ġseals":13380,"Ġtelecomunication":13381,"Ġhapp":13382,"Ġsubscription":13383,"electromechanical":13384,"diabetes":13385,"Ġsimpl":13386,"Ġaided":13387,"logging":13388,"Ġeuro":13389,"ustralian":13390,"Ġwritting":13391,"Ġcmmi":13392,"cocoa":13393,"signing":13394,"Ġsampler":13395,"sergeant":13396,"docker":13397,"histor":13398,"ensorflow":13399,"Ġdosm":13400,"Ġtheatre":13401,"Ġanthrop":13402,"ei":13403,"gather":13404,"hrop":13405,"nish":13406,"Ġicer":13407,"Ġsizer":13408,"atial":13409,"Ġpest":13410,"ston":13411,"Ġlev":13412,"Ġnp":13413,"unload":13414,"Ġprote":13415,"cha":13416,"ado":13417,"Ġwalk":13418,"Ġadl":13419,"grant":13420,"Ġxp":13421,"Ġplane":13422,"Ġrelief":13423,"Ġflo":13424,"Ġunusual":13425,"Ġbiom":13426,"toy":13427,"eye":13428,"Ġalso":13429,"Ġbenz":13430,"Ġlinear":13431,"drawe":13432,"Ġlocomotive":13433,"docs":13434,"tdv":13435,"relay":13436,"Ġimprovements":13437,"Ġmarkenting":13438,"Ġdhkk":13439,"Ġcmms":13440,"Ġila":13441,"statistician":13442,"preparing":13443,"bhxh":13444,"ĠRui":13445,"Ġmasan":13446,"disciplinary":13447,"ji":13448,"lamp":13449,"nestle":13450,"rwok":13451,"tung":13452,"Ġdiplom":13453,"atcher":13454,"Ġpms":13455,"Ġmir":13456,"aris":13457,"around":13458,"Ġlil":13459,"rough":13460,"elearning":13461,"Ġnm":13462,"Ġbop":13463,"etr":13464,"Ġmannual":13465,"emr":13466,"Ġdevision":13467,"ucutive":13468,"chart":13469,"Ġwarden":13470,"Ġstep":13471,"Ġstill":13472,"Ġexporter":13473,"Ġspect":13474,"Ġreseller":13475,"anda":13476,"Ġadvise":13477,"Ġtaper":13478,"Ġcapstone":13479,"datas":13480,"Ġcreo":13481,"Ġsmes":13482,"Ġintegrators":13483,"eft":13484,"Ġstorekeeper":13485,"underground":13486,"Ġelite":13487,"Ġremot":13488,"contracted":13489,"dukt":13490,"Ġ80":13491,"Ġaftersale":13492,"Ġospf":13493,"fulfillment":13494,"Ġmaintainance":13495,"receipt":13496,"Ġsingle":13497,"collaborators":13498,"pbx":13499,"Ġwritter":13500,"photographers":13501,"dbms":13502,"Ġoverhead":13503,"Ġplacer":13504,"coordination":13505,"Ġppap":13506,"Ġlifting":13507,"molecular":13508,"ĠWen":13509,"tecnical":13510,"Ġconnections":13511,"Ġpickup":13512,"women":13513,"publications":13514,"nextcloud":13515,"Ġadminitrative":13516,"Ġscores":13517,"Ġsubmissions":13518,"compressor":13519,"Ġkarofi":13520,"Ġweekly":13521,"Ġcordova":13522,"Ġchallenges":13523,"atsuhu":13524,"Ġcollatorabor":13525,"Ġpreparedness":13526,"70":13527,"hm":13528,"jext":13529,"pce":13530,"tension":13531,"vuc":13532,"vass":13533,"attractive":13534,"econ":13535,"Ġvy":13536,"roc":13537,"Ġnoval":13538,"Ġhem":13539,"Ġphase":13540,"ometer":13541,"achi":13542,"Ġextreme":13543,"ysler":13544,"udct":13545,"strip":13546,"json":13547,"Ġtriage":13548,"Ġinsector":13549,"Ġupholstery":13550,"nhien":13551,"Ġmarsh":13552,"vcs":13553,"Ġcountries":13554,"chuoi":13555,"Ġcommissions":13556,"unteers":13557,"cattle":13558,"Ġsenoir":13559,"Ġbrewery":13560,"solaris":13561,"Ġsaies":13562,"Ġangel":13563,"esthetics":13564,"Ġcharacterization":13565,"mechatronic":13566,"responsive":13567,"cardiovascular":13568,"Ġadhd":13569,"careplus":13570,"jo":13571,"lim":13572,"pile":13573,"pallet":13574,"sdlc":13575,"vil":13576,"era":13577,"intranet":13578,"enviroment":13579,"ona":13580,"Ġdisk":13581,"alat":13582,"arry":13583,"aged":13584,"Ġble":13585,"itual":13586,"Ġhpc":13587,"Ġris":13588,"Ġfcc":13589,"Ġphlebot":13590,"ocycle":13591,"chron":13592,"antage":13593,"Ġconstr":13594,"Ġmarketign":13595,"Ġcouch":13596,"ody":13597,"Ġspac":13598,"Ġleads":13599,"about":13600,"Ġtroubles":13601,"qlrr":13602,"mann":13603,"Ġadvising":13604,"seafreight":13605,"Ġmerketing":13606,"Ġapollo":13607,"suit":13608,"tions":13609,"viral":13610,"linen":13611,"Ġrealization":13612,"easibility":13613,"Ġhyatt":13614,"Ġamadeus":13615,"Ġexecute":13616,"Ġhomework":13617,"buff":13618,"biochem":13619,"visio":13620,"Ġretouching":13621,"glue":13622,"Ġmarkiting":13623,"mfg":13624,"pharma":13625,"certification":13626,"Ġdecisions":13627,"Ġmessages":13628,"Ġsensing":13629,"ĠJian":13630,"supermarket":13631,"bhtn":13632,"threat":13633,"clothing":13634,"Ġathlete":13635,"conceptual":13636,"troubleshooting":13637,"flexible":13638,"recruiters":13639,"Ġmechandise":13640,"dentistry":13641,"imbursement":13642,"Ġekg":13643,"graduated":13644,"Ġmitsubishi":13645,"012":13646,"baker":13647,"dx":13648,"mort":13649,"wi":13650,"wich":13651,"Ã§":13652,"Ġcco":13653,"even":13654,"Ġtrao":13655,"Ġhal":13656,"Ġcht":13657,"Ġefl":13658,"igan":13659,"Ġjee":13660,"Ġaddress":13661,"Ġcomments":13662,"Ġconsignment":13663,"umn":13664,"agegic":13665,"rael":13666,"manpower":13667,"airlines":13668,"Ġedu":13669,"Ġmodeller":13670,"Ġabacus":13671,"Ġdeli":13672,"networks":13673,"Ġalgebra":13674,"screw":13675,"matic":13676,"Ġbond":13677,"Ġminded":13678,"Ġminister":13679,"Ġflooring":13680,"guarant":13681,"ĠMaketing":13682,"Ġfluency":13683,"instagram":13684,"centre":13685,"Ġvacancy":13686,"railway":13687,"Ġbabys":13688,"promote":13689,"bitration":13690,"tecn":13691,"appraise":13692,"Ġadministator":13693,"engraver":13694,"Ġohio":13695,"Ġcrimes":13696,"ruptcy":13697,"cion":13698,"fuse":13699,"gang":13700,"jakarta":13701,"mice":13702,"ouse":13703,"sens":13704,"six":13705,"shank":13706,"Ġell":13707,"Ġsotfware":13708,"Ġpcr":13709,"Ġviem":13710,"Ġvtv":13711,"Ġvouch":13712,"academy":13713,"itel":13714,"itas":13715,"emon":13716,"Ġaies":13717,"Ġgod":13718,"Ġfte":13719,"Ġchrome":13720,"Ġintrusion":13721,"anthrop":13722,"asper":13723,"Ġstap":13724,"Ġexcl":13725,"idency":13726,"Ġxo":13727,"Ġdesignier":13728,"Ġshou":13729,"Ġtechnicals":13730,"uba":13731,"Ġhrms":13732,"Ġemission":13733,"Ġheader":13734,"Ġexporting":13735,"egg":13736,"Ġmicrocontroller":13737,"Ġexpand":13738,"icken":13739,"Ġadsl":13740,"insights":13741,"Ġcommitter":13742,"Ġswitches":13743,"Ġsections":13744,"Ġtherape":13745,"Ġaccessory":13746,"Ġcompetence":13747,"glove":13748,"mould":13749,"substitute":13750,"Ġepidem":13751,"standard":13752,"ĠZheng":13753,"petty":13754,"Ġsofeware":13755,"Ġdtx":13756,"Ġpediatric":13757,"pastrycook":13758,"Ġguns":13759,"optimize":13760,"Ġduties":13761,"Ġenterprises":13762,"Ġlilama":13763,"Ġvouchers":13764,"fort":13765,"gent":13766,"pac":13767,"syst":13768,"sdn":13769,"sails":13770,"wafer":13771,"Ġmasters":13772,"Ġaaa":13773,"Ġdeve":13774,"Ġrack":13775,"Ġride":13776,"unc":13777,"Ġengl":13778,"Ġwet":13779,"Ġwoker":13780,"Ġexucutive":13781,"Ġjot":13782,"Ġxem":13783,"tress":13784,"actory":13785,"Ġthiep":13786,"leaf":13787,"Ġnghep":13788,"Ġsow":13789,"Ġlex":13790,"Ġgrain":13791,"residence":13792,"Ġimag":13793,"see":13794,"Ġheadquarter":13795,"Ġswat":13796,"bread":13797,"Ġwarehouseman":13798,"Ġdischarge":13799,"Ġregulator":13800,"blast":13801,"nghanh":13802,"shield":13803,"Ġvolunteers":13804,"Ġsaels":13805,"Ġradiation":13806,"Ġcrewman":13807,"Ġnano":13808,"htts":13809,"organizing":13810,"distance":13811,"Ġquickly":13812,"Ġdigial":13813,"Ġslaes":13814,"Ġcabinets":13815,"detailed":13816,"Ġmaximum":13817,"Ġsistem":13818,"cipt":13819,"gem":13820,"gsm":13821,"hd":13822,"sus":13823,"wot":13824,"Ġtolerance":13825,"Ġsad":13826,"Ġsail":13827,"Ġduct":13828,"ienc":13829,"Ġbn":13830,"iti":13831,"itsu":13832,"etary":13833,"Ġhort":13834,"igade":13835,"olve":13836,"Ġmarketiing":13837,"Ġwiring":13838,"Ġstamper":13839,"atex":13840,"Ġassuarance":13841,"trial":13842,"Ġteen":13843,"phical":13844,"Ġpackager":13845,"Ġcapt":13846,"exhibition":13847,"close":13848,"telepresence":13849,"Ġlinen":13850,"Ġcsg":13851,"Ġnewbrand":13852,"Ġordnance":13853,"Ġairways":13854,"Ġmakteting":13855,"Ġpromoted":13856,"Ġdiamond":13857,"provision":13858,"Ġterr":13859,"Ġfundraiser":13860,"hydr":13861,"ablie":13862,"Ġexploration":13863,"Ġexams":13864,"Ġcomposition":13865,"Ġfarming":13866,"charter":13867,"Ġarms":13868,"Ġptsp":13869,"Ġsofwares":13870,"Ġstartups":13871,"Ġtesing":13872,"protection":13873,"genaral":13874,"Ġexectu":13875,"Ġethical":13876,"Ġachitect":13877,"Ġsavills":13878,"conversion":13879,"Ġhearings":13880,"refinery":13881,"okesperson":13882,"69":13883,"fp":13884,"ght":13885,"mig":13886,"punch":13887,"sop":13888,"Ġtk":13889,"Ġsig":13890,"Ġsaff":13891,"Ġcg":13892,"Ġcelta":13893,"Ġmuseum":13894,"Ġber":13895,"evious":13896,"Ġtrue":13897,"Ġglob":13898,"Ġfat":13899,"Ġchai":13900,"Ġinstr":13901,"Ġquarter":13902,"olta":13903,"Ġwintel":13904,"uctor":13905,"Ġaccommodation":13906,"Ġdevelopmental":13907,"istries":13908,"Ġclim":13909,"cruise":13910,"Ġheating":13911,"illary":13912,"illustr":13913,"phe":13914,"Ġround":13915,"excell":13916,"Ġresourse":13917,"Ġperipheral":13918,"ibution":13919,"Ġused":13920,"Ġalpha":13921,"Ġlectra":13922,"Ġelectricity":13923,"Ġesd":13924,"interface":13925,"Ġetcher":13926,"insight":13927,"Ġallow":13928,"Ġprovide":13929,"Ġexecu":13930,"caho":13931,"Ġdeveleopment":13932,"Ġfocal":13933,"registration":13934,"classification":13935,"alogic":13936,
[...]
